<s>	0
<pad>	0
</s>	0
<unk>	0
.	-3.32913
,	-3.4227
▁the	-3.65974
▁to	-4.04551
▁and	-4.23963
▁of	-4.27277
▁a	-4.29808
▁।	-4.31524
s	-4.38224
▁I	-4.70882
▁in	-4.71581
▁you	-4.96664
▁is	-4.99121
▁that	-5.01372
’	-5.07252
▁for	-5.10129
'	-5.15378
▁it	-5.19797
-	-5.37327
▁on	-5.44386
▁with	-5.48504
▁be	-5.5045
t	-5.59165
▁are	-5.6504
को	-5.65989
▁have	-5.67001
▁र	-5.72694
▁this	-5.72797
▁was	-5.75112
▁छ	-5.76228
▁as	-5.77862
▁your	-5.77953
▁not	-5.92377
मा	-5.93047
▁The	-5.94943
▁or	-5.95955
▁(	-5.9662
▁at	-5.97378
▁can	-6.05207
▁"	-6.10205
।	-6.10648
?	-6.11943
▁from	-6.13502
▁will	-6.13959
▁we	-6.1408
▁my	-6.14986
▁but	-6.17262
▁an	-6.22322
▁“	-6.22712
)	-6.2314
:	-6.24494
▁by	-6.25038
▁he	-6.2531
▁all	-6.2571
का	-6.2587
!	-6.26639
▁they	-6.27029
ले	-6.31348
▁so	-6.39609
▁about	-6.40971
▁one	-6.41541
▁	-6.43016
▁पनि	-6.44733
▁more	-6.44858
▁me	-6.48382
▁out	-6.49139
▁has	-6.52202
▁his	-6.52353
▁up	-6.53015
▁do	-6.54452
...	-6.57296
▁It	-6.5806
▁their	-6.59593
▁what	-6.60291
▁if	-6.60947
m	-6.61516
▁like	-6.61549
▁time	-6.61892
ing	-6.64292
▁had	-6.65684
d	-6.65956
लाई	-6.66747
▁would	-6.6825
▁there	-6.68893
▁‘	-6.70757
▁just	-6.71522
▁been	-6.72519
▁our	-6.72604
▁who	-6.72659
▁भएको	-6.74215
▁her	-6.76075
▁which	-6.77346
▁when	-6.80464
▁them	-6.80586
▁get	-6.82458
▁लागि	-6.82623
ed	-6.83054
▁some	-6.83072
re	-6.86253
▁छन्	-6.86972
▁were	-6.92161
▁people	-6.94231
▁other	-6.95995
▁know	-6.96084
▁हो	-6.96222
▁said	-6.98997
▁गर्ने	-6.99199
▁she	-6.99786
▁You	-7.00626
▁any	-7.00767
▁-	-7.00979
▁no	-7.01861
/	-7.01891
▁गर्न	-7.02334
▁A	-7.02829
▁than	-7.0342
▁This	-7.03675
▁how	-7.04066
▁गरेको	-7.05964
▁We	-7.05988
▁don	-7.12761
▁make	-7.12933
ve	-7.12987
▁into	-7.13322
▁very	-7.13619
▁also	-7.14678
▁–	-7.15244
▁भने	-7.16444
▁good	-7.18363
▁only	-7.19984
▁If	-7.20489
▁over	-7.20782
▁In	-7.21064
▁तथा	-7.21559
▁him	-7.21632
▁see	-7.21834
I	-7.2275
▁us	-7.2302
▁think	-7.23665
;	-7.24464
▁much	-7.24671
▁way	-7.24894
▁यो	-7.24926
▁could	-7.25337
▁नेपाल	-7.2577
▁new	-7.26666
ll	-7.26679
▁now	-7.27233
▁work	-7.29121
बाट	-7.29122
▁एक	-7.31078
▁may	-7.31211
▁He	-7.31764
▁back	-7.32617
▁here	-7.3309
–	-7.35023
▁need	-7.35067
▁And	-7.35196
▁well	-7.35241
▁these	-7.35764
▁first	-7.36268
▁should	-7.38599
▁then	-7.38794
▁really	-7.38993
▁want	-7.39109
▁go	-7.41247
"	-7.41754
▁most	-7.42135
▁But	-7.4239
▁even	-7.42944
▁थियो	-7.43384
▁years	-7.44089
▁many	-7.44095
”	-7.44498
▁because	-7.44762
ly	-7.45902
▁हुने	-7.47876
▁take	-7.49557
▁use	-7.50268
▁two	-7.51186
▁am	-7.51225
▁नेपाली	-7.5131
▁day	-7.51732
▁going	-7.52076
▁right	-7.53042
▁great	-7.53406
▁नै	-7.53708
▁where	-7.55663
).	-7.56482
▁after	-7.56624
▁before	-7.57476
▁year	-7.57698
▁?	-7.5853
▁too	-7.58852
▁being	-7.58959
▁those	-7.59208
.".	-7.61492
▁को	-7.61748
▁through	-7.63237
▁such	-7.63331
▁help	-7.64298
▁its	-7.64497
▁तर	-7.65219
▁did	-7.66051
▁made	-7.67017
er	-7.67893
▁down	-7.68764
▁मा	-7.6884
▁say	-7.69358
▁:	-7.69688
▁find	-7.70042
▁still	-7.70147
▁life	-7.70301
y	-7.70701
▁There	-7.70738
▁रहेको	-7.70979
▁'	-7.71592
▁things	-7.72215
▁little	-7.73206
▁What	-7.74344
▁love	-7.74875
▁something	-7.74908
.”.	-7.75401
▁look	-7.75991
▁So	-7.76283
▁own	-7.76612
▁long	-7.76701
▁off	-7.76942
▁They	-7.7813
▁best	-7.78188
a	-7.78717
▁last	-7.79615
▁come	-7.79918
▁काम	-7.80588
e	-7.81199
▁same	-7.81758
▁काठमाडौं	-7.82008
▁गरेका	-7.82261
▁few	-7.82923
:.	-7.84719
▁information	-7.84971
,"	-7.86288
▁never	-7.86346
▁around	-7.86482
▁_	-7.87064
▁got	-7.89294
▁world	-7.89308
▁उनले	-7.89957
न	-7.90127
▁That	-7.90138
▁sure	-7.9031
▁home	-7.90631
ी	-7.91168
▁lot	-7.91525
▁always	-7.91572
▁...	-7.91694
▁every	-7.92835
S	-7.93102
▁must	-7.93304
▁थिए	-7.93987
▁त	-7.95333
▁गरिएको	-7.95383
▁while	-7.9539
▁हुन्छ	-7.95522
▁might	-7.95693
▁better	-7.95711
▁She	-7.9634
▁used	-7.96448
▁place	-7.97171
▁For	-7.97345
th	-7.9743
▁गर्दै	-7.97975
▁again	-7.98137
▁i	-7.99141
▁each	-7.9927
▁thing	-7.99418
▁छैन	-7.9993
▁As	-8.00319
▁part	-8.00744
▁भन्ने	-8.01652
in	-8.01719
▁१	-8.01917
▁नयाँ	-8.0217
,”	-8.0422
▁आफ्नो	-8.04263
▁हुन	-8.04948
▁दिन	-8.05124
▁does	-8.05953
▁business	-8.05997
▁गरी	-8.06842
▁दुई	-8.07131
com	-8.07496
हरु	-8.08014
▁म	-8.08029
▁2	-8.08063
▁give	-8.08122
▁२	-8.0819
▁हाम्रो	-8.09306
▁man	-8.09323
▁next	-8.09837
▁भएका	-8.10762
▁another	-8.10794
▁didn	-8.11358
▁different	-8.11491
▁without	-8.11824
▁हजार	-8.12122
▁के	-8.12249
▁post	-8.12582
▁found	-8.12741
▁why	-8.12769
▁feel	-8.12811
▁To	-8.13156
▁When	-8.13235
▁site	-8.13858
▁My	-8.14843
▁केही	-8.15065
▁keep	-8.15142
▁put	-8.15447
▁under	-8.16672
▁3	-8.16822
▁end	-8.17778
सँग	-8.17858
▁read	-8.19658
▁both	-8.199
▁away	-8.20241
▁प्रदेश	-8.20672
▁कुरा	-8.20905
▁days	-8.21926
▁let	-8.22434
▁सबै	-8.23412
▁धेरै	-8.2384
▁able	-8.23958
▁looking	-8.24404
▁three	-8.24638
▁between	-8.24716
▁since	-8.25023
▁1	-8.25041
▁family	-8.25796
r	-8.26664
▁ever	-8.26677
▁अध्यक्ष	-8.26747
▁old	-8.2693
▁high	-8.26935
▁कुनै	-8.27123
▁done	-8.27516
or	-8.27662
▁प्रधानमन्त्री	-8.27684
n	-8.27736
▁thought	-8.27828
▁course	-8.28466
▁person	-8.28819
▁३	-8.29012
र	-8.29024
▁week	-8.29276
▁कारण	-8.29899
▁enough	-8.30133
▁लाख	-8.30717
े	-8.30782
▁money	-8.31293
हरू	-8.31355
▁हुन्	-8.31439
▁set	-8.32014
▁number	-8.32017
▁point	-8.323
▁५	-8.32345
▁though	-8.32499
▁आज	-8.32543
▁doing	-8.32666
al	-8.32725
▁जानकारी	-8.33306
▁यस	-8.33412
▁How	-8.33553
▁blog	-8.33735
क	-8.33777
▁start	-8.34836
▁वर्ष	-8.34978
▁राष्ट्रिय	-8.35213
▁important	-8.35294
▁free	-8.35706
▁मात्र	-8.35871
▁वा	-8.3603
▁रुपमा	-8.36216
▁having	-8.37005
▁doesn	-8.37387
▁गते	-8.37573
▁experience	-8.37964
▁पहिलो	-8.38154
▁actually	-8.38404
▁getting	-8.38457
▁सय	-8.38462
▁सरकारले	-8.38702
▁least	-8.38776
▁जिल्ला	-8.38904
▁during	-8.39244
▁No	-8.39578
▁!	-8.39671
▁making	-8.39816
▁using	-8.40095
—	-8.40377
▁tell	-8.40592
▁far	-8.40811
▁प्रमुख	-8.41117
▁मृत्यु	-8.41638
स	-8.41641
▁came	-8.41739
▁case	-8.42031
▁website	-8.42265
▁विकास	-8.42281
▁anything	-8.42331
▁today	-8.42548
▁निर्माण	-8.42559
▁try	-8.42649
▁प्रहरी	-8.42747
▁change	-8.43061
▁children	-8.43322
▁१०	-8.43372
▁book	-8.43455
▁10	-8.43545
▁school	-8.43588
▁show	-8.43836
▁hard	-8.44151
es	-8.44393
▁already	-8.44465
▁re	-8.44469
▁अहिले	-8.44842
▁कार्यक्रम	-8.45023
▁5	-8.45051
i	-8.45067
▁working	-8.45112
and	-8.45228
▁भयो	-8.45426
▁until	-8.45576
▁care	-8.45935
▁order	-8.46513
▁service	-8.46537
▁यस्तो	-8.46795
▁company	-8.46799
▁bit	-8.4706
▁भए	-8.47282
▁system	-8.47452
▁जना	-8.47504
▁small	-8.47537
▁स्थानीय	-8.4787
▁someone	-8.48002
▁बढी	-8.48204
▁full	-8.48475
o	-8.48527
▁big	-8.48654
▁Do	-8.48658
▁समेत	-8.49027
▁believe	-8.49176
▁kind	-8.49495
▁water	-8.49768
▁४	-8.49832
▁बताए	-8.49929
▁गरे	-8.50459
▁support	-8.50474
▁६	-8.51047
▁real	-8.51064
▁गरेर	-8.5164
▁night	-8.51654
▁—	-8.5187
▁4	-8.52125
▁आएको	-8.52403
ers	-8.52586
▁left	-8.52605
▁सार्वजनिक	-8.52634
ै	-8.52974
▁name	-8.52984
▁available	-8.53044
▁once	-8.53109
▁less	-8.53285
▁job	-8.5337
▁went	-8.53435
A	-8.53592
▁S	-8.53652
▁न	-8.53782
▁अब	-8.54284
▁God	-8.54363
▁times	-8.54427
▁game	-8.54506
▁fact	-8.54543
▁All	-8.55136
▁hand	-8.55175
▁बारेमा	-8.55224
▁says	-8.55288
▁mind	-8.55337
▁अनुसार	-8.55367
),	-8.55471
▁against	-8.55673
▁following	-8.56282
▁गर्नुहोस्	-8.56337
▁Thanks	-8.56781
▁[	-8.56891
The	-8.57187
▁means	-8.57704
▁hope	-8.57727
▁team	-8.57831
▁Your	-8.57898
▁together	-8.5799
]	-8.58047
▁health	-8.58205
▁yet	-8.58342
▁car	-8.5843
▁often	-8.58742
▁त्यो	-8.58802
▁possible	-8.58809
▁room	-8.59022
▁house	-8.59323
म	-8.59368
▁विभिन्न	-8.59377
▁head	-8.59684
▁New	-8.59906
g	-8.60131
▁समय	-8.60177
▁within	-8.60772
▁idea	-8.60995
▁एउटा	-8.61012
▁सेवा	-8.61127
▁web	-8.61346
▁call	-8.61346
▁side	-8.6164
▁others	-8.61771
▁One	-8.61884
▁everything	-8.62229
▁process	-8.62632
▁provide	-8.63097
▁पार्टी	-8.63123
कै	-8.63211
▁problem	-8.63344
▁shall	-8.63353
▁तीन	-8.63666
▁public	-8.63711
▁understand	-8.64043
ल	-8.64078
▁top	-8.64097
▁nothing	-8.64287
▁समाचार	-8.64309
▁data	-8.64557
c	-8.6459
▁state	-8.64623
▁easy	-8.6474
▁took	-8.64968
ा	-8.65011
▁won	-8.65079
▁At	-8.65467
▁भन्दै	-8.65618
▁including	-8.65689
▁seen	-8.65836
▁live	-8.65874
▁ago	-8.65941
▁घर	-8.66062
▁story	-8.66371
▁कि	-8.66408
▁trying	-8.66518
▁whole	-8.66596
to	-8.66833
▁&	-8.66874
▁per	-8.67028
▁आर्थिक	-8.6715
▁open	-8.67306
▁quite	-8.67349
▁become	-8.67587
b	-8.67801
▁Thank	-8.67947
▁सुरु	-8.68261
▁country	-8.68266
▁pretty	-8.68512
▁food	-8.68629
▁गर्दा	-8.6863
--	-8.68639
ु	-8.68687
▁हामी	-8.68945
▁friends	-8.69052
▁told	-8.69174
▁else	-8.69209
▁७	-8.69214
▁play	-8.69272
▁डा	-8.69442
▁कार्यालय	-8.69482
▁mean	-8.69546
▁probably	-8.69581
▁months	-8.69582
▁निर्वाचन	-8.69832
▁सरकार	-8.69899
▁online	-8.7006
▁women	-8.70138
▁भन्दा	-8.70579
▁matter	-8.70776
▁list	-8.70931
▁area	-8.71133
▁Now	-8.71136
▁का	-8.71228
▁asked	-8.7124
▁please	-8.71326
▁past	-8.71437
▁रहेका	-8.71447
▁makes	-8.71463
▁दिने	-8.71902
the	-8.71982
▁everyone	-8.71991
D	-8.72307
▁men	-8.72327
▁needs	-8.72523
▁services	-8.72874
▁pay	-8.73062
▁face	-8.73116
▁question	-8.7342
▁सम्पन्न	-8.73597
▁करोड	-8.73823
▁un	-8.73997
▁fun	-8.74125
▁On	-8.74179
(	-8.74213
▁hours	-8.74454
▁body	-8.74514
▁क्षेत्रमा	-8.74778
▁second	-8.7519
▁run	-8.75364
▁Here	-8.75378
▁isn	-8.75819
▁नेपालको	-8.75825
▁काठमाडौँ	-8.76002
▁article	-8.76042
▁With	-8.7638
C	-8.76426
▁started	-8.76646
▁उनी	-8.76931
▁wanted	-8.76958
▁bad	-8.77361
▁मेरो	-8.77413
▁अन्य	-8.77598
▁group	-8.78001
▁ask	-8.78004
▁power	-8.78414
▁local	-8.78435
▁प्रयोग	-8.78478
▁called	-8.7848
on	-8.78597
▁seems	-8.78694
▁निर्णय	-8.787
▁future	-8.79066
▁समस्या	-8.793
▁उनको	-8.79536
▁उक्त	-8.80002
▁comes	-8.80187
▁yourself	-8.80224
▁taking	-8.80361
▁यी	-8.80402
▁सहयोग	-8.80484
....	-8.80498
▁given	-8.80538
able	-8.80815
▁माग	-8.80889
▁check	-8.8103
▁नं	-8.81079
▁reason	-8.81125
▁These	-8.81421
▁However	-8.81657
▁soon	-8.81798
▁learn	-8.8181
▁6	-8.8206
▁स्वास्थ्य	-8.82085
▁page	-8.82166
▁पक्राउ	-8.82173
की	-8.82189
ँ	-8.82222
▁students	-8.82285
▁सो	-8.82332
▁personal	-8.82544
▁share	-8.82576
▁several	-8.8258
ता	-8.82712
▁नेता	-8.82918
▁along	-8.83003
▁plan	-8.83004
ं	-8.83061
▁child	-8.83081
.”	-8.83273
▁social	-8.83285
▁anyone	-8.83547
▁government	-8.83602
त	-8.83633
▁After	-8.83769
▁later	-8.83818
▁पटक	-8.84044
▁happy	-8.84212
▁large	-8.84314
▁young	-8.84333
▁writing	-8.84343
▁example	-8.84495
▁देखि	-8.84851
▁Not	-8.85133
▁nice	-8.85494
▁सूचना	-8.85646
सम्म	-8.85752
It	-8.85781
▁heart	-8.86007
▁२०	-8.86118
You	-8.86259
▁whether	-8.86344
▁short	-8.86443
▁almost	-8.86514
▁भनेर	-8.8669
▁reading	-8.87106
▁नेपालमा	-8.87272
▁आयोजना	-8.87282
▁coming	-8.87517
▁market	-8.87547
▁across	-8.87616
▁C	-8.87861
▁words	-8.88699
▁either	-8.89078
▁community	-8.89303
▁above	-8.89361
▁insurance	-8.8953
▁अघि	-8.89701
▁महिला	-8.89819
▁offer	-8.89836
▁minutes	-8.89867
▁गर्नु	-8.89876
://	-8.89918
▁content	-8.89985
▁rather	-8.90039
▁myself	-8.9023
▁questions	-8.90286
▁line	-8.90397
▁level	-8.90858
▁20	-8.90936
यो	-8.91254
▁अ	-8.91255
▁१५	-8.91338
."	-8.91467
▁मन्त्री	-8.91551
▁B	-8.91592
▁talk	-8.91711
▁Just	-8.9178
▁hear	-8.91999
▁८	-8.92167
▁Our	-8.92171
देखि	-8.92649
p	-8.92923
▁taken	-8.9314
▁leave	-8.93154
▁18	-8.932
We	-8.93281
▁Well	-8.93509
हरुको	-8.93545
▁व्यवस्था	-8.93824
▁E	-8.94074
▁१२	-8.94145
▁eyes	-8.94359
▁forward	-8.94413
▁D	-8.94455
▁थप	-8.94592
▁moment	-8.94688
▁create	-8.94784
▁true	-8.94798
▁प्रतिशत	-8.94939
▁however	-8.95047
▁7	-8.95121
▁९	-8.95449
▁four	-8.95589
▁कम	-8.95728
▁upon	-8.95824
▁month	-8.95973
▁million	-8.96528
▁होइन	-8.9653
पछि	-8.96653
प	-8.96721
▁project	-8.96779
T	-8.9678
▁program	-8.968
▁दिएको	-8.96821
B	-8.96832
▁visit	-8.9687
▁half	-8.96931
▁issues	-8.96935
▁P	-8.96972
▁--	-8.9709
▁मन	-8.97255
▁मैले	-8.97467
▁friend	-8.97578
्	-8.9788
▁simply	-8.97908
▁form	-8.9799
▁close	-8.98285
▁early	-8.98417
▁११	-8.9844
▁cost	-8.98582
▁quality	-8.98657
▁light	-8.98714
▁२०७५	-8.98973
▁based	-8.99035
▁law	-8.99149
up	-8.99209
▁stay	-8.99243
▁जनाएको	-8.99352
▁e	-8.99377
▁2018	-8.99447
▁सहित	-8.99499
▁issue	-8.9965
▁क्षेत्र	-8.99677
▁remember	-8.99729
▁email	-8.99834
▁प्राप्त	-8.99863
▁research	-8.99901
man	-8.99976
▁morning	-9.00111
मै	-9.00116
▁saw	-9.00451
▁प्रतिक्रिया	-9.00664
▁कसरी	-9.00691
▁शेयर	-9.00775
▁looks	-9.00859
▁especially	-9.00896
▁8	-9.00908
▁buy	-9.01205
▁heard	-9.01402
ि	-9.01542
k	-9.01563
‍	-9.01745
▁video	-9.01771
▁U	-9.01975
?".	-9.02239
▁city	-9.02317
▁stop	-9.02337
▁पर्ने	-9.02351
▁वटा	-9.02397
▁couple	-9.02541
▁below	-9.02565
▁wasn	-9.02647
▁An	-9.02739
▁deal	-9.02867
▁रूपमा	-9.03043
▁products	-9.03084
▁यहाँ	-9.03112
▁likely	-9.03117
▁write	-9.03269
▁wrong	-9.03419
▁bring	-9.03433
▁human	-9.03623
▁looked	-9.03914
▁move	-9.03917
▁rest	-9.04139
▁non	-9.04294
▁special	-9.04377
▁certain	-9.04656
▁kids	-9.04826
▁Please	-9.04879
▁भिडियो	-9.04887
▁value	-9.04995
▁stuff	-9.0519
▁age	-9.05251
▁seem	-9.05289
▁राम्रो	-9.05332
▁members	-9.05503
▁सामाजिक	-9.05756
▁Can	-9.05793
▁add	-9.05918
ब	-9.05999
▁access	-9.06109
▁ठूलो	-9.0611
▁control	-9.06114
▁Don	-9.06188
▁Some	-9.06274
it	-9.06281
▁clear	-9.06306
ness	-9.0631
▁beautiful	-9.0636
▁सदस्य	-9.06653
▁cannot	-9.06881
▁contact	-9.06885
▁due	-9.06896
▁Then	-9.06906
▁needed	-9.07017
▁five	-9.07091
▁simple	-9.07261
▁सन्	-9.07302
▁नगरपालिका	-9.07369
▁price	-9.07421
▁T	-9.07607
▁हुनेछ	-9.07809
h	-9.07897
▁sense	-9.08096
▁amount	-9.0816
▁योजना	-9.08228
▁रुपैयाँ	-9.08245
▁etc	-9.08306
▁turn	-9.08326
▁woman	-9.08664
▁self	-9.08685
▁living	-9.08694
▁type	-9.08714
▁problems	-9.09078
▁single	-9.09162
▁weeks	-9.09238
▁known	-9.09403
▁12	-9.09422
en	-9.09489
▁जारी	-9.09586
▁product	-9.09587
▁include	-9.09641
▁thinking	-9.09815
F	-9.09915
▁perfect	-9.09919
▁दिए	-9.09987
▁event	-9.10005
▁media	-9.10079
▁बनाउन	-9.1011
▁word	-9.1037
▁संविधान	-9.10477
▁खेल	-9.10602
▁enjoy	-9.10627
▁knew	-9.1066
▁saying	-9.10668
▁राजनीतिक	-9.10907
▁कार्यक्रममा	-9.10909
▁चार	-9.11091
▁longer	-9.11123
▁low	-9.11258
▁front	-9.11335
▁wish	-9.1137
▁interesting	-9.11375
▁किन	-9.11451
▁घोषणा	-9.11583
_	-9.11638
सहित	-9.11768
▁view	-9.1208
▁लागेको	-9.12136
▁answer	-9.12146
▁subject	-9.12162
▁space	-9.12188
▁report	-9.12342
▁office	-9.1241
▁news	-9.12474
▁दोस्रो	-9.12531
▁मात्रै	-9.12632
▁बनाउने	-9.12673
▁development	-9.12727
▁आवश्यक	-9.12731
▁माओवादी	-9.12806
▁नाम	-9.12854
▁पूर्व	-9.12969
▁रु	-9.1297
▁/	-9.13037
▁current	-9.13039
▁पछि	-9.13244
▁wait	-9.13367
▁season	-9.13721
▁account	-9.13847
▁आ	-9.13885
▁interest	-9.13887
▁मलाई	-9.13933
▁पाँच	-9.14085
▁building	-9.14219
▁२०७४	-9.14368
▁ways	-9.14382
▁नि	-9.14429
▁behind	-9.14518
▁Why	-9.1465
▁15	-9.14769
▁phone	-9.1491
▁door	-9.15131
▁design	-9.15141
▁ready	-9.15321
▁तयारी	-9.15322
▁Re	-9.15622
▁air	-9.15673
▁शिक्षा	-9.15819
G	-9.15939
▁क्रममा	-9.16001
▁meet	-9.16426
▁विषयमा	-9.16622
▁chance	-9.16704
▁अगाडि	-9.16993
!!	-9.17132
▁Mr	-9.17269
▁Let	-9.17356
▁Of	-9.17495
▁देश	-9.17499
द	-9.17529
▁His	-9.17564
▁एमाले	-9.177
▁सम्पर्क	-9.17725
P	-9.17787
▁१९	-9.17861
▁p	-9.17901
▁further	-9.17923
l	-9.18005
▁साथ	-9.1801
▁अर्को	-9.18097
▁अवस्था	-9.18122
▁छु	-9.18216
▁worth	-9.18245
ट	-9.1825
▁music	-9.18357
▁सडक	-9.18488
▁आएका	-9.1851
▁companies	-9.18534
▁F	-9.18617
ity	-9.18734
▁result	-9.189
▁30	-9.18947
ज	-9.1897
▁continue	-9.18995
▁वि	-9.19131
▁२५	-9.19228
भन्दा	-9.19297
▁9	-9.19341
▁study	-9.19456
▁de	-9.19522
▁himself	-9.19559
हरुले	-9.19635
▁felt	-9.20015
▁ले	-9.20047
▁भारतीय	-9.20086
▁training	-9.20122
छ	-9.20177
▁results	-9.20387
▁present	-9.20554
▁amazing	-9.20568
▁While	-9.20688
▁पूरा	-9.20711
▁outside	-9.20977
▁required	-9.20992
▁party	-9.21099
▁K	-9.21195
व	-9.21396
▁hands	-9.21513
▁Yes	-9.21542
ः	-9.21619
x	-9.21727
▁works	-9.21941
▁सञ्चालन	-9.22036
▁maybe	-9.22096
2	-9.22146
▁risk	-9.22213
▁वडा	-9.22267
▁*	-9.22375
▁mother	-9.22382
▁सक्छ	-9.22383
▁हुँदा	-9.22504
;.	-9.22509
▁happen	-9.22736
▁usually	-9.22962
▁common	-9.23008
▁history	-9.23023
▁definitely	-9.2303
▁follow	-9.23044
▁running	-9.2323
▁United	-9.23241
▁उहाँले	-9.23475
▁energy	-9.23644
▁lost	-9.23743
▁turned	-9.23744
▁गीत	-9.23924
▁गएको	-9.24012
▁प्रहरीले	-9.24071
▁death	-9.24072
▁तयार	-9.24214
▁बेला	-9.24243
▁staff	-9.24457
▁दर्ता	-9.24673
K	-9.24748
▁आउने	-9.24817
▁general	-9.2498
▁राष्ट्रपति	-9.25029
▁स	-9.25091
▁industry	-9.2511
▁themselves	-9.25201
▁talking	-9.25244
▁मत	-9.25332
▁May	-9.25755
▁बन्द	-9.25767
▁date	-9.25815
▁जनाको	-9.25895
▁कार्य	-9.25972
▁हुँदै	-9.261
▁रकम	-9.26118
an	-9.2621
▁cause	-9.26229
▁added	-9.26297
▁सरकारको	-9.26342
W	-9.26358
▁couldn	-9.26363
▁financial	-9.26494
▁American	-9.26586
▁खर्च	-9.26644
▁बाट	-9.26844
▁goes	-9.26913
▁M	-9.27067
▁ओली	-9.2707
▁difficult	-9.27081
▁haven	-9.271
▁गत	-9.27302
▁white	-9.274
▁girl	-9.27432
▁नेकपा	-9.27473
ला	-9.27601
▁written	-9.27617
▁complete	-9.27746
▁wouldn	-9.27781
▁period	-9.27815
▁By	-9.27816
▁certainly	-9.27913
ना	-9.28037
▁class	-9.28124
▁opportunity	-9.28287
▁१३	-9.28472
भिडियो	-9.28555
▁भएर	-9.29016
▁major	-9.29328
▁wonderful	-9.29415
▁अर्ब	-9.29844
▁Or	-9.29892
▁step	-9.29913
▁tried	-9.29917
▁जाने	-9.29953
▁action	-9.29994
ic	-9.30119
▁gave	-9.30136
▁R	-9.3019
▁instead	-9.30202
माथि	-9.3026
".	-9.30302
ड	-9.3039
▁lives	-9.30437
▁fine	-9.30503
▁attention	-9.30545
▁choose	-9.30646
▁thanks	-9.30698
w	-9.30801
▁parents	-9.31083
▁consider	-9.31091
?"	-9.31313
▁विश्व	-9.31339
▁अन्तर्राष्ट्रिय	-9.31807
▁books	-9.31837
▁साथै	-9.31864
▁नम्बर	-9.31879
▁सबैभन्दा	-9.31905
▁५०	-9.3195
▁key	-9.31973
co	-9.31974
▁हामीले	-9.31989
▁property	-9.32025
M	-9.32091
▁thank	-9.32153
▁मुख्य	-9.32159
▁घाइते	-9.32215
▁O	-9.32247
▁१८	-9.3226
ेर	-9.32267
▁among	-9.32331
▁कति	-9.32333
▁strong	-9.32357
▁feeling	-9.32368
▁अवस्थामा	-9.32375
year	-9.32409
▁father	-9.32605
▁G	-9.32639
▁late	-9.32699
▁exactly	-9.3278
▁takes	-9.32848
▁३०	-9.32884
▁return	-9.32895
▁अनि	-9.33013
▁US	-9.3302
▁watch	-9.3303
▁परेको	-9.33243
▁Be	-9.33289
बारे	-9.33365
▁search	-9.3339
▁उत्पादन	-9.33487
▁ideas	-9.33517
▁necessary	-9.3353
▁छलफल	-9.33536
▁send	-9.33548
ation	-9.33602
▁बताएका	-9.3372
N	-9.33807
▁happened	-9.33861
▁pre	-9.33886
▁यसको	-9.33974
▁main	-9.34122
हरुलाई	-9.34351
▁particular	-9.34391
▁policy	-9.34431
▁11	-9.34604
E	-9.34645
▁customers	-9.34652
▁provided	-9.3486
▁professional	-9.34955
▁details	-9.34957
▁१४	-9.34961
▁विशेष	-9.35014
▁knowledge	-9.35078
▁decided	-9.35194
time	-9.35265
▁States	-9.35286
▁समिति	-9.35352
▁similar	-9.35386
▁interested	-9.35388
▁situation	-9.35484
▁specific	-9.35488
▁black	-9.35489
▁changes	-9.35493
▁education	-9.35547
▁सकिन्छ	-9.35586
▁comment	-9.35746
▁Even	-9.3582
▁News	-9.35845
▁भारत	-9.35982
१	-9.36003
्ने	-9.36259
▁favorite	-9.36288
▁भइरहेको	-9.3634
बीच	-9.36385
▁individual	-9.36416
▁quickly	-9.36454
▁position	-9.36629
▁चलचित्र	-9.3665
▁भएपछि	-9.36668
▁voice	-9.36779
रा	-9.37025
▁learning	-9.37168
▁points	-9.37289
▁लगानी	-9.37336
▁increase	-9.37377
▁build	-9.37385
▁near	-9.37532
▁Oh	-9.37639
f	-9.37646
▁पत्रकार	-9.37729
▁नीति	-9.3774
▁link	-9.37798
▁More	-9.37822
स्थित	-9.37867
▁१६	-9.37977
▁THE	-9.38002
▁राष्ट्र	-9.38009
▁hold	-9.38032
as	-9.3804
▁games	-9.38045
न्	-9.38075
▁सुरक्षा	-9.38087
▁होला	-9.38134
▁range	-9.38159
▁guess	-9.382
▁areas	-9.38237
▁सफल	-9.38301
▁निकै	-9.38356
▁थाहा	-9.38408
▁various	-9.38423
?”.	-9.38605
▁allow	-9.38643
▁held	-9.38734
▁percent	-9.38856
सँगै	-9.3887
▁entire	-9.38958
▁कृषि	-9.39
▁मूल्य	-9.39062
▁sort	-9.39072
▁केन्द्र	-9.39126
▁card	-9.39147
▁section	-9.39181
▁rate	-9.39423
समेत	-9.3945
▁gone	-9.39463
▁test	-9.39564
▁cut	-9.39684
▁agree	-9.39891
▁बैठक	-9.39954
▁war	-9.40222
▁giving	-9.40423
▁inside	-9.40426
री	-9.40498
▁completely	-9.40505
▁received	-9.4054
▁management	-9.40647
▁walk	-9.40781
▁Hi	-9.40874
▁हत्या	-9.40959
ne	-9.41009
▁ensure	-9.41303
▁sound	-9.41328
▁Have	-9.41331
▁समयमा	-9.41348
हरूको	-9.41372
▁Also	-9.41386
▁sometimes	-9.41397
▁सरकारी	-9.41451
्न	-9.41564
▁win	-9.41639
▁सक्ने	-9.41669
य	-9.41718
▁decision	-9.418
▁security	-9.4182
▁hour	-9.41824
▁Home	-9.41921
▁Are	-9.42023
▁series	-9.42107
▁glad	-9.42234
▁अधिकार	-9.42265
▁co	-9.42302
▁address	-9.42335
▁अन्तिम	-9.4241
▁save	-9.42464
▁गरिने	-9.42521
st	-9.42524
▁eat	-9.4256
▁marketing	-9.42605
▁lead	-9.4264
▁•	-9.42722
▁review	-9.42764
▁focus	-9.42797
▁spend	-9.42806
ेको	-9.42816
▁aren	-9.42832
▁meeting	-9.42854
▁hit	-9.43093
▁third	-9.43187
▁guys	-9.43447
▁extra	-9.43668
▁alone	-9.43781
le	-9.43878
▁technology	-9.43892
▁L	-9.4404
▁break	-9.44041
▁credit	-9.44062
▁receive	-9.44143
4	-9.44176
▁field	-9.44217
”.	-9.44236
▁ती	-9.44263
▁terms	-9.44293
▁http	-9.44303
▁उल्लेख	-9.4438
▁six	-9.44445
▁safe	-9.44483
▁१७	-9.4451
▁guy	-9.44527
ए	-9.44559
▁worked	-9.44673
▁table	-9.44855
▁events	-9.44881
▁#	-9.44898
ो	-9.44924
▁Read	-9.45003
▁आजको	-9.45123
▁नेपालले	-9.45154
▁medical	-9.45165
▁weight	-9.45589
▁केन्द्रीय	-9.45642
▁sharing	-9.4566
us	-9.45692
3	-9.4578
▁internet	-9.45833
▁natural	-9.45846
▁involved	-9.45928
no	-9.46063
ment	-9.462
▁skills	-9.4629
▁पोखरा	-9.46451
▁wife	-9.46536
▁choice	-9.46548
▁piece	-9.46613
▁यसरी	-9.46639
▁fire	-9.46672
▁store	-9.46674
▁शर्मा	-9.46931
▁town	-9.47011
▁paper	-9.47043
▁युवा	-9.47112
▁जुन	-9.47275
▁Good	-9.47311
▁बैंक	-9.47741
▁practice	-9.47779
▁Google	-9.47793
▁fall	-9.47804
▁higher	-9.47914
▁according	-9.47963
▁परिवर्तन	-9.47989
▁finally	-9.48061
▁excellent	-9.4816
▁दुर्घटना	-9.48168
▁picture	-9.48214
▁From	-9.48255
ist	-9.48259
▁फिल्म	-9.48263
▁cover	-9.4833
▁sent	-9.48358
▁private	-9.48372
२	-9.48596
▁road	-9.48605
▁final	-9.48616
▁आगामी	-9.48724
▁itself	-9.48736
▁cool	-9.48876
▁recent	-9.48888
old	-9.48963
▁साउन	-9.4907
▁stand	-9.49085
▁summer	-9.49112
▁huge	-9.49156
▁सुन	-9.49157
▁tax	-9.49189
▁लिएर	-9.4921
▁success	-9.49211
▁drive	-9.49227
▁बस	-9.49231
▁hair	-9.49266
▁addition	-9.49387
▁बारे	-9.49395
What	-9.49403
▁total	-9.49529
rs	-9.49588
▁दिएका	-9.49592
ित	-9.49701
▁नागरिक	-9.49738
▁खबर	-9.49818
▁लिन	-9.50087
▁son	-9.50105
▁सम्म	-9.50106
▁Many	-9.50111
▁potential	-9.50128
▁easily	-9.50137
▁size	-9.50177
▁message	-9.50266
▁19	-9.50278
▁हरेक	-9.50369
▁भएकाले	-9.50373
▁एवं	-9.50399
▁बि	-9.50437
ने	-9.50459
▁fast	-9.50558
▁paid	-9.50589
▁comments	-9.50601
▁playing	-9.50625
▁Most	-9.50959
▁प	-9.51116
am	-9.51202
▁treatment	-9.51217
V	-9.51249
▁ए	-9.51269
▁सहभागी	-9.5128
?”	-9.51301
▁जस्तो	-9.51303
▁brought	-9.51322
▁माघ	-9.51328
▁क	-9.51397
▁customer	-9.51425
▁shows	-9.51487
▁activities	-9.51489
▁लामो	-9.51514
▁प्रविधि	-9.51943
▁ones	-9.52035
▁related	-9.52058
▁expect	-9.5207
L	-9.52103
▁computer	-9.52106
▁ability	-9.52113
▁पर्यटन	-9.52362
▁शुरु	-9.52393
▁तपाईको	-9.52488
▁बजेट	-9.52495
राज	-9.52527
▁advice	-9.5255
▁बताउनुभयो	-9.5256
▁version	-9.52587
▁थापा	-9.52681
ौ	-9.52738
सी	-9.5283
▁»	-9.52849
▁eye	-9.5293
ख	-9.52937
▁pain	-9.52942
▁ground	-9.53009
▁began	-9.53012
▁legal	-9.53039
▁role	-9.53114
▁member	-9.5313
▁effect	-9.53134
`	-9.53175
▁17	-9.53181
▁York	-9.53197
▁blood	-9.53197
▁pick	-9.53289
▁feet	-9.5329
▁recently	-9.53298
ry	-9.5334
▁उपलब्ध	-9.53437
▁२१	-9.53535
▁trip	-9.53544
▁प्रदान	-9.53552
at	-9.53612
▁पछिल्लो	-9.5364
▁अझै	-9.53719
▁truly	-9.53729
▁difference	-9.5373
▁loved	-9.5376
v	-9.53806
▁application	-9.53828
▁evidence	-9.53828
▁यस्ता	-9.54016
▁वर्षको	-9.54094
▁land	-9.54107
▁options	-9.54126
ism	-9.54253
▁sign	-9.54338
▁posts	-9.54439
▁John	-9.54486
▁16	-9.54492
▁starting	-9.54544
▁term	-9.54587
▁art	-9.54609
▁quick	-9.54679
▁उच्च	-9.54717
▁असार	-9.54741
▁सम्बन्धित	-9.54777
▁husband	-9.54941
▁जेठ	-9.55098
▁truth	-9.55109
▁उद्योग	-9.55178
▁सहमति	-9.55287
▁speak	-9.55295
▁click	-9.55325
▁record	-9.55329
▁करिब	-9.55394
▁spent	-9.55423
▁info	-9.55472
▁sleep	-9.55582
▁cases	-9.55633
@	-9.55659
▁useful	-9.55669
▁police	-9.55713
▁topic	-9.55744
▁खेलमा	-9.55811
▁यही	-9.5591
▁red	-9.55923
प्रति	-9.5613
▁कर्मचारी	-9.56149
▁costs	-9.56228
▁countries	-9.56292
▁America	-9.56361
▁State	-9.56378
▁अध्ययन	-9.56464
▁स्थापना	-9.56506
▁oil	-9.56519
▁World	-9.56664
▁seemed	-9.56799
▁पर्छ	-9.56949
हरूले	-9.56969
▁अनुसन्धान	-9.5697
▁कर	-9.56997
▁gets	-9.57002
H	-9.57081
▁गर्नुपर्ने	-9.57115
▁परेका	-9.57132
ग	-9.57149
▁effective	-9.57157
is	-9.57301
▁created	-9.57382
▁जीवन	-9.57415
▁असोज	-9.57448
▁बजार	-9.57507
▁political	-9.57627
▁पैसा	-9.57651
ton	-9.57664
▁First	-9.57717
▁प्रस्ताव	-9.57773
R	-9.58048
▁approach	-9.5813
या	-9.5818
▁निर्देशन	-9.58241
च	-9.58271
▁त्यसैले	-9.58328
▁कांग्रेस	-9.58339
▁14	-9.58392
▁bed	-9.58405
▁पाउने	-9.58423
▁आग्रह	-9.58427
▁H	-9.58451
▁मंसिर	-9.58603
▁hot	-9.58606
z	-9.58633
▁loss	-9.58714
▁note	-9.58981
▁relationship	-9.5904
लि	-9.59048
▁जान	-9.59081
▁performance	-9.59197
▁संयुक्त	-9.59293
▁२४	-9.59376
&	-9.59422
less	-9.59496
▁केपी	-9.59513
▁गठन	-9.5952
▁improve	-9.59616
▁student	-9.59652
वि	-9.5975
▁पुगेको	-9.59754
▁perhaps	-9.59913
▁option	-9.59927
1	-9.60048
▁उपचार	-9.60213
▁नेपालका	-9.60282
▁13	-9.60289
िएको	-9.60358
▁गर्छ	-9.60367
▁conditions	-9.60393
▁items	-9.60433
▁W	-9.60467
▁गाउँपालिका	-9.60478
▁एकता	-9.60519
▁भनेको	-9.60532
▁towards	-9.60571
▁considered	-9.60596
▁seeing	-9.6062
▁baby	-9.60635
www	-9.60723
▁Great	-9.60925
▁impact	-9.60995
▁beginning	-9.61145
▁travel	-9.61253
▁national	-9.61334
▁board	-9.61337
▁original	-9.61425
▁purpose	-9.61462
▁s	-9.61464
▁ब	-9.6157
▁आफ्नै	-9.61654
▁environment	-9.61711
▁sales	-9.61795
▁expected	-9.61832
▁व्यवस्थापन	-9.61944
ling	-9.6199
No	-9.62004
▁nature	-9.6225
▁recommend	-9.62282
▁unique	-9.62335
▁clean	-9.62531
▁Christmas	-9.62609
▁Because	-9.62647
▁offers	-9.62707
▁wants	-9.62864
▁code	-9.62902
▁भन्छन्	-9.62926
▁positive	-9.62945
▁बाँकी	-9.6298
▁benefits	-9.63167
▁बजारमा	-9.63204
▁N	-9.63303
O	-9.63314
▁Once	-9.63326
▁पानी	-9.63547
u	-9.6356
▁२२	-9.63762
▁ग	-9.63912
▁बनेको	-9.63941
▁additional	-9.63983
▁weekend	-9.64038
ie	-9.64046
▁सु	-9.64076
▁स्थानमा	-9.64196
▁विषय	-9.64235
ion	-9.64282
el	-9.64385
▁serious	-9.64423
▁currently	-9.64457
▁बुधबार	-9.64506
▁reasons	-9.64702
▁25	-9.64721
▁Facebook	-9.64782
▁नगर	-9.64843
▁उत्तर	-9.64863
▁50	-9.64897
▁२८	-9.64917
▁हुँदैन	-9.64933
▁सम्बन्ध	-9.64942
▁सम्झौता	-9.64982
▁@	-9.65004
▁average	-9.65185
▁yes	-9.6519
▁planning	-9.65249
▁helpful	-9.65404
▁act	-9.65457
ting	-9.65539
▁देखिएको	-9.65584
▁source	-9.65595
▁इ	-9.65619
▁reach	-9.65642
▁material	-9.65655
▁महिना	-9.65693
▁तपाईं	-9.65734
▁character	-9.65777
अनुसार	-9.65797
▁wide	-9.65901
▁उनलाई	-9.65979
but	-9.65993
▁सोमबार	-9.66033
▁waiting	-9.6624
▁features	-9.66253
▁poor	-9.66263
▁Day	-9.66265
Y	-9.66309
▁गरि	-9.66429
▁dog	-9.66458
▁बिहान	-9.66499
▁effort	-9.66534
ह	-9.66562
ia	-9.66702
▁skin	-9.66768
▁file	-9.66943
▁प्रवेश	-9.67013
▁apply	-9.67086
▁users	-9.67106
▁whatever	-9.67114
▁growth	-9.67184
▁stories	-9.67202
▁प्रक्रिया	-9.67275
▁response	-9.67343
▁goal	-9.6744
▁individuals	-9.67493
▁places	-9.67638
्दै	-9.6769
▁Maybe	-9.67698
▁City	-9.67711
▁सभा	-9.67837
द्वारा	-9.67895
▁changed	-9.67901
▁विश्वास	-9.67932
भ	-9.68143
▁लेख	-9.68167
▁resources	-9.68191
▁शुक्रबार	-9.68246
▁style	-9.68417
▁fit	-9.68427
▁box	-9.6846
▁throughout	-9.68508
▁clients	-9.68548
▁सि	-9.68558
▁दुवै	-9.68606
▁आधारमा	-9.68633
▁software	-9.6871
▁became	-9.68736
▁daily	-9.68805
of	-9.68867
▁प्रा	-9.68893
▁popular	-9.68957
▁त्यसको	-9.6906
te	-9.69114
▁begin	-9.69136
▁wrote	-9.69144
▁easier	-9.69196
▁wonder	-9.69244
ाउने	-9.69256
▁1.	-9.69315
▁court	-9.69374
ली	-9.69378
▁हाल	-9.69383
▁plans	-9.69403
▁J	-9.69439
▁२७	-9.6949
▁National	-9.69505
▁त्यस्तै	-9.69525
वा	-9.69561
▁understanding	-9.69572
▁figure	-9.69602
▁Go	-9.69683
▁नभएको	-9.6971
▁systems	-9.69841
▁प्रकाशित	-9.69854
▁संख्या	-9.6987
▁dead	-9.69928
▁lots	-9.69998
ar	-9.70006
▁user	-9.70007
▁2017	-9.70068
▁Who	-9.7013
▁हुनु	-9.70158
▁nearly	-9.70182
▁designed	-9.70241
▁film	-9.70271
▁आफ्ना	-9.70321
▁फेरि	-9.70412
▁doubt	-9.70475
▁projects	-9.70523
▁kept	-9.70616
▁March	-9.70625
▁notice	-9.70648
▁cold	-9.70743
▁safety	-9.7075
▁अधिकारी	-9.7077
इ	-9.70772
▁career	-9.70785
▁physical	-9.70793
▁rights	-9.70918
▁movie	-9.70926
▁प्रेम	-9.71021
▁met	-9.71028
▁संघ	-9.71089
▁although	-9.7131
day	-9.7132
▁avoid	-9.71458
श	-9.71463
▁benefit	-9.71531
▁Since	-9.71657
▁People	-9.71788
▁ओलीले	-9.71795
▁model	-9.71799
▁यस्तै	-9.71802
▁via	-9.71889
▁grow	-9.71916
!"	-9.7198
▁वितरण	-9.71983
▁lower	-9.72034
▁provides	-9.72058
▁100	-9.72104
▁संघीय	-9.72193
▁purchase	-9.72259
▁language	-9.72326
▁President	-9.72411
me	-9.72428
▁tips	-9.72486
३	-9.72499
▁daughter	-9.72609
▁happens	-9.7266
▁University	-9.72664
िक	-9.72671
▁moving	-9.72679
▁groups	-9.72736
one	-9.72763
▁ahead	-9.72781
स्	-9.72807
▁यसले	-9.7282
▁फागुन	-9.72845
▁gives	-9.72855
▁June	-9.72911
▁learned	-9.72973
▁photos	-9.72975
▁छौं	-9.73022
▁विचार	-9.73041
▁boy	-9.7317
▁अमेरिकी	-9.73212
▁opinion	-9.73288
▁House	-9.7347
▁built	-9.73584
▁fear	-9.73636
▁TV	-9.7369
▁April	-9.73704
ies	-9.7376
▁levels	-9.73764
▁healthy	-9.73776
▁location	-9.73934
▁thoughts	-9.74026
▁basis	-9.7403
▁२९	-9.7406
▁कुन	-9.74231
▁brand	-9.74548
▁previous	-9.74567
▁regular	-9.74621
▁bar	-9.74631
▁September	-9.74634
िने	-9.74654
िन	-9.74657
▁लाई	-9.74679
▁St	-9.74726
▁24	-9.74757
ro	-9.74851
बि	-9.74858
▁round	-9.74875
▁allowed	-9.74907
▁२३	-9.74912
▁Will	-9.7503
▁प्रयास	-9.75154
▁December	-9.75156
▁>	-9.75213
!!!	-9.75295
▁त्यस	-9.75296
out	-9.75364
▁require	-9.75489
na	-9.75525
▁economic	-9.75588
▁pass	-9.75601
▁trust	-9.75631
▁बढेको	-9.75662
age	-9.75755
▁बाहिर	-9.75757
▁respect	-9.7576
▁parts	-9.75835
▁January	-9.75871
▁deep	-9.75871
▁directly	-9.75887
▁जिल्लामा	-9.75909
▁चुनाव	-9.76177
▁successful	-9.76196
▁यसमा	-9.7623
▁Dr	-9.76251
▁Her	-9.7634
▁text	-9.76399
If	-9.7644
▁घटना	-9.76467
▁लक्ष्य	-9.7651
▁तेस्रो	-9.7651
▁absolutely	-9.76527
▁solution	-9.76536
un	-9.7655
▁beyond	-9.76567
बहादुर	-9.76616
▁mine	-9.76669
▁middle	-9.76696
▁विवरण	-9.76718
▁२६	-9.76724
­	-9.76751
▁2.	-9.76753
▁letter	-9.76759
son	-9.76817
for	-9.76824
▁अस्पताल	-9.76843
▁दैनिक	-9.76875
▁सम्बन्धी	-9.76877
▁limited	-9.76882
▁organization	-9.76937
▁विद्यार्थी	-9.7696
▁forget	-9.7719
▁international	-9.77194
ई	-9.77325
▁English	-9.77414
▁floor	-9.77477
▁sites	-9.77509
He	-9.7751
line	-9.77523
डा	-9.77588
▁highly	-9.776
▁November	-9.77602
िङ	-9.77652
मध्ये	-9.77683
be	-9.77686
5	-9.77693
And	-9.77717
▁Act	-9.7784
▁charge	-9.77859
▁भदौ	-9.77867
de	-9.77896
▁track	-9.77964
▁doctor	-9.77983
▁समाज	-9.77989
▁सम्मान	-9.77997
▁aware	-9.78035
▁[...]	-9.78133
This	-9.78191
▁programs	-9.78343
▁awesome	-9.78443
▁सुझाव	-9.78498
▁pictures	-9.78519
▁touch	-9.78528
▁दल	-9.78592
▁rules	-9.78603
▁immediately	-9.78669
▁ठाउँमा	-9.78736
▁photo	-9.78767
▁प्रस्तुत	-9.78771
▁knows	-9.78827
▁दिनुहोस्	-9.78854
▁ten	-9.78858
▁develop	-9.78863
▁तपाईंको	-9.78864
▁अर्थ	-9.789
▁image	-9.78903
▁lack	-9.7894
▁force	-9.78946
▁V	-9.78965
▁appreciate	-9.78985
▁Make	-9.79063
▁variety	-9.79161
▁पोष्ट	-9.79198
▁ज्यान	-9.79213
▁claim	-9.79214
▁significant	-9.79226
▁types	-9.79233
▁fully	-9.79265
▁dark	-9.79283
▁सवारी	-9.793
▁particularly	-9.79306
▁Jesus	-9.79329
▁growing	-9.79424
▁fight	-9.79454
we	-9.79455
▁sorry	-9.79493
▁steps	-9.79646
▁join	-9.79719
▁अवसर	-9.79829
▁lose	-9.79891
▁passed	-9.79917
▁South	-9.79947
▁players	-9.79957
▁उम्मेदवार	-9.79959
▁फुटबल	-9.79962
अ	-9.80105
▁screen	-9.80129
▁college	-9.80182
▁श्रेष्ठ	-9.80356
▁21	-9.80366
▁included	-9.80432
▁व्यक्त	-9.80443
▁sell	-9.80646
▁कस्तो	-9.80659
▁नेतृत्व	-9.8067
▁बा	-9.8069
▁सात	-9.80702
▁शक्ति	-9.80707
ary	-9.80779
▁extremely	-9.80801
▁जोड	-9.80816
▁employees	-9.81045
▁घरमा	-9.81096
▁शान्ति	-9.8112
▁income	-9.81137
▁भनाइ	-9.81147
▁sit	-9.81209
▁patients	-9.81252
▁Take	-9.81254
▁Q	-9.81254
▁छैनन्	-9.81318
▁latest	-9.81344
▁July	-9.81444
▁October	-9.81477
▁helped	-9.81514
▁mentioned	-9.81571
▁sounds	-9.81612
ण	-9.81652
he	-9.81695
उ	-9.81776
▁जनता	-9.81825
▁Man	-9.81866
ful	-9.81926
▁earlier	-9.82013
तर्फ	-9.8207
▁बस्ने	-9.82073
▁families	-9.82079
▁unless	-9.82082
▁normal	-9.82084
%	-9.82169
▁क्रिकेट	-9.82295
नी	-9.82304
▁providing	-9.82324
▁includes	-9.82373
▁fresh	-9.82421
▁त्यही	-9.82522
▁सचिव	-9.82558
▁बर्ष	-9.82611
▁हात	-9.82664
▁मिति	-9.82699
▁मिडिया	-9.82732
▁watching	-9.8285
▁देखिन्छ	-9.82963
▁pressure	-9.8305
▁app	-9.83056
But	-9.83166
▁दक्षिण	-9.83268
▁green	-9.83294
do	-9.83396
के	-9.83411
org	-9.83432
▁सम्भावना	-9.83505
▁आरोप	-9.83531
▁प्रदर्शन	-9.83573
▁पुस	-9.83575
▁जित	-9.83579
▁finding	-9.83634
▁ध्यान	-9.83638
▁ऐन	-9.83717
▁Love	-9.83847
▁जे	-9.83929
▁जन	-9.8394
▁color	-9.83989
▁सामान्य	-9.84013
▁भित्र	-9.84035
▁statement	-9.84051
▁आइतबार	-9.84054
ty	-9.841
▁गरिरहेको	-9.84158
▁Get	-9.84186
▁नहुने	-9.84266
▁standard	-9.84281
▁De	-9.84314
▁Today	-9.84398
▁condition	-9.84478
▁hotel	-9.84481
▁पहिले	-9.84512
▁बाटो	-9.84562
▁realize	-9.84602
▁शनिबार	-9.84624
रो	-9.8463
्दा	-9.84682
▁लाग्छ	-9.84749
▁Me	-9.84806
▁tools	-9.84836
▁अभियान	-9.84878
▁production	-9.849
▁moved	-9.84914
▁लि	-9.85035
▁shot	-9.85086
!".	-9.85222
▁girls	-9.85226
▁appropriate	-9.85318
▁प्रश्न	-9.85355
J	-9.85412
▁release	-9.85482
▁भ्रमण	-9.85508
जी	-9.85525
▁भाग	-9.85612
▁व्यक्ति	-9.85664
▁राजधानी	-9.85696
▁network	-9.85757
▁संशोधन	-9.85818
▁औं	-9.85895
हरुमा	-9.85916
ine	-9.85949
▁Friday	-9.8595
▁भूमिका	-9.85979
▁sex	-9.86018
▁ह	-9.86018
▁requirements	-9.86108
▁August	-9.86153
7	-9.8616
▁Any	-9.86162
▁science	-9.86167
▁church	-9.86196
.).	-9.86228
▁40	-9.86228
▁फरक	-9.86268
▁प्र	-9.86313
U	-9.86346
▁played	-9.8641
▁सकिने	-9.8645
▁enjoyed	-9.86634
▁भन्नुभयो	-9.86637
▁प्रति	-9.86712
▁stage	-9.86824
▁अवसरमा	-9.86824
et	-9.86877
▁race	-9.86892
▁damage	-9.86911
▁Lord	-9.86944
That	-9.87007
ted	-9.87029
▁weather	-9.87095
▁दुर्घटनामा	-9.87373
▁Like	-9.87455
[	-9.87504
▁)	-9.8756
▁यसअघि	-9.87592
▁Where	-9.87599
▁बजे	-9.87626
▁challenge	-9.87698
X	-9.8774
▁appear	-9.8778
▁global	-9.87838
▁विद्यालय	-9.87844
▁sea	-9.87922
In	-9.87969
▁त्यसपछि	-9.87978
▁copy	-9.88038
ra	-9.8808
▁North	-9.88098
▁देशको	-9.88173
▁numbers	-9.8823
▁dinner	-9.88257
▁संस्था	-9.88308
▁budget	-9.88319
▁society	-9.88347
▁अफ	-9.88363
▁evening	-9.88404
▁आफू	-9.88417
▁goals	-9.88469
नि	-9.8849
०	-9.88566
▁reality	-9.88603
▁बैंकले	-9.88607
ian	-9.8862
▁method	-9.88647
▁modern	-9.88766
▁fair	-9.88799
▁अमेरिका	-9.88807
8	-9.88822
▁creating	-9.88856
डी	-9.88875
▁सुविधा	-9.88879
▁died	-9.88879
▁अधिकृत	-9.88901
▁कार्यान्वयन	-9.88931
▁लिने	-9.88969
▁sun	-9.89013
▁Although	-9.89022
▁whose	-9.89056
▁helps	-9.89175
▁बन्न	-9.89176
▁UK	-9.89209
6	-9.8924
▁brain	-9.89242
▁कानुन	-9.89329
▁businesses	-9.89363
▁हामीलाई	-9.89374
▁समूह	-9.89382
प्र	-9.89484
▁Sunday	-9.89489
▁request	-9.89489
▁पत्र	-9.89586
▁यात्रा	-9.89603
if	-9.89621
based	-9.89658
▁pro	-9.89865
▁फोन	-9.89907
▁activity	-9.89966
्यो	-9.89987
▁हुन्छन्	-9.89993
भित्र	-9.9006
▁।”	-9.9013
▁asking	-9.9014
▁आउन	-9.90169
you	-9.90261
▁song	-9.90334
est	-9.90398
▁४०	-9.9049
=	-9.90505
▁miles	-9.90599
▁महत्वपूर्ण	-9.90628
term	-9.90648
▁gift	-9.90772
▁drop	-9.9083
▁shop	-9.90864
▁basic	-9.90915
▁अरु	-9.90923
▁carry	-9.90929
▁जो	-9.91001
पा	-9.91096
▁investment	-9.91166
▁correct	-9.9124
▁equipment	-9.91295
▁bottom	-9.91321
▁cash	-9.91341
▁वैशाख	-9.91395
▁effects	-9.91423
Well	-9.91452
▁trade	-9.91464
▁protect	-9.91539
▁वर्षमा	-9.91551
▁सुधार	-9.91633
▁anti	-9.91652
Oh	-9.91695
ch	-9.91822
ङ	-9.91849
▁decide	-9.91936
▁except	-9.91951
▁worry	-9.91986
▁मुख्यमन्त्री	-9.91996
▁clearly	-9.92048
▁त्यहाँ	-9.92059
▁multiple	-9.92133
▁straight	-9.92196
▁totally	-9.92286
▁मुद्दा	-9.92329
▁trouble	-9.92375
▁disease	-9.92379
▁हुनुहुन्छ	-9.9238
▁यौन	-9.92397
ाई	-9.92535
nd	-9.92562
▁bank	-9.92574
▁भाषा	-9.92579
▁brother	-9.92618
ियो	-9.92683
▁greater	-9.9271
▁निर्वाचनमा	-9.92737
▁published	-9.92784
▁TO	-9.92796
ीय	-9.92842
▁campaign	-9.92894
▁warm	-9.92927
▁पूर्ण	-9.92929
▁keeping	-9.92953
▁window	-9.93021
मार्फत	-9.93029
▁Co	-9.93038
५	-9.93072
▁अनलाइन	-9.93074
▁therefore	-9.9321
▁powerful	-9.93211
▁opportunities	-9.93241
▁मन्त्रालय	-9.93378
mail	-9.93426
▁निजी	-9.93429
▁schools	-9.93464
▁वृद्धि	-9.93562
▁rates	-9.93608
▁कथा	-9.93611
▁मंगलबार	-9.93613
▁हेर्न	-9.93644
▁जन्म	-9.93652
▁X	-9.93735
▁meant	-9.93772
दा	-9.93775
▁shown	-9.93875
▁कम्पनी	-9.93929
ive	-9.93954
▁allows	-9.93996
▁vehicle	-9.94013
▁विश्वकप	-9.94022
▁गाउँ	-9.94044
▁responsible	-9.9407
▁:).	-9.94115
0	-9.9412
▁सेयर	-9.94256
by	-9.94268
▁explain	-9.94271
्स	-9.94346
▁जनताको	-9.94374
▁author	-9.94376
▁सम्बन्धमा	-9.94405
▁comfortable	-9.945
▁राज्य	-9.94502
▁articles	-9.94518
▁super	-9.9457
*	-9.94624
▁excited	-9.94697
▁OF	-9.94755
▁निर्देशक	-9.94776
▁offered	-9.9481
▁actual	-9.94821
▁older	-9.94828
ू	-9.94848
▁appears	-9.94954
▁finished	-9.95024
ाउन	-9.9507
▁whom	-9.95101
▁sitting	-9.95132
▁putting	-9.95166
▁accept	-9.95202
▁helping	-9.95415
▁मतदान	-9.95445
▁sweet	-9.95445
ized	-9.95455
सम्बन्धी	-9.95476
▁blue	-9.95535
▁3.	-9.95546
▁बन्ने	-9.95603
▁बिक्री	-9.95603
ish	-9.95649
▁worse	-9.95658
▁भ	-9.95659
go	-9.95688
▁cancer	-9.95958
▁Internet	-9.95983
▁prices	-9.9601
▁culture	-9.96056
9	-9.96083
▁समितिको	-9.96089
▁driving	-9.96121
▁welcome	-9.96181
▁minute	-9.96228
▁imagine	-9.96253
▁गोल	-9.96265
▁serve	-9.96275
▁जस्तै	-9.96346
>	-9.96347
▁stock	-9.96421
▁otherwise	-9.96423
▁व्यापार	-9.965
▁mention	-9.96522
▁गम्भीर	-9.96523
▁Every	-9.96569
▁क्षेत्रको	-9.96632
▁साहित्य	-9.96641
▁located	-9.96679
▁spot	-9.96738
▁manner	-9.9675
▁पु	-9.96903
▁bought	-9.96935
▁states	-9.96975
▁mobile	-9.97011
▁regarding	-9.97035
▁prevent	-9.97041
▁गर्नुभएको	-9.9709
▁lovely	-9.97116
▁busy	-9.97153
▁जसले	-9.97157
▁ल	-9.97158
▁यसलाई	-9.97161
▁anyway	-9.97175
▁छन	-9.97196
▁दिनुभयो	-9.97215
ma	-9.97244
▁उनका	-9.97265
▁चीन	-9.97271
▁पढ्नुहोस्	-9.97292
▁खरिद	-9.97299
].	-9.97313
▁सांसद	-9.97346
▁military	-9.97377
▁fan	-9.97413
▁enter	-9.97494
जा	-9.97496
▁remain	-9.97626
▁setting	-9.97709
▁थिएन	-9.97826
▁गर्नुपर्छ	-9.9784
▁गराउने	-9.97911
▁speed	-9.97922
▁Health	-9.97935
▁followed	-9.97983
▁journey	-9.98009
▁पुरा	-9.98031
▁भवन	-9.98183
▁वन	-9.98243
▁b	-9.98292
▁बैठकमा	-9.9831
▁गरेपछि	-9.9835
There	-9.98365
▁coffee	-9.98487
▁ख	-9.98512
▁leading	-9.98548
▁See	-9.98625
▁Saturday	-9.98636
▁reduce	-9.98637
▁सम्पूर्ण	-9.9865
फ	-9.98651
▁वर्षीय	-9.98678
पी	-9.98697
▁former	-9.98714
▁miss	-9.98804
▁posted	-9.9881
▁plenty	-9.98836
प्रसाद	-9.98907
▁साल	-9.98956
▁सम्बोधन	-9.98985
▁2016	-9.98993
हरूलाई	-9.99
▁kitchen	-9.99051
▁shared	-9.99053
▁लाग्ने	-9.99135
▁wall	-9.99157
▁mouth	-9.99168
▁jobs	-9.99195
▁dis	-9.99208
▁विदेशी	-9.9928
▁smile	-9.99325
▁guide	-9.99377
▁sale	-9.99379
▁digital	-9.99417
▁hearing	-9.99424
▁base	-9.99611
▁discovered	-9.99651
▁सकेको	-9.99674
▁कायम	-9.99691
▁fantastic	-9.99724
il	-9.99732
▁drink	-9.99779
▁generally	-9.9987
▁direct	-9.9997
▁conversation	-10.0015
ul	-10.0018
▁Department	-10.0029
▁Next	-10.0034
▁street	-10.0046
▁peace	-10.005
आ	-10.0051
ating	-10.0054
लगायत	-10.0055
▁led	-10.0056
▁भारतको	-10.0059
▁पराजित	-10.0071
▁listen	-10.0073
▁vote	-10.008
▁लिएको	-10.0083
▁wear	-10.0092
▁सुरक्षित	-10.0096
▁degree	-10.0097
▁द	-10.0102
▁attack	-10.0116
▁शाखा	-10.0127
▁continued	-10.0131
लो	-10.0132
▁वातावरण	-10.0132
▁released	-10.0132
▁earth	-10.0135
▁dream	-10.0135
▁China	-10.0136
▁payment	-10.0137
▁heat	-10.0145
▁रोग	-10.0159
▁leaving	-10.0163
ौं	-10.0163
▁path	-10.0165
▁center	-10.0172
▁रहने	-10.0178
▁progress	-10.0179
▁भन्न	-10.0183
▁टोली	-10.0183
+	-10.0191
▁उ	-10.0193
▁eating	-10.0194
▁player	-10.0195
ter	-10.0206
▁gas	-10.022
that	-10.0226
▁die	-10.0228
▁गरिरहेका	-10.0233
▁supposed	-10.0234
lo	-10.0234
ally	-10.0234
ad	-10.0243
▁audience	-10.0248
▁discussion	-10.0252
▁efforts	-10.0259
▁direction	-10.0269
ate	-10.027
▁दाबी	-10.027
▁सभापति	-10.0281
▁जग्गा	-10.0285
▁Nepal	-10.0292
ta	-10.0297
▁collection	-10.0304
▁exercise	-10.0306
▁covered	-10.032
ेका	-10.032
▁Monday	-10.0322
▁born	-10.0325
▁sub	-10.0335
▁बैठकले	-10.0339
▁economy	-10.0344
ley	-10.0349
▁creative	-10.0355
▁Trump	-10.0355
▁Which	-10.0366
सा	-10.0369
ति	-10.0376
▁strategy	-10.038
▁School	-10.0388
▁pages	-10.0388
em	-10.0391
▁War	-10.0393
▁विवाह	-10.0394
▁पार्टीको	-10.0401
▁finish	-10.0404
▁balance	-10.0405
▁advantage	-10.0407
not	-10.0416
बी	-10.0424
▁tool	-10.0427
▁देशमा	-10.0428
सं	-10.0429
▁population	-10.0436
▁device	-10.0443
▁billion	-10.045
छन्	-10.0451
▁San	-10.0455
so	-10.0456
▁दिवस	-10.0457
▁February	-10.0458
▁opened	-10.0459
▁machine	-10.0459
la	-10.046
▁toward	-10.0462
▁सहज	-10.0464
▁आमा	-10.0467
▁patient	-10.0469
▁achieve	-10.0473
▁कारोबार	-10.0485
▁active	-10.0494
▁केहि	-10.0496
▁title	-10.0498
▁reported	-10.0503
▁माथि	-10.0511
▁prepared	-10.0511
▁नाममा	-10.0512
४	-10.0516
▁बनाएको	-10.0517
¥	-10.0518
▁workers	-10.0521
▁गर्छन्	-10.0534
pm	-10.0554
▁तहको	-10.0557
र्	-10.0558
▁दाहाल	-10.0558
▁willing	-10.0565
▁spending	-10.0568
▁कहिले	-10.0569
▁प्रचण्ड	-10.057
काे	-10.0579
▁चैत	-10.0581
▁sat	-10.0583
▁partner	-10.0583
▁client	-10.0587
▁telling	-10.0595
▁कात्तिक	-10.0598
▁बिहीबार	-10.06
▁essential	-10.0601
▁सपना	-10.0616
j	-10.0618
▁walking	-10.0623
▁ऋण	-10.0629
▁friendly	-10.0646
ance	-10.0651
▁AND	-10.0652
▁materials	-10.0656
२०	-10.0667
▁developed	-10.0672
▁meaning	-10.0674
▁lines	-10.0675
▁c	-10.0676
▁गराउन	-10.0678
▁killed	-10.0683
कुमार	-10.0684
▁उत्कृष्ट	-10.0684
▁आठ	-10.0687
▁यति	-10.0689
▁कम्पनीले	-10.069
▁herself	-10.069
▁con	-10.0692
▁सम्मेलन	-10.0694
▁experienced	-10.0696
▁भई	-10.0701
ol	-10.0702
Yes	-10.0708
▁prior	-10.0716
ाइ	-10.072
▁संकलन	-10.0734
▁holiday	-10.0737
▁दिनमा	-10.0742
▁stopped	-10.0742
▁discuss	-10.075
पुर	-10.0754
ous	-10.0758
▁धर्म	-10.0759
▁suggest	-10.0762
▁Did	-10.0765
▁increased	-10.0766
▁images	-10.0766
▁reports	-10.0778
▁traffic	-10.0779
▁राख्ने	-10.0787
▁feature	-10.0791
▁slow	-10.0798
mo	-10.0798
ex	-10.0812
▁विजयी	-10.0821
▁hospital	-10.0828
my	-10.083
▁ex	-10.0842
▁parties	-10.0843
▁teaching	-10.0844
▁थालेको	-10.085
▁interview	-10.0857
▁waste	-10.0858
▁ended	-10.0873
▁afraid	-10.0877
▁match	-10.0887
▁३१	-10.0889
▁प्रतिनिधि	-10.0892
▁relevant	-10.0892
▁seven	-10.0892
▁प्रतिवेदन	-10.0893
▁cards	-10.0905
▁गर्नुभयो	-10.0906
▁चितवन	-10.0909
▁Keep	-10.0911
▁मान्छे	-10.0911
▁फिर्ता	-10.0912
▁निर्वाचित	-10.0918
▁protection	-10.092
30	-10.0922
▁लगायतका	-10.0928
▁माया	-10.093
▁rule	-10.0931
▁राख्न	-10.0935
▁फोटो	-10.0936
▁0	-10.0943
▁Al	-10.0947
▁luck	-10.0954
▁faith	-10.0955
▁Click	-10.0959
▁यातायात	-10.0961
▁क्षति	-10.0962
▁supply	-10.0965
▁कविता	-10.0966
▁मानव	-10.097
▁Each	-10.0972
▁रहेछ	-10.0974
▁buying	-10.0982
▁$1	-10.0984
▁manage	-10.0987
सि	-10.0992
्य	-10.0994
▁indeed	-10.0998
▁mental	-10.0999
▁अहिलेसम्म	-10.0999
▁Europe	-10.1003
▁links	-10.1004
▁folks	-10.1004
▁22	-10.1005
▁प्रशासन	-10.1005
▁London	-10.1011
▁overall	-10.1014
▁Life	-10.1017
▁Those	-10.1019
▁president	-10.1022
▁kill	-10.1022
▁बसेको	-10.1023
६	-10.1026
टी	-10.1029
▁च	-10.1033
▁surprised	-10.1041
▁Court	-10.1042
▁जिम्मेवारी	-10.1042
▁गाडी	-10.1047
▁yesterday	-10.1047
▁views	-10.1047
▁winter	-10.1049
▁attempt	-10.1058
▁विस्तार	-10.1061
▁रन	-10.1066
▁contract	-10.1067
▁caused	-10.1087
▁tomorrow	-10.1099
▁West	-10.11
▁standing	-10.1107
▁biggest	-10.1116
▁o	-10.1126
▁जवाफ	-10.1127
▁stress	-10.1128
▁foot	-10.1133
▁complex	-10.1143
▁update	-10.1148
▁सामग्री	-10.1151
▁press	-10.1158
▁opening	-10.116
▁maintain	-10.1163
▁camera	-10.1173
▁caught	-10.1177
like	-10.118
▁d	-10.1184
▁आवश्यकता	-10.1192
▁characters	-10.1196
▁reached	-10.1198
▁connection	-10.1199
▁produce	-10.1204
▁समाधान	-10.1207
▁विदेश	-10.1211
▁possibly	-10.1216
▁खेलकुद	-10.1218
ant	-10.1219
हा	-10.1227
▁lived	-10.123
लाइ	-10.1238
▁या	-10.1238
▁federal	-10.1239
▁Over	-10.1249
▁फेसबुक	-10.125
सु	-10.1254
ur	-10.1264
▁hate	-10.1268
▁आइ	-10.127
ce	-10.1272
▁आयो	-10.1273
▁60	-10.1281
▁function	-10.1286
▁sold	-10.1294
▁fill	-10.1297
▁Check	-10.1303
▁expensive	-10.1304
▁ज	-10.1309
▁scene	-10.1309
थ	-10.1313
▁Use	-10.1314
▁Yeah	-10.1318
▁Another	-10.1322
▁distance	-10.1323
▁catch	-10.1324
▁communication	-10.1325
▁विभाग	-10.135
▁handle	-10.1351
▁तह	-10.1353
▁managed	-10.1364
▁official	-10.1365
▁प्रभावित	-10.1367
ca	-10.1369
▁sister	-10.1369
▁नियन्त्रण	-10.137
▁ourselves	-10.1371
▁memory	-10.1376
▁पाएको	-10.1376
▁आन्दोलन	-10.1382
▁६०	-10.1385
▁मार्फत	-10.139
▁owner	-10.1403
▁प्रतियोगिता	-10.1409
▁bill	-10.1414
▁आदेश	-10.1417
▁आयोजित	-10.1419
▁प्रतिकृया	-10.1419
▁pieces	-10.1422
▁nor	-10.1422
▁laws	-10.1425
▁commercial	-10.1426
▁Government	-10.1426
▁कम्युनिष्ट	-10.1426
तिर	-10.1428
ती	-10.1429
id	-10.1433
▁European	-10.1435
्र	-10.1436
▁thus	-10.144
land	-10.1447
▁चरणमा	-10.1449
▁g	-10.1452
▁becoming	-10.1475
▁capital	-10.1481
▁nation	-10.1486
▁existing	-10.1488
▁x	-10.1488
▁knowing	-10.1494
▁majority	-10.1495
▁cross	-10.1495
▁According	-10.1499
▁analysis	-10.15
▁feels	-10.15
ke	-10.1503
पनि	-10.1504
▁आयोगले	-10.1505
▁यदि	-10.1511
▁अस्पतालमा	-10.1512
▁drug	-10.1517
▁boys	-10.152
▁Center	-10.153
▁पौडेल	-10.1531
मी	-10.1531
▁२०७३	-10.1532
▁मन्त्रालयले	-10.1534
li	-10.1541
▁अन्त्य	-10.1544
▁पहिचान	-10.1545
▁नतिजा	-10.1545
▁लिग	-10.1553
▁gain	-10.1553
▁happening	-10.1568
▁bag	-10.1569
▁annual	-10.1586
▁double	-10.159
▁सहकारी	-10.1593
▁marriage	-10.1598
▁पुन	-10.1598
▁tree	-10.1598
▁Pro	-10.1603
▁Council	-10.1606
▁heavy	-10.161
▁club	-10.1611
▁onto	-10.1612
▁closed	-10.1618
▁showing	-10.1618
▁fish	-10.1625
▁समितिले	-10.163
▁खेलाडी	-10.1631
▁यसै	-10.1631
ओ	-10.1641
▁Before	-10.165
▁download	-10.1653
▁proper	-10.1657
▁Very	-10.1657
▁studies	-10.1665
▁solutions	-10.1666
▁www	-10.1671
▁plus	-10.1677
▁returned	-10.1679
▁चिनियाँ	-10.1682
▁ball	-10.1682
ga	-10.1684
▁आफूले	-10.1687
▁wedding	-10.1687
▁holding	-10.1688
▁स्वागत	-10.1704
▁married	-10.1705
▁पुरस्कार	-10.1705
▁भएन	-10.1708
per	-10.1709
▁readers	-10.1711
ir	-10.1724
▁संरक्षण	-10.1726
▁२०१८	-10.1731
▁thousands	-10.1735
all	-10.1735
▁Time	-10.1737
▁स्थान	-10.1739
▁ल्याउन	-10.1741
se	-10.1742
ize	-10.1745
▁संयोजक	-10.1746
▁band	-10.1747
▁बैंकको	-10.1747
म्	-10.1749
▁en	-10.175
▁hurt	-10.176
▁Christ	-10.1762
▁4.	-10.1763
▁claims	-10.1766
▁fell	-10.1772
▁platform	-10.1772
▁खान	-10.1773
▁जि	-10.178
▁names	-10.178
▁तहमा	-10.1781
▁जिल्लाको	-10.1781
▁उसले	-10.1781
▁लागू	-10.1782
▁mid	-10.1783
▁कला	-10.1787
▁क्षमता	-10.1788
▁La	-10.1789
▁concerned	-10.1793
▁century	-10.1809
▁firm	-10.181
▁demand	-10.1814
▁व	-10.1818
▁placed	-10.1827
▁चर्चा	-10.1835
▁funny	-10.1845
▁foreign	-10.1845
▁बनाएर	-10.185
▁पार्टीका	-10.1859
▁परिवार	-10.1867
▁train	-10.1877
▁dollars	-10.1878
▁exciting	-10.1879
रु	-10.188
▁remove	-10.1889
▁International	-10.1894
▁ideal	-10.1895
men	-10.1897
rd	-10.1898
▁associated	-10.19
▁तत्काल	-10.19
▁ride	-10.1901
way	-10.1901
▁adding	-10.1904
which	-10.1905
“	-10.1905
▁Only	-10.1907
▁ई	-10.1909
▁actions	-10.1911
▁prefer	-10.1913
▁recipe	-10.1915
▁कसैले	-10.1918
▁noticed	-10.1919
▁paying	-10.1923
▁(1)	-10.1924
▁calls	-10.1927
▁described	-10.1929
▁ran	-10.1931
▁त्यस्तो	-10.1936
▁नियम	-10.1938
▁ओ	-10.1942
▁23	-10.1943
▁raised	-10.195
▁सोही	-10.1952
▁mom	-10.1959
▁traditional	-10.1961
▁task	-10.1963
▁पुर्	-10.1965
▁snow	-10.1965
▁कहाँ	-10.1966
▁भइसकेको	-10.1967
▁प्रत्येक	-10.1967
▁determine	-10.1971
▁decisions	-10.1974
▁सं	-10.1974
▁2015	-10.1976
▁राम	-10.1979
da	-10.1984
▁भेट	-10.1986
▁desire	-10.1988
▁Best	-10.1988
▁थापाले	-10.1995
▁राई	-10.1998
▁tend	-10.2002
▁coverage	-10.2007
▁walked	-10.2014
▁methods	-10.2015
▁विवाद	-10.2016
▁completed	-10.2018
▁प्रभाव	-10.2021
▁filled	-10.2025
▁प्राविधिक	-10.2027
▁teacher	-10.2028
▁session	-10.203
▁strength	-10.203
▁गायक	-10.2031
▁honest	-10.2032
▁ice	-10.2033
▁construction	-10.2035
▁बताइएको	-10.2035
▁विरोध	-10.2043
▁diet	-10.2044
▁leaders	-10.2045
▁छिन्	-10.2052
▁speaking	-10.2055
▁Con	-10.2059
▁hoping	-10.206
▁lunch	-10.2072
▁agreement	-10.2075
▁पुगेका	-10.2076
led	-10.208
▁afternoon	-10.2082
▁status	-10.2084
▁Last	-10.2085
▁आधार	-10.2089
▁लागी	-10.2091
▁राखेर	-10.2091
▁अनुभव	-10.2093
▁stood	-10.2098
▁treat	-10.2099
▁larger	-10.2099
▁ship	-10.2112
▁changing	-10.2113
▁multi	-10.2114
▁factors	-10.212
▁wind	-10.2127
▁secret	-10.2129
▁Two	-10.2137
▁compared	-10.2139
▁none	-10.214
▁requires	-10.2143
um	-10.2149
▁Canada	-10.2152
▁arms	-10.2157
▁राजनीति	-10.2162
▁policies	-10.2163
▁ठूला	-10.2164
▁fix	-10.2165
ization	-10.2167
▁anywhere	-10.2169
▁हुनुपर्छ	-10.2169
▁schedule	-10.2171
▁During	-10.2172
▁movement	-10.2172
विरुद्ध	-10.2174
ri	-10.2174
▁offering	-10.2175
▁birthday	-10.2177
▁Obama	-10.2178
▁mostly	-10.218
▁स्पष्ट	-10.2186
▁usual	-10.2186
▁विधेयक	-10.2188
▁लगायत	-10.2189
▁NOT	-10.219
▁hundred	-10.2192
off	-10.2197
▁cars	-10.2197
▁अन्तर्गत	-10.2206
▁kid	-10.2207
▁Would	-10.2208
▁समन्वय	-10.2211
▁क्लिक	-10.2214
▁answered	-10.2217
▁कुल	-10.2223
▁जति	-10.2224
▁button	-10.2229
▁taste	-10.223
▁impossible	-10.2231
▁experiences	-10.2232
▁क्षेत्रका	-10.2237
▁पक्षमा	-10.2237
▁हेर्नुहोस्	-10.2239
▁corner	-10.224
▁उमेर	-10.2256
▁replied	-10.2258
op	-10.226
▁जस्ता	-10.2261
▁California	-10.2263
▁आफूलाई	-10.227
So	-10.2272
▁tea	-10.2274
▁garden	-10.2281
▁net	-10.2285
▁birth	-10.2289
10	-10.2295
▁served	-10.2296
▁minimum	-10.23
▁critical	-10.2301
▁पुरुष	-10.2303
▁🙂.	-10.2312
▁rich	-10.2315
▁साँझ	-10.2315
▁eight	-10.2321
▁animals	-10.2321
▁seriously	-10.2328
▁crazy	-10.2329
▁Car	-10.2332
▁श्री	-10.2335
▁dry	-10.2342
▁प्रवक्ता	-10.2347
▁technical	-10.2351
िएका	-10.2352
▁gun	-10.2352
▁shopping	-10.2358
▁glass	-10.2358
▁established	-10.2359
▁missing	-10.236
▁spring	-10.2362
▁calling	-10.2366
▁driver	-10.2369
▁responsibility	-10.2375
▁negative	-10.2378
ING	-10.2386
▁कतिपय	-10.2389
▁शुभकामना	-10.239
्नु	-10.2393
▁King	-10.2409
▁पि	-10.2412
▁कार्यकारी	-10.2413
▁mission	-10.2418
▁पो	-10.2419
▁यसका	-10.2419
▁न्याय	-10.2428
▁dear	-10.2434
▁liked	-10.2434
▁YOU	-10.2444
▁somewhere	-10.2447
▁सञ्चार	-10.2454
▁challenges	-10.2459
▁influence	-10.2461
▁pleasure	-10.2464
▁target	-10.2465
▁fans	-10.2467
▁pm	-10.247
▁White	-10.2482
!”	-10.2484
▁Sometimes	-10.2485
ध	-10.2486
▁debt	-10.2492
▁व्यवसायी	-10.2495
▁राति	-10.2496
▁arrived	-10.2497
▁gold	-10.2498
▁obvious	-10.2499
बा	-10.2501
▁standards	-10.2505
▁सरकारलाई	-10.2516
▁auto	-10.2535
▁pool	-10.2545
▁सोच	-10.2549
▁hell	-10.2552
▁separate	-10.2559
▁संलग्न	-10.2562
▁gonna	-10.2567
▁quiet	-10.2572
▁funds	-10.2574
▁जब	-10.2583
▁visiting	-10.2592
▁Does	-10.26
▁दु	-10.2607
▁owners	-10.2611
▁गरेकी	-10.2616
▁व्यवसाय	-10.2618
▁एउटै	-10.2619
▁showed	-10.2622
▁आन्तरिक	-10.2625
▁Right	-10.2626
▁Free	-10.2626
▁background	-10.2627
▁Service	-10.2627
▁उद्घाटन	-10.263
▁perform	-10.2633
▁पारित	-10.2634
end	-10.2639
▁पद	-10.2644
▁sexual	-10.2647
▁ठाउँ	-10.2649
▁देउवा	-10.265
▁circumstances	-10.265
▁सा	-10.2655
▁estate	-10.2659
▁sad	-10.2668
▁विमान	-10.2669
▁पा	-10.2673
▁कु	-10.2674
▁दिनुहोस	-10.2683
टा	-10.2684
▁raise	-10.2689
▁m	-10.2691
▁पर	-10.2691
▁surprise	-10.2698
▁Paul	-10.2701
▁videos	-10.2702
।’	-10.2705
▁vision	-10.2708
▁shouldn	-10.2722
▁IT	-10.2723
▁seek	-10.2723
संग	-10.2727
▁accident	-10.2727
▁visitors	-10.2728
▁नसकेको	-10.2728
▁संसदीय	-10.2729
▁General	-10.2735
▁broken	-10.2736
▁proud	-10.2741
▁गोली	-10.2742
▁suppose	-10.2742
▁Hey	-10.2747
▁properly	-10.2751
▁fat	-10.2752
▁despite	-10.2752
▁pull	-10.2756
▁region	-10.2763
▁मोबाइल	-10.2769
▁teams	-10.2772
▁episode	-10.2775
▁appeared	-10.278
▁station	-10.2783
▁गर्	-10.2789
▁निम्ति	-10.2793
बाटै	-10.2794
▁structure	-10.2796
▁Their	-10.2818
▁carried	-10.282
▁wondering	-10.2827
▁selling	-10.2828
▁organizations	-10.2831
▁tour	-10.2835
▁becomes	-10.2846
▁त्यसलाई	-10.2849
▁बल	-10.285
▁Post	-10.2859
▁पुग्ने	-10.286
▁smart	-10.2864
▁t	-10.2866
ated	-10.2867
▁unit	-10.2873
नै	-10.2879
▁eventually	-10.2881
ee	-10.2881
▁rock	-10.2881
▁एकै	-10.2882
▁भण्डारी	-10.2884
▁गर्दछ	-10.2884
▁park	-10.2885
▁Park	-10.2886
▁Board	-10.2888
ner	-10.2893
▁कारबाही	-10.2895
▁Business	-10.2897
मान	-10.2897
▁कान्तिपुर	-10.2897
▁spread	-10.2905
▁पाउन	-10.2905
▁कक्षा	-10.2905
▁rise	-10.292
▁sick	-10.292
▁freedom	-10.2922
▁Mo	-10.2924
con	-10.293
▁Black	-10.2946
▁सल्लाह	-10.2952
▁पूर्वाधार	-10.2952
▁developing	-10.2955
▁rain	-10.2958
▁स्रोत	-10.2966
▁length	-10.2972
▁wine	-10.2974
her	-10.2979
▁..	-10.2981
▁David	-10.2985
िया	-10.2987
▁https	-10.2989
▁respond	-10.2999
Do	-10.3
▁शैक्षिक	-10.3001
▁concept	-10.3004
ak	-10.3006
÷	-10.3014
▁Look	-10.302
▁classes	-10.3021
▁discover	-10.3022
▁forms	-10.3024
९	-10.3028
▁उपाध्यक्ष	-10.3035
▁sector	-10.3036
▁छोरा	-10.3039
▁दलित	-10.3042
▁missed	-10.3043
▁Washington	-10.3045
७	-10.3048
▁arm	-10.3049
▁stated	-10.3059
▁घण्टा	-10.306
▁teachers	-10.3063
house	-10.3067
▁Other	-10.3074
▁delivery	-10.3075
va	-10.3078
▁बाल	-10.308
▁assistance	-10.3082
▁बताउँछन्	-10.3089
▁encourage	-10.309
▁presence	-10.3092
▁हुँ	-10.3095
▁1,	-10.3097
▁अझ	-10.3097
They	-10.3102
▁डलर	-10.3103
▁detail	-10.3104
My	-10.3106
▁Hello	-10.3109
▁announced	-10.3112
▁sugar	-10.3121
▁master	-10.3122
मन्त्री	-10.3128
▁highest	-10.3131
▁काममा	-10.3134
▁entry	-10.3136
▁soul	-10.3143
▁cheap	-10.3145
▁breakfast	-10.3145
▁purposes	-10.3146
▁वैदेशिक	-10.3147
ists	-10.3148
▁देशका	-10.315
▁संस्कृति	-10.3156
▁चर्चित	-10.3159
▁मुलुक	-10.3163
▁sources	-10.3164
▁+	-10.3167
▁department	-10.3168
▁प्रतिनिधिसभा	-10.3168
▁असर	-10.317
▁उप	-10.318
▁वरिष्ठ	-10.3183
▁devices	-10.3184
▁searching	-10.3186
▁dangerous	-10.319
▁conference	-10.3193
▁सिर्जना	-10.3199
▁गुरुङ	-10.3202
▁familiar	-10.3202
▁County	-10.3205
▁relationships	-10.3208
▁valuable	-10.3211
▁affect	-10.3217
▁deliver	-10.3218
▁संरचना	-10.3219
▁लाग्यो	-10.3223
▁सहभागिता	-10.3231
▁primary	-10.3238
▁beach	-10.3238
▁प्रहरीको	-10.3243
▁matters	-10.3245
ाएर	-10.3247
▁picked	-10.3249
free	-10.325
▁सीमा	-10.3252
▁tough	-10.3252
dy	-10.3253
▁विद्युत्	-10.3254
▁जरुरी	-10.3255
os	-10.326
▁कृष्ण	-10.3261
▁personally	-10.3264
▁योगदान	-10.3265
▁exist	-10.3269
▁clothes	-10.3269
▁worst	-10.327
▁competition	-10.3273
▁entirely	-10.3273
ष	-10.3274
▁battle	-10.3276
▁leader	-10.3281
ha	-10.3286
▁भूकम्प	-10.3286
▁High	-10.3289
हरूमा	-10.331
▁परीक्षा	-10.3311
▁values	-10.3316
net	-10.3316
▁shape	-10.3327
▁agreed	-10.333
▁समितिका	-10.3331
▁crime	-10.3331
▁मानिस	-10.3335
▁छोरी	-10.3336
▁Law	-10.3342
▁फाइदा	-10.3343
▁surface	-10.3344
▁Street	-10.3348
▁British	-10.3351
▁राशिफल	-10.3351
▁French	-10.336
▁dress	-10.3361
▁३५	-10.3362
राम	-10.3365
▁applications	-10.3368
▁files	-10.3373
▁forced	-10.3374
्छ	-10.3381
▁नियमित	-10.3381
▁fee	-10.3391
▁stick	-10.3393
▁star	-10.3397
▁item	-10.3398
▁जहाँ	-10.3399
▁climate	-10.3401
▁election	-10.3406
▁Office	-10.341
ent	-10.3413
How	-10.3414
▁select	-10.3414
▁remains	-10.3421
▁posting	-10.3428
▁Still	-10.3429
▁slightly	-10.3429
▁होस्	-10.3431
▁reply	-10.3432
▁संगठन	-10.3434
ौँ	-10.3445
▁East	-10.3449
▁comfort	-10.3451
▁greatest	-10.3455
▁प्रकाश	-10.3455
▁sports	-10.3459
▁३२	-10.3464
▁alternative	-10.3467
▁plant	-10.3468
▁कलाकार	-10.347
‘	-10.3472
▁reasonable	-10.348
▁फोरम	-10.3482
▁considering	-10.3483
▁श्रेष्ठले	-10.3488
▁okay	-10.3489
▁गर	-10.349
▁smaller	-10.3495
▁soft	-10.3497
रि	-10.3498
▁seat	-10.3502
▁spirit	-10.3503
▁IN	-10.3503
▁प्रदेशको	-10.3504
▁listed	-10.3505
▁throw	-10.3505
▁anymore	-10.3506
▁communities	-10.3511
▁जम्मा	-10.3517
▁Perhaps	-10.3523
▁औषधि	-10.3524
▁२०७२	-10.3528
▁Company	-10.3532
▁fellow	-10.3533
▁(2)	-10.3534
▁अनुगमन	-10.3539
नेपाल	-10.3539
▁निरन्तर	-10.3541
▁थिएँ	-10.3545
▁limit	-10.355
▁flat	-10.3551
▁शेरबहादुर	-10.3553
▁concern	-10.356
▁शब्द	-10.3563
▁कार्यक्रमको	-10.3566
▁lady	-10.3568
▁assume	-10.3569
▁till	-10.3571
▁मध्ये	-10.3573
▁documents	-10.3576
Z	-10.3577
▁feedback	-10.3579
▁engine	-10.358
▁lay	-10.358
▁display	-10.3585
▁sight	-10.3587
▁f	-10.359
▁Church	-10.3591
tic	-10.3594
▁twice	-10.3598
▁आयोग	-10.3599
▁अनुमान	-10.3602
▁strange	-10.3607
▁agency	-10.3608
▁selection	-10.3609
▁document	-10.3611
▁बढाउन	-10.3619
▁प्रेस	-10.3619
▁तर्फबाट	-10.3624
▁identify	-10.3624
▁क्लब	-10.3633
ah	-10.3635
▁count	-10.3635
▁starts	-10.3639
ise	-10.3641
▁प्रकाशन	-10.3643
▁teach	-10.3643
▁सञ्चालनमा	-10.3646
▁विज्ञान	-10.3647
▁वाणिज्य	-10.3653
▁draw	-10.3656
▁कमजोर	-10.3658
▁reviews	-10.366
▁Committee	-10.3662
▁बताउँदै	-10.3664
over	-10.3667
▁Tuesday	-10.3667
▁Australia	-10.3671
▁सर्वोच्च	-10.3672
▁उनीहरु	-10.3673
▁tonight	-10.3676
▁beauty	-10.3677
▁spoke	-10.3678
▁गरिन्छ	-10.3678
▁theme	-10.3679
▁advance	-10.3679
▁ल्याउने	-10.3691
▁facilities	-10.3694
▁Americans	-10.3697
▁इतिहास	-10.37
▁दर	-10.3701
▁Thursday	-10.3705
▁largest	-10.3708
▁परीक्षण	-10.3709
▁attend	-10.371
▁loan	-10.3711
▁confidence	-10.3712
▁importance	-10.3715
▁बन्दै	-10.3715
▁साझा	-10.3718
▁suddenly	-10.372
▁pleased	-10.3721
िय	-10.3721
▁स्थित	-10.3723
▁पुनः	-10.3724
▁India	-10.3724
▁England	-10.375
▁बढ्दै	-10.3752
▁Year	-10.3753
▁विकेट	-10.3754
▁behavior	-10.3755
▁वित्तीय	-10.3755
▁विज्ञापन	-10.376
▁प्रदेशसभा	-10.3761
▁guests	-10.3763
▁2014	-10.3764
!”.	-10.3768
▁वाम	-10.3772
▁तामाङ	-10.3772
▁5.	-10.3779
▁records	-10.3782
▁concerns	-10.3782
ED	-10.3785
▁काठमाडौ	-10.3792
izing	-10.3793
▁abuse	-10.3794
▁cute	-10.3797
▁Red	-10.3799
pe	-10.3801
▁ना	-10.3802
पि	-10.3802
▁techniques	-10.3802
▁reference	-10.3803
▁Twitter	-10.3803
▁authority	-10.3804
८	-10.3805
▁Online	-10.3811
▁शिक्षक	-10.3815
▁प्रणाली	-10.3819
जन	-10.382
▁object	-10.3822
▁गृह	-10.3825
▁violence	-10.3832
▁खाना	-10.3837
▁वार्षिक	-10.3838
▁turns	-10.3839
▁officer	-10.3843
▁block	-10.3843
▁uses	-10.3846
▁bigger	-10.3847
▁सानो	-10.3848
▁secure	-10.3851
▁Michael	-10.3852
▁independent	-10.3857
▁prove	-10.3858
▁स्थायी	-10.3862
▁Whether	-10.3864
▁exchange	-10.3865
▁prepare	-10.3866
▁failed	-10.3866
▁rooms	-10.3867
▁expert	-10.3872
▁तपाई	-10.3873
▁पक्ष	-10.3874
िए	-10.3882
▁Instead	-10.3886
ence	-10.3888
▁obviously	-10.3891
▁facts	-10.3894
▁religious	-10.3901
▁trial	-10.3906
▁कोही	-10.3907
▁turning	-10.3911
▁गलत	-10.3915
▁closer	-10.3918
▁Bo	-10.3918
▁अधिकांश	-10.3922
▁28	-10.3935
▁नेतृत्वको	-10.394
▁श्रम	-10.3941
▁cell	-10.3943
झ	-10.3948
▁पुस्तक	-10.3951
▁केसी	-10.3954
▁speech	-10.3955
▁seconds	-10.3958
▁About	-10.396
▁sir	-10.3961
ster	-10.3963
ning	-10.3968
▁शुल्क	-10.3968
▁बहादुर	-10.3974
▁साधन	-10.3976
▁realized	-10.3978
टि	-10.3981
▁भर्ना	-10.3984
▁breath	-10.3984
▁त्यसमा	-10.3987
▁दलका	-10.399
▁slowly	-10.3991
▁answers	-10.3992
▁अभाव	-10.3993
▁cent	-10.4
▁बलात्कार	-10.4002
▁transfer	-10.4005
▁उहाँ	-10.4008
▁trees	-10.4011
▁राखेको	-10.4011
▁lucky	-10.4012
▁सबैको	-10.4013
▁push	-10.4015
▁Mar	-10.4015
▁संग	-10.402
▁intended	-10.4026
▁रासस	-10.4027
▁restaurant	-10.4034
▁धारणा	-10.4038
▁committed	-10.4041
▁Services	-10.4042
▁l	-10.4043
▁solid	-10.4044
ंग	-10.4044
sh	-10.4048
▁tired	-10.405
▁हाम्रा	-10.4051
▁radio	-10.4054
▁meal	-10.4055
▁साढे	-10.4057
▁३३	-10.4057
▁हुनुपर्ने	-10.4059
▁महिलाको	-10.4064
▁गर्नुहोस	-10.4066
ठ	-10.4074
▁Social	-10.4077
▁presented	-10.4083
नाथ	-10.4083
▁परिणाम	-10.4083
▁funding	-10.4086
▁Bill	-10.4092
▁मु	-10.4097
▁”	-10.4107
▁छनोट	-10.4118
▁सालमा	-10.412
▁instance	-10.4122
▁Big	-10.4124
▁श	-10.4125
▁26	-10.4133
▁failure	-10.414
▁command	-10.4142
▁दलको	-10.4148
our	-10.4156
▁काठमाडौंमा	-10.4158
▁equal	-10.4159
ni	-10.4162
▁mix	-10.4162
▁initial	-10.4164
▁आए	-10.4165
▁खुला	-10.4169
▁cat	-10.4171
▁उहाँको	-10.4171
ङ्ग	-10.4174
▁साता	-10.4179
▁explore	-10.4184
▁विराटनगर	-10.4185
▁elements	-10.4186
भा	-10.419
▁practices	-10.4192
▁आदि	-10.4195
▁wearing	-10.42
▁joy	-10.4202
▁dogs	-10.4205
▁बिरामी	-10.4211
▁संगीत	-10.4218
▁राजा	-10.4218
red	-10.4222
▁कारणले	-10.4223
▁injury	-10.4224
▁पर्यटक	-10.4227
▁Congress	-10.4229
▁Hope	-10.4229
▁print	-10.4229
▁twenty	-10.423
▁<	-10.423
▁context	-10.4238
▁जिल्लाका	-10.4242
▁चुनावी	-10.425
▁फेला	-10.425
▁determined	-10.4255
▁writer	-10.4256
▁bunch	-10.4257
▁गृहमन्त्री	-10.4259
गत	-10.4262
▁female	-10.4264
▁host	-10.4265
ut	-10.4277
▁perfectly	-10.4277
▁Di	-10.4277
▁homes	-10.4279
▁interests	-10.428
▁websites	-10.428
नु	-10.4282
20	-10.4282
▁डि	-10.4285
ping	-10.4286
▁ल्याएको	-10.4287
▁प्रहार	-10.4287
▁symptoms	-10.4288
▁Come	-10.4295
▁लोकतान्त्रिक	-10.4299
▁लगाउने	-10.4299
▁fixed	-10.43
▁feed	-10.4301
▁focused	-10.4301
▁drugs	-10.4301
▁चरणको	-10.4313
▁पुल	-10.4314
▁aid	-10.4314
▁काँग्रेस	-10.4316
work	-10.4317
▁recommended	-10.4317
▁ज्ञान	-10.4317
▁generation	-10.4317
▁केन्द्रका	-10.4317
Re	-10.4318
▁boat	-10.4318
▁Un	-10.432
▁weren	-10.4321
▁testing	-10.4325
▁मे	-10.4331
▁Mark	-10.4334
▁छौँ	-10.4334
▁महिनामा	-10.4338
▁removed	-10.434
▁signed	-10.434
▁वार्ता	-10.4342
▁Up	-10.4343
▁कार्तिक	-10.4344
▁Nepali	-10.4346
▁प्रचार	-10.4348
▁hasn	-10.4348
▁pulled	-10.435
▁सफलता	-10.4351
स्ट	-10.4351
▁named	-10.4352
▁प्रधान	-10.4352
▁scale	-10.4355
▁manager	-10.436
▁तालिम	-10.4361
▁गो	-10.4361
▁नसक्ने	-10.4366
▁2012	-10.4368
▁एन	-10.4372
▁album	-10.4373
di	-10.4376
▁argument	-10.4378
▁thread	-10.4378
▁दिइएको	-10.438
ities	-10.4381
▁assist	-10.4389
▁capacity	-10.4389
▁Wednesday	-10.4393
▁perspective	-10.4394
▁Na	-10.4401
▁यादव	-10.4409
▁छुट	-10.441
अन्तर्गत	-10.4416
”,	-10.442
▁कार्यालयमा	-10.4423
▁उडान	-10.4426
side	-10.4427
▁animal	-10.4427
▁उपाधि	-10.4431
▁jump	-10.4433
▁दिनु	-10.4433
▁सन्देश	-10.4439
▁obtain	-10.4439
▁operating	-10.4443
▁administration	-10.4444
ba	-10.4453
▁अपराध	-10.4453
ण्ड	-10.446
▁त्यति	-10.4461
▁निधन	-10.4464
▁हेर्ने	-10.4464
▁राखिएको	-10.4465
▁Sam	-10.4471
▁explained	-10.4473
▁कर्णाली	-10.4479
▁chair	-10.4481
▁numerous	-10.4483
वादी	-10.4484
▁सकारात्मक	-10.4485
▁उनीहरुले	-10.4487
▁Web	-10.4488
▁hadn	-10.449
▁watched	-10.4494
भिडियोसहित	-10.4495
▁गएका	-10.4512
▁connected	-10.4516
▁Having	-10.4519
back	-10.4521
▁horse	-10.4522
▁Note	-10.4523
ler	-10.4526
▁employee	-10.4537
▁emergency	-10.4537
▁famous	-10.4549
कार	-10.4551
▁fees	-10.4552
ल्	-10.4554
▁evil	-10.4556
▁बसेर	-10.4564
▁चुनौती	-10.4567
▁पेश	-10.4567
▁थिइन्	-10.457
▁bus	-10.4572
▁talked	-10.4573
ck	-10.4574
▁connect	-10.4578
▁produced	-10.4583
den	-10.4585
▁27	-10.4592
▁operations	-10.4593
tro	-10.4597
ka	-10.4602
▁dealing	-10.4603
▁प्रभावकारी	-10.4604
▁लोक	-10.4606
▁suit	-10.4609
▁बलियो	-10.4615
▁७०	-10.4615
▁Ha	-10.4617
▁increasing	-10.4623
▁मान्यता	-10.4624
▁feelings	-10.4625
▁कडा	-10.4628
▁आम	-10.4628
▁strategies	-10.4628
▁wood	-10.4633
▁beat	-10.4633
डि	-10.4634
▁recognize	-10.4636
▁notes	-10.4637
▁experts	-10.4637
▁measures	-10.464
mm	-10.4642
▁ला	-10.4643
▁बम	-10.4643
▁adult	-10.4644
bo	-10.4645
▁adults	-10.4656
▁2013	-10.4662
▁honor	-10.4665
25	-10.4672
▁persons	-10.4673
▁mass	-10.4674
▁पढिएको	-10.4675
जि	-10.4675
ge	-10.4678
▁promise	-10.4679
▁Out	-10.468
▁Pre	-10.4681
▁खाता	-10.4681
▁आँखा	-10.4681
▁$2	-10.4681
im	-10.4682
▁Green	-10.4686
▁Le	-10.4687
▁बनेका	-10.4691
well	-10.4693
▁admit	-10.4695
▁ओलीको	-10.4697
▁signs	-10.4698
▁unable	-10.4699
▁dance	-10.47
▁depending	-10.4703
रे	-10.4704
▁parent	-10.4707
▁विमानस्थल	-10.4709
▁laugh	-10.4711
▁भौतिक	-10.4715
▁kinds	-10.4718
▁agent	-10.4721
▁टिम	-10.4721
▁continues	-10.4726
▁storage	-10.4729
▁practical	-10.473
▁menu	-10.4734
Why	-10.4737
▁अवार्ड	-10.4738
▁leadership	-10.4739
▁theory	-10.4742
▁pair	-10.4746
see	-10.4746
▁हेर्नुहोस	-10.4751
▁कानून	-10.4754
▁criminal	-10.4757
▁pop	-10.4758
▁edge	-10.4759
▁मेडिकल	-10.476
▁वर्षीया	-10.4764
▁90	-10.4772
▁सिफारिस	-10.4773
▁पुरानो	-10.4773
▁counter	-10.4776
▁director	-10.4778
▁गुनासो	-10.478
▁खुसी	-10.4786
king	-10.4787
▁measure	-10.4788
▁पहल	-10.4792
▁package	-10.4792
▁operation	-10.4792
▁संचालन	-10.4796
▁flow	-10.4801
▁Unfortunately	-10.4804
▁bringing	-10.4806
▁प्रथम	-10.4809
▁entered	-10.4816
▁listening	-10.4816
▁नौ	-10.4817
▁Y	-10.4824
»	-10.4828
▁shoot	-10.484
▁treated	-10.4842
▁स्वतन्त्र	-10.4848
▁Earth	-10.485
▁निर्मला	-10.4852
▁सुचना	-10.4855
▁Apple	-10.4875
▁central	-10.4875
▁आशा	-10.4879
▁नेपालीको	-10.4887
▁harm	-10.4889
▁पीडित	-10.4897
▁उसको	-10.4898
▁लागेका	-10.4902
ci	-10.4905
40	-10.4909
▁residents	-10.4915
▁shit	-10.4922
▁उद्धार	-10.4923
▁submit	-10.4929
▁जेल	-10.4931
▁प्रदेशमा	-10.4931
▁mail	-10.4932
▁cream	-10.4937
▁checking	-10.4939
▁fairly	-10.494
▁score	-10.4942
▁choices	-10.4942
▁faster	-10.4946
▁[...].	-10.4947
▁अभिनय	-10.4949
▁google	-10.495
▁cup	-10.4951
▁तत्कालीन	-10.4953
▁भनी	-10.4953
▁leaves	-10.4956
▁पुष्पकमल	-10.4957
▁hang	-10.4957
▁मिटर	-10.4962
▁academic	-10.4964
▁स्थापित	-10.4965
▁justice	-10.4965
▁football	-10.4966
▁टोलीले	-10.4966
▁Happy	-10.4971
▁सबैलाई	-10.4972
▁विकल्प	-10.4977
▁आवाज	-10.4979
▁पोखरेल	-10.499
▁accounts	-10.499
▁दिँदै	-10.4992
▁quote	-10.4992
▁promote	-10.4993
▁Part	-10.4998
▁Yet	-10.4999
▁incredible	-10.5
▁आम्दानी	-10.5001
▁मिस	-10.5002
ber	-10.5003
▁forever	-10.5017
▁fuel	-10.5019
",	-10.5023
▁गरिएका	-10.5023
▁officials	-10.5029
▁apart	-10.5031
ious	-10.5031
र्स	-10.5036
▁civil	-10.5042
▁fighting	-10.5043
▁follows	-10.505
▁emotional	-10.5059
▁milk	-10.5059
▁suggestions	-10.506
▁accepted	-10.5061
▁$	-10.5062
▁पाएका	-10.5063
▁error	-10.5063
▁राज	-10.5068
▁विकासका	-10.5069
▁अधिकारीले	-10.507
▁colors	-10.507
▁भनिन्	-10.5071
▁सत्य	-10.5072
▁बस्न	-10.5072
▁cast	-10.5074
▁applied	-10.5083
▁George	-10.5085
▁dad	-10.5097
▁सिंह	-10.5103
▁अंक	-10.5104
▁बैशाख	-10.5106
▁massive	-10.5109
▁songs	-10.5114
▁judge	-10.5117
ac	-10.5117
▁plants	-10.512
▁प्रत्यक्ष	-10.5125
▁प्रतिस्पर्धा	-10.513
▁कार्यालयले	-10.513
▁Group	-10.5133
lin	-10.5134
▁stupid	-10.5138
▁कप	-10.514
▁100%	-10.5146
ial	-10.5148
पूर्ण	-10.515
▁taught	-10.5157
▁सम्पादक	-10.5161
▁सर	-10.5162
▁पुग्न	-10.5165
▁साधारण	-10.5166
▁tells	-10.5171
▁bear	-10.5171
▁नियन्त्रणमा	-10.5173
▁cities	-10.5179
▁काठमाण्डौ	-10.518
▁thousand	-10.518
▁Christian	-10.5182
▁examples	-10.5182
.....	-10.5183
.'.	-10.5183
▁आयात	-10.5184
▁environmental	-10.5185
▁नगर्ने	-10.5192
▁रेडियो	-10.5193
▁रे	-10.5193
▁professionals	-10.5196
▁decades	-10.5196
▁तय	-10.5196
▁भनिएको	-10.5204
▁बढ्ने	-10.5206
▁delicious	-10.5207
▁specifically	-10.5215
▁सक्रिय	-10.5215
▁कम्पनीको	-10.5217
▁contains	-10.522
▁Both	-10.5226
▁corporate	-10.5226
▁जनताले	-10.5227
▁constantly	-10.5228
▁officers	-10.5228
▁कुमार	-10.5237
▁moments	-10.5237
▁movies	-10.5241
▁OK	-10.5241
▁नेतृत्वमा	-10.5244
▁square	-10.5249
▁alive	-10.5253
ring	-10.5257
▁survey	-10.5259
▁debate	-10.5266
▁खेती	-10.5267
▁hundreds	-10.5283
▁​	-10.5284
▁सक्छन्	-10.5286
▁factor	-10.5293
▁meat	-10.5294
▁Ra	-10.5294
▁king	-10.5296
▁exact	-10.5298
्छन्	-10.5299
▁परी	-10.5299
▁घरेलु	-10.5306
▁detailed	-10.5308
▁८०	-10.5308
▁चयन	-10.531
से	-10.5314
▁crowd	-10.5315
▁losing	-10.532
▁Africa	-10.5323
▁कांग्रेसका	-10.5337
▁vacation	-10.5337
▁publish	-10.5339
▁chapter	-10.5341
▁quarter	-10.5342
▁कुरामा	-10.5342
ीको	-10.5346
▁library	-10.5347
▁camp	-10.5366
▁saved	-10.5368
▁सम्पादन	-10.5374
▁प्रतियोगितामा	-10.5374
▁fashion	-10.5378
▁शव	-10.538
▁investigation	-10.5384
▁Tom	-10.5385
▁lie	-10.5386
ुपर्छ	-10.5387
▁रोक	-10.5387
भर	-10.539
▁causes	-10.5396
▁निर्माणको	-10.5396
ाएको	-10.54
▁राहत	-10.54
▁ध	-10.5402
▁अनुमति	-10.5403
▁passion	-10.5408
▁©	-10.5409
vo	-10.5411
ite	-10.5415
ors	-10.5418
▁जाँदा	-10.542
▁James	-10.5423
ier	-10.5425
▁Call	-10.5426
▁पाइन्छ	-10.543
▁Remember	-10.5434
टर	-10.5436
▁stuck	-10.5436
▁Mac	-10.5445
▁कहिल्यै	-10.545
िरहेको	-10.5453
▁core	-10.5455
▁proposed	-10.5455
▁temperature	-10.5461
▁80	-10.5463
▁shut	-10.5465
▁त्रिभुवन	-10.5465
▁fund	-10.5475
▁male	-10.5479
▁रेल	-10.548
▁regularly	-10.5481
▁afford	-10.5482
▁employment	-10.5483
▁v	-10.5483
‌	-10.5486
po	-10.5487
क्स	-10.5488
▁aspects	-10.5488
▁यु	-10.549
ig	-10.549
▁रिलिज	-10.5491
ेपछि	-10.5495
▁एजेन्सी	-10.5495
▁leads	-10.5498
▁models	-10.5502
मो	-10.5504
▁पार्न	-10.5504
▁मतदाता	-10.5506
▁regard	-10.5511
▁मुलुकको	-10.5512
▁runs	-10.5514
▁....	-10.5519
मात्र	-10.5519
▁होटल	-10.5526
आर	-10.5527
जस्तो	-10.5528
▁भएपनि	-10.5531
▁bright	-10.5534
uk	-10.5535
▁combination	-10.554
▁brief	-10.5547
80	-10.5549
▁gotten	-10.5561
▁roll	-10.5565
▁दिएर	-10.5565
▁नगद	-10.5568
tion	-10.5568
▁grown	-10.557
▁बाहिरी	-10.5573
सँगको	-10.5576
▁fruit	-10.5576
▁crisis	-10.5578
▁Vi	-10.5579
▁weird	-10.5587
▁alcohol	-10.5588
▁प्रतिबद्धता	-10.5592
जु	-10.5593
▁dedicated	-10.5593
▁Again	-10.5595
▁approximately	-10.5595
▁commitment	-10.5597
▁पूजा	-10.5599
▁एमालेका	-10.56
▁brings	-10.5601
▁previously	-10.5603
50	-10.5606
▁गोविन्द	-10.5606
▁भारतमा	-10.5606
▁PM	-10.5607
▁रोजगार	-10.5616
min	-10.5619
▁planned	-10.5619
▁खड्का	-10.5621
▁everybody	-10.5622
▁अहिलेको	-10.5625
▁ought	-10.5626
▁भनेका	-10.5628
▁seeking	-10.5629
!).	-10.563
▁भट्टराई	-10.5636
▁favor	-10.5639
▁suggested	-10.5639
▁बीच	-10.564
▁processes	-10.5646
▁लगाउन	-10.5647
▁careful	-10.5652
▁guest	-10.5654
▁fail	-10.5655
▁चेतावनी	-10.5657
let	-10.5657
▁सही	-10.5657
▁pet	-10.5658
▁efficient	-10.5659
▁writers	-10.5659
लगायतका	-10.5661
▁housing	-10.5665
▁topics	-10.5669
▁भर	-10.5673
▁धार्मिक	-10.5674
▁university	-10.5674
▁Education	-10.5677
▁मन्दिर	-10.5677
िन्	-10.5679
▁mark	-10.568
▁प्रचण्डले	-10.5683
▁internal	-10.5683
ship	-10.5687
▁defined	-10.5691
▁participate	-10.5693
▁younger	-10.5705
▁बालबालिका	-10.5707
▁सक्दैन	-10.5707
▁Air	-10.5708
room	-10.5711
use	-10.5717
▁informed	-10.572
▁सञ्जाल	-10.5721
▁affected	-10.5727
▁Chinese	-10.5728
▁maintenance	-10.5728
▁सेना	-10.5728
▁गएर	-10.5734
▁rent	-10.5734
For	-10.5735
▁आवेदन	-10.5736
▁डे	-10.5738
▁ऊर्जा	-10.5739
▁से	-10.574
▁हैन	-10.5741
▁advertising	-10.5741
▁देउवाले	-10.5745
▁duty	-10.5745
▁wild	-10.575
▁सह	-10.5752
▁river	-10.5752
▁Wow	-10.5753
▁presentation	-10.5753
कि	-10.5754
▁2011	-10.5768
▁markets	-10.5774
▁वर्षदेखि	-10.5775
▁apartment	-10.5775
▁updated	-10.5779
▁कार्की	-10.579
▁गतेदेखि	-10.5791
▁कार्यरत	-10.5791
▁सम	-10.5802
▁Section	-10.5802
▁believed	-10.5803
▁enjoying	-10.5804
▁educational	-10.5805
▁पार	-10.5806
▁पार्ने	-10.5815
▁जनालाई	-10.5818
कु	-10.5819
45	-10.5819
▁नियुक्त	-10.5823
▁description	-10.5824
▁ड	-10.5826
▁citizens	-10.5826
▁क्यान्सर	-10.5829
▁foods	-10.583
▁चिन्ता	-10.5831
सन	-10.5834
▁yeah	-10.5835
▁sky	-10.5838
▁परे	-10.584
▁teeth	-10.5841
au	-10.5846
▁map	-10.5855
▁shoes	-10.586
▁planet	-10.5864
▁सम्पत्ति	-10.5869
mer	-10.5869
▁उनीहरुको	-10.587
▁चासो	-10.5871
▁Jack	-10.5879
▁Star	-10.588
▁Israel	-10.5882
▁Peter	-10.5885
▁farm	-10.5886
▁6.	-10.589
▁तरकारी	-10.5896
▁flight	-10.5896
▁carefully	-10.5898
▁paint	-10.5899
▁occur	-10.59
▁आयोजनामा	-10.5905
७४	-10.5906
▁basically	-10.5907
with	-10.5908
▁Art	-10.591
▁custom	-10.5911
▁somewhat	-10.5911
▁खाने	-10.5912
▁facility	-10.5915
▁सुन्दर	-10.5918
▁conduct	-10.592
्या	-10.5927
mp	-10.593
▁appearance	-10.5931
▁धन	-10.5932
▁बढाउने	-10.5935
▁server	-10.5936
▁maximum	-10.5938
▁चालक	-10.5939
▁bike	-10.5941
▁अभ्यास	-10.5942
▁sides	-10.5943
▁senior	-10.5945
▁Comments	-10.5946
▁mistake	-10.5949
▁सामुदायिक	-10.595
▁बे	-10.5953
▁pan	-10.5956
त्र	-10.5959
▁dropped	-10.5962
▁पश्चिम	-10.5963
▁मगर	-10.5965
▁हालसम्म	-10.5968
▁centre	-10.5975
▁बढ्न	-10.5977
▁Back	-10.5979
▁पत्रिका	-10.5982
▁Information	-10.5983
▁भोट	-10.5983
▁situations	-10.5986
▁गणतन्त्र	-10.5988
▁पौडेलले	-10.5989
▁scientific	-10.599
▁आउँछ	-10.5992
▁०	-10.5994
▁passing	-10.5995
▁south	-10.5995
▁suffering	-10.5996
▁अनुरोध	-10.5998
▁Work	-10.6001
▁instructions	-10.6002
▁France	-10.6004
▁allowing	-10.6004
▁31	-10.6005
▁Mary	-10.6011
▁murder	-10.6012
▁religion	-10.6022
▁लग	-10.6024
▁उनीहरू	-10.6028
▁200	-10.6028
▁गर्नका	-10.6028
mon	-10.603
▁w	-10.6031
▁विद्युत	-10.6033
▁apparently	-10.6034
▁bottle	-10.6038
▁वर्तमान	-10.604
▁describe	-10.6041
▁हासिल	-10.6041
▁सजाय	-10.6042
▁ललितपुर	-10.6042
▁2010	-10.6043
▁Am	-10.6044
▁Sorry	-10.6046
▁डाक्टर	-10.6046
▁बीबीसी	-10.6052
▁हेर	-10.6053
que	-10.6053
▁भोलि	-10.6055
▁curious	-10.6057
▁वर्षा	-10.6058
ाले	-10.6059
▁पारेको	-10.6063
▁defense	-10.6065
▁nine	-10.6066
▁Find	-10.6066
▁College	-10.6068
ुपर्ने	-10.6071
▁मूल	-10.6075
ाउ	-10.6075
ho	-10.6075
▁Everyone	-10.6075
▁grew	-10.6076
▁approved	-10.6082
▁rare	-10.6083
▁70	-10.6083
कर	-10.6086
▁parking	-10.6089
▁ऐतिहासिक	-10.6094
▁Being	-10.6095
▁proof	-10.6095
▁grateful	-10.6096
Don	-10.6102
nt	-10.6103
▁हेर्दा	-10.6103
▁north	-10.6104
▁४५	-10.6106
मु	-10.6114
▁नेपाललाई	-10.6116
▁charges	-10.6121
▁protected	-10.6121
▁मै	-10.6122
▁collect	-10.6123
ron	-10.6127
▁गा	-10.6139
▁निर्वाचनको	-10.6139
▁blogs	-10.6143
▁लाभ	-10.6149
▁earn	-10.615
▁profile	-10.6151
▁वर्ग	-10.6152
▁chosen	-10.6154
der	-10.6156
लाल	-10.6157
▁बुटवल	-10.6157
पत्र	-10.616
एक	-10.6161
▁बुद्ध	-10.6162
▁somebody	-10.6162
▁परि	-10.6163
▁aside	-10.6163
▁advanced	-10.6164
▁कोइराला	-10.6167
▁Off	-10.6168
नन्	-10.6171
▁surgery	-10.6174
▁bread	-10.6174
▁Z	-10.6176
▁गर्छु	-10.6181
▁Looking	-10.6181
▁Finally	-10.6182
more	-10.6185
▁सशस्त्र	-10.6186
▁cook	-10.6189
▁आरोपमा	-10.619
▁झापा	-10.6192
▁selected	-10.6192
▁सकेन	-10.6198
):	-10.62
▁empty	-10.6205
▁forces	-10.6207
▁prison	-10.6214
▁Public	-10.6219
▁भारतले	-10.622
Q	-10.6221
ti	-10.6225
▁artist	-10.6226
▁भ्रष्टाचार	-10.6229
▁ill	-10.6229
▁novel	-10.623
▁solve	-10.6231
▁El	-10.6234
▁अनुदान	-10.6234
pa	-10.6234
▁pattern	-10.6235
▁Book	-10.6242
12	-10.6244
▁लिएका	-10.6245
▁messages	-10.6246
▁बच्चा	-10.6249
मि	-10.6253
▁पत्ता	-10.6253
▁cleaning	-10.6255
▁permission	-10.6257
▁अघिल्लो	-10.6262
▁Mrs	-10.6266
▁सम्भव	-10.6267
▁सबैले	-10.6271
▁Commission	-10.6272
▁धन्यवाद	-10.6273
▁Human	-10.6274
▁possibility	-10.628
ible	-10.6281
She	-10.6283
ward	-10.6285
▁समर्थन	-10.6286
▁कम्युनिस्ट	-10.6288
▁neck	-10.6289
▁favourite	-10.6291
▁agencies	-10.6302
can	-10.6306
▁बागलुङ	-10.6309
▁youth	-10.6314
down	-10.6318
▁Should	-10.6319
▁rid	-10.6325
▁mis	-10.6335
▁पर्व	-10.6337
▁पढ्न	-10.6337
▁contain	-10.6341
▁regulations	-10.6342
▁ordered	-10.6344
▁निर्माणका	-10.6345
नो	-10.635
▁सञ्चालक	-10.6353
▁व्यक्तिगत	-10.6354
▁29	-10.6358
▁Though	-10.6358
▁motor	-10.6359
▁taxes	-10.636
खा	-10.6372
▁अर्थात्	-10.6373
▁निर्धारण	-10.6375
▁थालेका	-10.6381
▁बीमा	-10.6381
▁ने	-10.6386
▁winning	-10.6388
▁procedures	-10.6388
िन्छ	-10.6391
▁डिभिजन	-10.6392
▁extent	-10.6395
▁Ta	-10.6398
▁issued	-10.6399
ten	-10.6399
▁fault	-10.6406
As	-10.6409
▁मधेसी	-10.6418
▁Research	-10.6424
▁अगाडी	-10.6425
▁मिनेट	-10.6425
io	-10.6431
▁magic	-10.6433
▁Amazon	-10.6434
▁सम्मेलनमा	-10.6437
▁millions	-10.644
▁plastic	-10.644
▁ग्राहक	-10.6441
▁vehicles	-10.6441
▁तिमी	-10.6442
▁पोस्ट	-10.6447
▁inspired	-10.6453
vi	-10.6454
board	-10.6454
▁wake	-10.6457
▁चुनावमा	-10.6458
▁सहकार्य	-10.6458
▁chief	-10.6459
▁orders	-10.6461
▁म्युजिक	-10.6462
▁मान	-10.6462
▁effectively	-10.6462
▁साना	-10.6463
▁चीनको	-10.6469
▁Party	-10.6473
▁इमेल	-10.6476
जस्ता	-10.648
दी	-10.6482
▁कांग्रेसले	-10.6483
▁terrible	-10.6488
▁portion	-10.6489
▁अदालतले	-10.6492
▁मनोरञ्जन	-10.6495
▁फ	-10.6501
▁somehow	-10.6507
▁cultural	-10.6509
▁कलेज	-10.6517
▁medium	-10.6517
▁(19	-10.6519
▁प्रधानमन्त्रीको	-10.6519
▁broke	-10.652
गा	-10.6528
ger	-10.653
▁typically	-10.653
▁inter	-10.6532
000	-10.6532
▁false	-10.6533
▁सामान	-10.6535
▁forth	-10.6535
▁Miss	-10.6539
▁frequently	-10.654
▁ingredients	-10.6542
▁salt	-10.6543
▁मुलुकमा	-10.6544
▁Anyway	-10.6545
▁monthly	-10.6549
सो	-10.655
मे	-10.6551
▁Such	-10.6552
▁drinking	-10.6552
▁license	-10.6556
▁delivered	-10.6563
▁sending	-10.6564
13	-10.6565
▁island	-10.6569
▁grade	-10.6571
▁भनाई	-10.6572
▁आक्रमण	-10.6572
▁impressed	-10.6573
▁सजिलो	-10.6576
To	-10.6578
▁En	-10.659
▁शुभ	-10.6595
▁desk	-10.6601
▁ring	-10.6605
माओवादी	-10.6608
▁FOR	-10.6611
▁bodies	-10.662
▁tiny	-10.6621
▁neither	-10.6623
port	-10.6626
▁noise	-10.6628
▁species	-10.6629
▁Ben	-10.6629
▁understood	-10.6638
▁सडकमा	-10.6641
▁mode	-10.6642
ology	-10.6646
▁रि	-10.6649
▁capable	-10.6653
▁बिना	-10.666
▁updates	-10.6661
ko	-10.6661
▁la	-10.6665
ot	-10.6666
ably	-10.6668
▁Times	-10.667
60	-10.6672
▁relatively	-10.6676
▁express	-10.6676
▁राजदूत	-10.6681
▁Union	-10.669
▁Women	-10.6691
घ	-10.6693
▁consumers	-10.6694
▁प्राथमिकता	-10.6694
▁discussed	-10.6697
▁दिउँसो	-10.6702
▁opposite	-10.6704
▁हस्ताक्षर	-10.6714
▁Was	-10.6717
▁महासचिव	-10.6727
▁झण्डै	-10.673
▁तल	-10.6736
▁stores	-10.6738
▁सी	-10.6742
▁संघको	-10.6742
▁partners	-10.6743
▁हिजो	-10.6744
▁keeps	-10.6744
▁AM	-10.6744
▁Management	-10.6748
▁अपेक्षा	-10.6749
▁cheese	-10.6751
▁supporting	-10.6751
▁नभए	-10.6753
▁बाध्य	-10.6757
▁chocolate	-10.6759
▁letters	-10.6761
▁कम्तीमा	-10.6761
▁(3)	-10.6762
▁समृद्धि	-10.6765
▁हक	-10.6766
▁format	-10.6769
▁बहस	-10.677
▁Add	-10.677
पु	-10.6772
एस	-10.6776
▁डट	-10.6776
ाउँदै	-10.6776
▁शीर्ष	-10.6777
▁Children	-10.6779
When	-10.678
▁shooting	-10.6783
▁procedure	-10.6794
▁introduced	-10.6794
▁skill	-10.6795
▁worried	-10.6797
▁SO	-10.6797
▁replace	-10.6805
▁साथी	-10.6805
▁केन्द्रित	-10.6806
▁गरियो	-10.6807
▁reader	-10.6808
▁पास	-10.681
▁coach	-10.6813
▁buildings	-10.6813
▁फिचर	-10.6815
▁n	-10.6816
▁profit	-10.6827
▁45	-10.6829
▁पार्टीले	-10.6831
▁serving	-10.6833
▁Bar	-10.6834
▁स्कुल	-10.6835
▁motion	-10.6839
▁जहाज	-10.684
▁Security	-10.6843
▁wanting	-10.6845
▁pointed	-10.6849
▁यता	-10.6851
▁किलो	-10.6853
▁Could	-10.6857
▁IS	-10.6861
▁accordance	-10.6864
यु	-10.6864
▁कुराकानी	-10.6866
▁अमेरिकामा	-10.6866
▁medicine	-10.6868
▁charged	-10.6869
▁resource	-10.6873
▁आएर	-10.6881
▁सरकारमा	-10.6882
ard	-10.6884
▁memories	-10.6894
▁Association	-10.6894
▁Po	-10.6895
▁क्षेत्रीय	-10.6896
▁doors	-10.6897
▁bloggers	-10.6898
▁एसिया	-10.6899
▁यादवले	-10.6899
▁assets	-10.69
▁fly	-10.6904
▁दिनको	-10.6905
▁laid	-10.6909
▁tests	-10.6911
▁स्व	-10.6913
▁receiving	-10.6914
▁legs	-10.6917
▁load	-10.6917
▁consumer	-10.6919
ुवा	-10.692
ft	-10.6922
▁सेक्स	-10.6923
▁बराबरको	-10.6923
▁village	-10.6924
▁cooking	-10.6924
▁institutions	-10.6927
▁Lo	-10.6927
▁depends	-10.6928
▁classic	-10.693
▁क्रम	-10.6932
▁labor	-10.6933
▁politics	-10.6933
▁दशमलव	-10.6936
▁register	-10.6936
▁repair	-10.6938
▁chicken	-10.6942
▁struggle	-10.6945
▁Texas	-10.6945
▁literally	-10.6947
पन	-10.6947
▁गर्नेछ	-10.6947
▁स्वीकार	-10.6949
▁suffer	-10.695
▁अरू	-10.6954
▁accurate	-10.6955
▁परियोजना	-10.6957
▁loving	-10.6958
ेन	-10.6959
▁engage	-10.6961
▁500	-10.6961
ide	-10.6962
▁properties	-10.6962
▁सरकारका	-10.6962
▁authorities	-10.6971
▁Ma	-10.6975
▁दुःख	-10.6976
▁satisfied	-10.6977
▁launch	-10.6978
▁reaction	-10.6979
▁नगरपालिकाको	-10.6985
▁पाए	-10.6985
book	-10.6987
एम	-10.6987
▁तलब	-10.6994
▁everywhere	-10.6994
ding	-10.6995
िका	-10.7
▁ends	-10.7002
▁हस्तान्तरण	-10.7003
▁35	-10.7005
▁expenses	-10.7007
▁lights	-10.7007
▁Japan	-10.7008
▁chat	-10.7008
▁creation	-10.7009
▁Long	-10.7012
▁त्यसो	-10.7013
▁सक्नुहुन्छ	-10.7014
▁courses	-10.7014
▁inspiration	-10.7015
▁Under	-10.7017
▁threat	-10.7018
िरहेका	-10.7023
▁लाग्न	-10.7028
▁stone	-10.7028
▁प्रगति	-10.703
▁joined	-10.7032
▁९०	-10.7033
▁smoke	-10.7034
▁खोजी	-10.7034
ष्ट	-10.7036
site	-10.7044
▁registration	-10.7044
▁महा	-10.705
▁मोटरसाइकल	-10.705
▁अदालत	-10.7052
जे	-10.7058
▁cake	-10.706
▁सभामुख	-10.7061
▁remaining	-10.7062
▁necessarily	-10.7063
▁television	-10.7077
▁expectations	-10.7083
▁revenue	-10.7086
▁कतै	-10.7089
▁metal	-10.709
▁assessment	-10.7092
▁विद्यालयमा	-10.7096
▁relief	-10.7097
▁performed	-10.71
what	-10.7103
▁Try	-10.7108
▁incident	-10.7111
▁concerning	-10.7112
▁Ro	-10.7116
▁छिमेकी	-10.7118
१०	-10.7119
▁शिव	-10.712
▁मह	-10.7123
▁nobody	-10.7124
she	-10.7124
▁expression	-10.7125
▁reduced	-10.7125
▁उम्मेदवारी	-10.7132
▁recommendations	-10.7133
▁units	-10.7136
▁जा	-10.7138
▁मेयर	-10.7142
▁dreams	-10.7143
▁recovery	-10.7144
▁celebrate	-10.7145
▁कमल	-10.7149
▁नहुँदा	-10.7149
▁लगाएको	-10.7151
▁आयोजक	-10.7152
▁district	-10.7154
▁k	-10.7157
▁escape	-10.7162
▁बिहे	-10.7163
▁अति	-10.7164
▁sentence	-10.7176
▁विरुद्ध	-10.7176
▁गए	-10.7177
▁२०१७	-10.7177
▁consideration	-10.7179
▁गर्यो	-10.7182
gmail	-10.7183
▁;	-10.7189
▁नागरिकता	-10.7195
▁जल	-10.7196
ST	-10.7197
▁brown	-10.7198
▁बाबुराम	-10.7199
▁गयो	-10.72
▁committee	-10.7202
▁surely	-10.7207
▁enemy	-10.7209
▁नजिक	-10.721
▁referred	-10.7214
▁carrying	-10.7217
▁Food	-10.7219
▁Nothing	-10.722
▁त्यसका	-10.7221
▁truck	-10.7223
▁conflict	-10.7225
▁privacy	-10.7229
▁Club	-10.7231
▁harder	-10.7233
▁dating	-10.7233
▁appointment	-10.7233
field	-10.7236
▁खारेज	-10.7239
▁domestic	-10.724
्छु	-10.724
▁bathroom	-10.7241
les	-10.7246
▁hire	-10.7247
िएर	-10.7248
▁beer	-10.7248
▁risks	-10.7249
▁साउदी	-10.7249
▁therapy	-10.7252
गो	-10.7265
▁चौथो	-10.727
▁उपयुक्त	-10.727
▁shoulder	-10.7272
▁ages	-10.7274
▁केसीले	-10.7276
▁पर्	-10.7277
▁windows	-10.728
▁bookmarked	-10.7282
▁meetings	-10.7283
▁Per	-10.7285
▁hardly	-10.7286
▁खानेपानी	-10.7292
▁मन्त्रालयका	-10.7294
▁Florida	-10.7295
ative	-10.7298
▁त्यसै	-10.7303
▁crew	-10.7305
▁lifestyle	-10.7306
▁greatly	-10.7307
▁guarantee	-10.7307
▁ऊ	-10.731
▁Development	-10.7311
▁गराएको	-10.7313
tra	-10.7313
▁incredibly	-10.7313
▁payments	-10.7315
▁provider	-10.732
▁हुन्थ्यो	-10.7324
▁श्रीमती	-10.7325
▁drivers	-10.7326
▁उपाय	-10.7326
▁identity	-10.7327
▁letting	-10.7327
▁grab	-10.7327
▁7.	-10.7328
▁गर्नुहोला	-10.7328
▁Previous	-10.7328
▁volume	-10.7334
▁महानगरपालिका	-10.7335
▁pack	-10.7338
▁धान	-10.7344
▁EU	-10.7349
▁अनिवार्य	-10.7354
▁यसो	-10.7356
▁Never	-10.7356
▁heads	-10.7357
▁स्थिति	-10.7358
न्स	-10.736
▁टिकट	-10.7364
▁संघर्ष	-10.7365
▁Show	-10.7366
▁Plus	-10.7366
▁Science	-10.7369
▁एकीकृत	-10.7372
▁guidance	-10.7372
▁निःशुल्क	-10.7372
▁Care	-10.7374
▁गरिनेछ	-10.7376
▁कार्यकर्ता	-10.7377
▁lessons	-10.7381
q	-10.7382
▁आई	-10.7388
car	-10.739
▁गठबन्धन	-10.739
धि	-10.7395
▁वर्षपछि	-10.7402
▁उपचारका	-10.7405
▁कानुनी	-10.7411
▁participants	-10.7412
ped	-10.7412
▁मापदण्ड	-10.7414
▁ट	-10.7416
▁noted	-10.7416
▁whenever	-10.7417
▁everyday	-10.7418
▁anybody	-10.7418
▁भन्नु	-10.7419
▁improved	-10.742
▁खुशी	-10.7421
▁humans	-10.7423
▁विश्लेषण	-10.7425
हो	-10.7429
▁decade	-10.7432
▁महोत्सव	-10.7434
ey	-10.7435
▁paragraph	-10.7438
▁Learn	-10.7439
▁expertise	-10.7439
▁Bank	-10.7441
▁मध्य	-10.7445
▁confident	-10.7445
▁pounds	-10.7446
▁प्रमाणपत्र	-10.7447
▁appeal	-10.7448
▁minor	-10.7451
▁मिलेर	-10.7453
▁प्रदेशका	-10.7458
शा	-10.7466
▁improvement	-10.7468
▁पदार्थ	-10.7469
▁Open	-10.7477
▁पर्यटकीय	-10.7479
▁roof	-10.7481
▁शाह	-10.7486
▁functions	-10.7486
▁decent	-10.7489
▁frame	-10.7493
▁पुग्यो	-10.7493
▁शासन	-10.7496
▁निर्माणमा	-10.75
▁पदमा	-10.7502
▁council	-10.7502
▁al	-10.7502
▁automatically	-10.7504
▁transport	-10.7504
▁calm	-10.7504
▁install	-10.7509
▁enable	-10.7512
▁blind	-10.7513
sa	-10.7514
चार	-10.7516
▁Things	-10.7517
▁award	-10.7518
24	-10.7521
15	-10.7521
▁लामा	-10.7521
▁Plan	-10.7521
▁purchased	-10.7526
▁flowers	-10.7529
▁पृष्ठ	-10.753
▁principles	-10.753
▁weapons	-10.7531
▁attacks	-10.7536
▁ट्राफिक	-10.7538
▁Jo	-10.754
▁ticket	-10.755
▁staying	-10.7552
▁pleasant	-10.7553
▁blame	-10.7555
हि	-10.7556
▁registered	-10.7557
▁कोरिया	-10.7557
्यु	-10.7566
▁Everything	-10.757
▁कार	-10.757
▁चाहना	-10.7571
▁normally	-10.7571
▁category	-10.7573
▁=	-10.7574
▁तथ्य	-10.7576
70	-10.7577
▁2000	-10.7579
ney	-10.758
▁औपचारिक	-10.7581
▁severe	-10.7581
ham	-10.7582
▁r	-10.7588
▁थुप्रै	-10.7591
-1	-10.7594
▁आगलागी	-10.7595
▁पर्न	-10.7599
▁खतरा	-10.7601
▁awareness	-10.7601
tor	-10.7605
▁vital	-10.7605
▁competitive	-10.7606
▁केन्द्रमा	-10.7611
▁pace	-10.7614
▁existence	-10.7615
▁अमेरिकाको	-10.7617
▁danger	-10.762
▁sufficient	-10.762
▁उजुरी	-10.7623
▁comprehensive	-10.7624
सित	-10.7626
▁अर्थमन्त्री	-10.7632
▁Robert	-10.7635
▁सत्ता	-10.7639
▁artists	-10.7639
▁suspect	-10.7642
▁Windows	-10.7649
▁cutting	-10.7652
▁Ar	-10.7655
ised	-10.7658
▁loves	-10.7658
▁विजय	-10.7659
▁falling	-10.766
▁खेल्ने	-10.7661
▁Jim	-10.7664
▁Bible	-10.7664
▁ease	-10.767
▁Give	-10.7677
▁रोक्न	-10.7679
med	-10.768
▁एवम्	-10.7683
▁नोट	-10.7684
▁walls	-10.7686
▁दश	-10.7691
▁भ्रमणमा	-10.7693
▁राजीनामा	-10.7696
▁cried	-10.7696
▁Water	-10.7696
▁tasks	-10.7699
▁मलेसिया	-10.77
ुभएको	-10.77
▁facing	-10.7705
▁engaged	-10.771
▁Top	-10.7715
▁Minister	-10.7717
▁Code	-10.772
▁राजपा	-10.7721
▁fields	-10.7721
▁अन्तर	-10.7723
ेश	-10.7725
▁£	-10.7727
▁बाढी	-10.7728
▁युनिकोड	-10.7729
▁व्यक्तिको	-10.773
▁blogging	-10.7731
lu	-10.7733
▁विगत	-10.7738
▁aim	-10.7739
▁immediate	-10.7741
▁कमी	-10.7744
▁supported	-10.7745
▁शर्माले	-10.7745
▁आयोगको	-10.7753
▁begins	-10.7753
▁suitable	-10.7754
▁समाजमा	-10.7758
▁बताएको	-10.7761
▁killing	-10.7762
भि	-10.7764
▁ear	-10.7767
▁हुँदैछ	-10.7768
▁समावेश	-10.7772
▁DO	-10.7776
mb	-10.7776
pro	-10.7783
▁विदेशमा	-10.7786
▁sets	-10.7788
▁हप्ता	-10.7789
▁परिचालन	-10.779
▁त्यसले	-10.779
▁wealth	-10.7794
ap	-10.7802
hi	-10.7803
▁rental	-10.7807
90	-10.7809
▁आयोजनाको	-10.7812
▁mess	-10.7813
▁compare	-10.7817
▁गतेसम्म	-10.7818
▁constant	-10.7819
▁leg	-10.7819
▁Family	-10.7823
▁mountain	-10.7824
▁Market	-10.7832
दि	-10.7833
▁stars	-10.7835
▁सल्लाहकार	-10.7835
▁linked	-10.7836
▁सिनेमा	-10.7837
▁नगरी	-10.7838
▁storm	-10.7838
▁भक्तपुर	-10.7839
▁attitude	-10.7839
▁प्राकृतिक	-10.7843
▁definition	-10.7848
आई	-10.785
▁समाजवादी	-10.7856
▁browser	-10.7858
▁किलोमिटर	-10.7861
om	-10.7862
रुपमा	-10.7864
▁tickets	-10.7864
▁Bush	-10.7867
▁banks	-10.7867
ीकरण	-10.787
▁visual	-10.787
▁Germany	-10.7871
▁गौतम	-10.7874
light	-10.7875
▁lies	-10.7881
▁affordable	-10.7882
▁studio	-10.7883
▁aspect	-10.7884
ER	-10.7886
▁मुख	-10.7888
▁पहिला	-10.7889
▁illegal	-10.7899
▁चैत्र	-10.7901
▁fingers	-10.7905
▁papers	-10.7905
▁मेरा	-10.7906
▁Federal	-10.7906
▁valid	-10.7908
▁German	-10.7908
▁bedroom	-10.7913
▁identified	-10.7913
▁पोखरामा	-10.7914
औं	-10.7915
▁doctors	-10.7915
▁निश्चित	-10.7917
तर	-10.792
यस	-10.7922
▁एमालेले	-10.7922
▁उद्देश्य	-10.793
▁आधिकारिक	-10.793
▁मेला	-10.7937
▁निकाय	-10.7937
देश	-10.7939
▁talent	-10.7943
▁infrastructure	-10.7943
▁$3	-10.7944
▁लक्षित	-10.7945
▁Power	-10.7946
▁Think	-10.7947
▁छिटो	-10.7948
▁Old	-10.7951
▁stands	-10.7953
▁Therefore	-10.7953
▁im	-10.7958
▁arrive	-10.7959
▁technologies	-10.796
▁बु	-10.7964
ability	-10.7968
▁hide	-10.7968
▁अप	-10.7978
▁forum	-10.7978
ang	-10.7983
▁upper	-10.7987
▁Blue	-10.7987
▁आधा	-10.7988
▁lesson	-10.7988
▁पोर्टल	-10.799
▁hall	-10.7995
▁installed	-10.7995
▁nuclear	-10.7996
▁victim	-10.7997
▁केसीको	-10.8004
▁एस	-10.8004
▁switch	-10.8004
▁संघका	-10.8009
▁route	-10.8009
▁providers	-10.8012
ana	-10.8017
19	-10.8021
▁extreme	-10.8021
▁kick	-10.8021
▁घ	-10.8022
▁external	-10.8023
▁occurred	-10.8024
▁ma	-10.8026
dis	-10.8029
▁drawing	-10.803
▁वर्षअघि	-10.8034
▁Tell	-10.8034
▁tone	-10.8036
▁houses	-10.8037
▁candidate	-10.8038
▁सैनिक	-10.8041
▁विस्तृत	-10.8048
▁chose	-10.8049
ng	-10.8051
१९	-10.8051
ृ	-10.8052
▁approval	-10.8054
▁visited	-10.8056
क्ष	-10.8056
बे	-10.8056
▁भण्डारीले	-10.8056
▁महिनाको	-10.8059
▁essay	-10.8061
ाउनु	-10.8062
▁हिंसा	-10.8063
▁Ho	-10.8067
▁consent	-10.8068
▁merely	-10.807
▁adventure	-10.807
▁PC	-10.8071
▁जापान	-10.8074
▁tears	-10.8075
▁दाहालले	-10.8078
▁processing	-10.8078
▁उचित	-10.8083
▁legislation	-10.8083
▁saving	-10.8085
!)	-10.8091
▁NO	-10.8091
▁brilliant	-10.8091
▁Mike	-10.8094
▁significantly	-10.8095
▁व्यवहार	-10.8106
▁पहिरो	-10.8107
▁electronic	-10.8112
▁checked	-10.8113
▁gender	-10.8114
▁कसले	-10.8117
▁hole	-10.812
▁Real	-10.812
▁regardless	-10.8125
▁consistent	-10.8126
▁नभई	-10.8127
▁stayed	-10.8131
लार्इ	-10.8131
che	-10.8133
▁acting	-10.8133
▁Li	-10.8141
▁टु	-10.8142
▁belief	-10.8144
▁बुझ	-10.8149
▁executive	-10.815
▁भावना	-10.815
▁जनाएका	-10.8153
▁Despite	-10.8155
▁shift	-10.8156
▁streets	-10.8157
▁विकासको	-10.8162
▁लिए	-10.8163
▁mood	-10.8166
▁consequences	-10.8177
▁vast	-10.8179
related	-10.818
▁Hall	-10.8181
▁Without	-10.8189
▁mo	-10.8191
▁दुबै	-10.8194
▁लेखक	-10.8196
▁panel	-10.8196
▁loud	-10.8198
▁नाफा	-10.8198
just	-10.8199
life	-10.8199
▁मद्दत	-10.82
▁ALL	-10.8201
▁रोजगारी	-10.8204
▁बढ्यो	-10.8208
▁oh	-10.8211
▁बन	-10.8212
▁आधारित	-10.8212
ki	-10.8213
▁Need	-10.8215
▁बढि	-10.8217
▁cycle	-10.8217
▁transition	-10.8218
▁फैसला	-10.822
म्प	-10.8223
▁complicated	-10.8223
don	-10.8223
▁Really	-10.8224
▁grand	-10.823
▁खनाल	-10.8231
▁recall	-10.8232
▁Has	-10.8234
▁Project	-10.8234
▁generate	-10.8236
▁हरि	-10.8237
▁पाइने	-10.8237
▁moral	-10.8247
▁Okay	-10.8249
▁भइ	-10.8249
▁बुझ्न	-10.825
▁मो	-10.8253
fi	-10.8254
ium	-10.8255
▁गाउँमा	-10.8257
▁Ka	-10.826
ins	-10.8261
▁रहन	-10.8263
▁पार्क	-10.8264
▁figures	-10.8265
▁communicate	-10.8266
▁challenging	-10.8267
▁शहर	-10.8268
▁explanation	-10.8269
▁gay	-10.8269
▁समान	-10.8271
oc	-10.8271
▁scheme	-10.8275
▁trick	-10.8276
▁angry	-10.8277
▁सांस्कृतिक	-10.8278
▁रुप	-10.828
▁bowl	-10.8286
▁गोप्य	-10.8287
▁closely	-10.8288
▁नायिका	-10.8288
▁random	-10.829
▁Men	-10.8291
▁न्युज	-10.8294
▁भएकोले	-10.8295
▁degrees	-10.8295
▁महसुस	-10.8295
▁conclusion	-10.8296
.00	-10.8297
▁resolution	-10.8299
▁विभागले	-10.8303
▁७५	-10.8304
▁combined	-10.8308
▁Father	-10.8308
▁smiled	-10.8313
▁UN	-10.8314
नगर	-10.8316
ya	-10.8316
▁Ex	-10.8317
▁बेपत्ता	-10.8317
read	-10.8319
▁candidates	-10.8321
▁illness	-10.8322
▁सञ्चालित	-10.8326
▁पहुँच	-10.8328
▁मधेस	-10.8329
▁गरिसकेको	-10.833
▁chain	-10.833
21	-10.8333
▁संसद	-10.8339
▁प्रमाण	-10.834
न्त	-10.834
▁त्यसैगरी	-10.834
▁दिल्ली	-10.8341
▁लोकतन्त्र	-10.8344
िम	-10.8347
▁plays	-10.8348
▁ending	-10.8348
▁टिप्पणी	-10.8351
▁trading	-10.8353
कर्ता	-10.8356
▁लगातार	-10.8357
▁दिनुपर्ने	-10.8359
▁reporting	-10.8363
▁guilty	-10.8364
▁revealed	-10.8365
▁anxiety	-10.8367
▁extended	-10.8367
▁गजल	-10.8376
ile	-10.8379
▁sessions	-10.8382
▁Ad	-10.8385
▁intelligence	-10.8385
▁उनीहरूले	-10.8388
▁exposure	-10.8388
ions	-10.8388
▁Police	-10.8388
ville	-10.8389
▁अभिनेत्री	-10.8389
▁Hu	-10.8397
▁shower	-10.8397
▁सँगै	-10.8403
▁उपस्थित	-10.8404
▁कांग्रेसको	-10.8405
▁गतिविधि	-10.8407
▁silence	-10.8407
▁भा	-10.8409
▁इन्टरनेट	-10.8412
ीले	-10.8414
▁hopefully	-10.8415
▁कालो	-10.8416
▁औँ	-10.8417
▁spiritual	-10.8417
▁atmosphere	-10.8421
▁Cor	-10.8421
▁refer	-10.8421
▁डर	-10.8425
▁कार्यालयका	-10.8425
▁जानु	-10.8427
▁god	-10.8429
▁household	-10.8429
▁जिम्मा	-10.8432
▁hidden	-10.8433
▁महासंघ	-10.8438
▁प्रजातन्त्र	-10.8441
▁प्रतियोगिताको	-10.8445
▁default	-10.8446
▁अवधिमा	-10.8447
▁reliable	-10.8449
▁pray	-10.8451
▁invest	-10.8453
▁pen	-10.8455
▁सहयोगी	-10.8457
▁odd	-10.8459
▁अदालतमा	-10.8459
▁impressive	-10.8463
▁reputation	-10.8471
ery	-10.8471
▁victims	-10.8472
▁भो	-10.8475
▁cry	-10.8476
▁आह्वान	-10.8477
▁occasion	-10.848
पर	-10.8482
▁उपभोक्ता	-10.8487
▁कारवाही	-10.8487
bb	-10.8488
act	-10.849
▁सदरमुकाम	-10.849
▁भाषाको	-10.8492
▁उपकरण	-10.8494
▁यू	-10.8495
▁savings	-10.8497
▁गैर	-10.8497
▁हु	-10.8499
▁तिम्रो	-10.8502
bar	-10.8502
▁हार	-10.8502
▁जनतालाई	-10.8503
▁जाँच	-10.8505
▁क्या	-10.8507
▁bound	-10.8508
सहितको	-10.8508
▁प्रिमियर	-10.8511
▁Second	-10.8515
iv	-10.8519
ons	-10.852
▁pocket	-10.8529
▁तराई	-10.8529
▁gifts	-10.8531
▁Super	-10.8532
▁agents	-10.8533
▁battery	-10.8536
▁percentage	-10.8542
▁sample	-10.8544
ns	-10.8545
▁tight	-10.8549
▁invited	-10.8552
▁प्रसारण	-10.8554
▁contribute	-10.8563
▁इच्छा	-10.8563
▁प्रशिक्षण	-10.8563
▁बनाएका	-10.8565
▁Central	-10.8565
▁विकासमा	-10.8567
ged	-10.8568
▁Help	-10.8569
istic	-10.8571
▁cells	-10.8571
पटक	-10.8573
▁blow	-10.8577
▁restaurants	-10.8577
▁plain	-10.8577
▁typical	-10.8579
▁rose	-10.8579
bit	-10.858
▁foundation	-10.8583
▁५५	-10.8584
▁फेरी	-10.8587
▁African	-10.8587
▁2008	-10.8589
क्	-10.859
▁opinions	-10.8592
▁historical	-10.8594
▁broad	-10.8594
दै	-10.8594
▁Him	-10.8595
▁guard	-10.86
▁happiness	-10.8601
▁आलोचना	-10.8601
▁distribution	-10.8603
Not	-10.8603
▁comparison	-10.8604
▁mortgage	-10.8604
▁tip	-10.8605
मन	-10.8606
▁Director	-10.8612
▁investors	-10.8613
एको	-10.8613
ow	-10.8615
▁settings	-10.8616
▁audio	-10.8618
this	-10.8618
डे	-10.862
▁बालिका	-10.8622
▁Russia	-10.8622
▁कर्जा	-10.8623
▁sport	-10.8627
ver	-10.8631
han	-10.8631
▁लगाएर	-10.8635
श्	-10.8635
▁USA	-10.8644
▁Los	-10.8645
ris	-10.8651
▁सन्दर्भमा	-10.8652
▁statements	-10.8652
त्	-10.8657
▁hat	-10.8658
▁gorgeous	-10.866
▁रचना	-10.8661
▁व्यावसायिक	-10.8665
▁जनकपुर	-10.8665
▁सूर्य	-10.8666
▁भू	-10.8668
ware	-10.867
▁:)	-10.8671
▁deals	-10.8673
▁Media	-10.8675
▁रनको	-10.8677
▁u	-10.8678
▁discount	-10.8678
ina	-10.8678
▁~	-10.8679
▁2009	-10.8681
▁परिचय	-10.8683
▁implement	-10.8687
▁element	-10.8687
▁हालै	-10.8689
▁कामदार	-10.8689
▁लागेर	-10.8694
▁Data	-10.8695
▁ठुलो	-10.8697
▁गति	-10.8701
▁हङकङ	-10.8702
All	-10.8705
AL	-10.8708
▁Sun	-10.871
▁Little	-10.8711
▁smell	-10.8715
▁अस्थायी	-10.8715
▁छानबिन	-10.8715
▁represent	-10.872
▁pot	-10.8721
▁टेलिभिजन	-10.8722
▁भएकी	-10.8723
वर	-10.8725
▁BE	-10.8727
▁inform	-10.8728
▁trend	-10.8729
▁lawyer	-10.8729
ud	-10.873
▁informative	-10.873
▁गाह्रो	-10.874
▁ok	-10.8741
▁Steve	-10.8743
▁figured	-10.8743
▁हिमाल	-10.8744
▁lying	-10.8746
how	-10.8753
▁पुगे	-10.8757
▁बोल	-10.8757
▁तपाईंले	-10.876
fa	-10.8766
▁locations	-10.8767
▁Three	-10.8768
▁नारायण	-10.8769
▁Joe	-10.8771
▁पदाधिकारी	-10.8773
▁thin	-10.8775
hu	-10.8779
▁establish	-10.8781
▁sand	-10.8784
नको	-10.8785
ाय	-10.8786
ries	-10.8786
▁भेला	-10.8788
▁विज्ञापनका	-10.8791
▁routine	-10.8795
दिन	-10.8795
▁बाहेक	-10.8796
▁installation	-10.8796
▁excuse	-10.8797
फोटो	-10.8798
▁डेढ	-10.88
▁जीवनमा	-10.8802
▁टाइप	-10.8802
▁Ko	-10.8812
स्त	-10.8812
▁Dan	-10.8814
▁boost	-10.8818
▁mini	-10.8821
▁त्यस्ता	-10.8826
▁bookmarks	-10.8826
▁differences	-10.883
▁हुनसक्छ	-10.8832
▁warning	-10.8836
ताको	-10.8836
▁Community	-10.884
▁समुदायको	-10.8842
▁butter	-10.8845
sis	-10.8848
▁industrial	-10.8849
▁भरतपुर	-10.8852
▁धनगढी	-10.8853
▁Lu	-10.8856
▁apps	-10.8857
▁संस्थाको	-10.886
▁ha	-10.8861
▁implementation	-10.8862
▁जाँदै	-10.8867
चा	-10.887
▁amounts	-10.8871
▁goods	-10.8871
▁weak	-10.8871
▁थाले	-10.8872
▁contest	-10.8874
▁सम्बन्धि	-10.8878
▁whilst	-10.8879
हु	-10.888
▁तयारीमा	-10.8882
▁चौधरी	-10.8884
▁Live	-10.8884
▁nervous	-10.8884
▁आनन्द	-10.8884
▁positions	-10.8885
▁meals	-10.8885
▁injuries	-10.8887
▁वस्तु	-10.8889
▁32	-10.8895
ab	-10.8895
बीचको	-10.8897
▁survive	-10.8898
▁हल	-10.8899
ker	-10.8901
▁membership	-10.8902
▁choosing	-10.8903
LE	-10.8906
▁recognized	-10.8908
▁सँग	-10.8908
hand	-10.8914
▁universe	-10.8915
▁Team	-10.8917
▁causing	-10.8925
▁loans	-10.8928
एन	-10.893
point	-10.8932
▁operate	-10.8935
▁संस्थाले	-10.8935
▁आधुनिक	-10.8935
▁proven	-10.8937
ङ्	-10.8938
▁संसदमा	-10.8944
▁row	-10.8944
▁army	-10.8946
▁cloud	-10.8946
▁राज्यको	-10.8946
▁तपाईंलाई	-10.8951
▁अव	-10.8951
▁Want	-10.8952
▁recorded	-10.8959
▁Sa	-10.896
▁चोरी	-10.8964
▁बढ	-10.8967
▁clothing	-10.8968
छु	-10.8969
▁Indian	-10.8969
▁चाहिँ	-10.8971
▁जलविद्युत्	-10.8972
▁बिदा	-10.8981
▁input	-10.8981
ging	-10.8984
▁स्	-10.8986
जस्तै	-10.8989
▁की	-10.8992
ेन्द्र	-10.8992
▁राखेका	-10.8992
uring	-10.8998
▁flying	-10.9001
▁Wi	-10.9007
▁जोखिम	-10.9011
▁!!	-10.9013
▁entertainment	-10.9015
▁Its	-10.9018
▁breaking	-10.9024
▁चु	-10.9025
▁संकेत	-10.9027
▁ultimately	-10.9029
▁Students	-10.9031
▁Report	-10.9035
▁chances	-10.9036
▁naturally	-10.9037
bs	-10.9042
▁trained	-10.9049
▁fourth	-10.9051
▁joke	-10.9051
▁applicable	-10.9052
हरुका	-10.9052
▁Journal	-10.9054
▁colour	-10.9055
▁neighborhood	-10.9056
▁$5	-10.9058
ford	-10.9061
▁plane	-10.9064
▁गुणस्तर	-10.9067
16	-10.9067
▁tall	-10.9074
▁है	-10.9075
▁Western	-10.9077
▁खुल्ला	-10.9078
▁एकजना	-10.908
▁attorney	-10.908
सिंह	-10.9084
कारी	-10.9086
▁जेष्ठ	-10.9088
▁जागिर	-10.909
▁permanent	-10.9091
▁हवाई	-10.9092
▁heading	-10.9095
ical	-10.9096
▁बस्नेत	-10.9101
▁nose	-10.9102
▁ongoing	-10.9104
▁plot	-10.9107
▁latter	-10.9108
kin	-10.9109
▁pure	-10.9112
▁किनभने	-10.9115
प्रधानमन्त्री	-10.9115
bi	-10.9117
▁behalf	-10.9117
▁सहयोगमा	-10.9119
▁conducted	-10.912
▁दबाब	-10.912
▁gear	-10.9125
▁improving	-10.9127
▁फि	-10.9127
▁Chris	-10.9128
▁drawn	-10.9131
▁correctly	-10.9131
▁reflect	-10.9133
▁विधि	-10.9136
▁खा	-10.9144
▁Sea	-10.9146
gen	-10.9149
▁engagement	-10.9149
▁deserve	-10.9152
▁wishes	-10.9153
▁रा	-10.9153
▁मिनेटमा	-10.9156
▁wise	-10.9157
▁log	-10.9157
▁trail	-10.9157
▁आगो	-10.9158
▁fundamental	-10.9162
▁पसल	-10.9164
75	-10.9174
▁मैदानमा	-10.9181
ps	-10.9182
▁Lake	-10.9183
▁mistakes	-10.9185
▁रेकर्ड	-10.9193
▁remained	-10.9193
▁difficulty	-10.9195
▁Bi	-10.9198
▁emails	-10.9198
▁पुगेर	-10.9199
▁बसेका	-10.9202
▁guidelines	-10.9202
▁lol	-10.9208
▁समुदाय	-10.9209
▁Pa	-10.9212
▁expand	-10.9213
▁टि	-10.9213
▁देखिएका	-10.9216
▁laughed	-10.9217
▁outstanding	-10.9218
वाद	-10.9222
▁shipping	-10.9222
▁बहुमत	-10.9222
law	-10.9223
▁राजेन्द्र	-10.9223
▁Ne	-10.9226
▁किसान	-10.9227
▁एम	-10.9228
▁Pe	-10.9228
▁damn	-10.923
▁absolute	-10.9231
▁देख्न	-10.9233
▁relation	-10.9233
▁limits	-10.9234
▁Bay	-10.9235
▁चिकित्सा	-10.9236
▁sleeping	-10.9239
▁Ga	-10.9239
▁hosting	-10.9242
form	-10.9242
▁furniture	-10.9244
▁chest	-10.9244
ification	-10.9247
बाहेक	-10.9249
याउने	-10.9255
▁पीडा	-10.9256
▁Using	-10.9256
११	-10.9257
fully	-10.9258
▁Su	-10.9258
▁colleagues	-10.9263
▁भत्ता	-10.9263
▁ignore	-10.9265
▁se	-10.9265
▁प्रवाह	-10.9265
IN	-10.9268
वी	-10.927
▁smooth	-10.9275
▁native	-10.9276
▁भन्सार	-10.9276
कोट	-10.9277
▁दिवसको	-10.9277
▁River	-10.9281
▁granted	-10.9286
▁cap	-10.9291
▁repeat	-10.9294
▁enhance	-10.9297
▁निवेदन	-10.9298
▁Article	-10.9301
टो	-10.9304
▁हे	-10.9307
▁port	-10.9309
▁मौका	-10.931
▁·	-10.9313
▁कोष	-10.9315
▁तुलनामा	-10.9317
था	-10.9317
▁बोल्दै	-10.9317
▁iPhone	-10.9318
▁महत्व	-10.9319
ny	-10.9322
▁Island	-10.9323
▁programme	-10.9326
▁डाउनलोड	-10.9331
▁अलि	-10.9331
▁covers	-10.9332
▁airport	-10.9333
▁जसमा	-10.9333
▁छनौट	-10.9333
▁inches	-10.9334
▁सके	-10.9335
▁database	-10.9336
▁upcoming	-10.9339
▁electric	-10.9342
▁सदस्यीय	-10.9342
▁iron	-10.9346
त्व	-10.9349
▁देखिने	-10.9349
▁scheduled	-10.9356
▁मार्ग	-10.9359
▁Hotel	-10.9359
▁ancient	-10.9363
▁३६	-10.9363
▁grant	-10.9363
▁तरिका	-10.9367
▁tech	-10.9369
▁di	-10.9369
▁shame	-10.937
▁yellow	-10.9371
▁depression	-10.9371
ही	-10.9371
▁submitted	-10.9372
▁अर्थात	-10.9372
▁organized	-10.9374
▁Sir	-10.9375
▁जिम्मेवार	-10.9378
▁signal	-10.9379
▁प्रसाद	-10.938
▁पर्दैन	-10.938
▁Review	-10.9389
▁capture	-10.939
▁attached	-10.939
35	-10.9395
▁दि	-10.9396
▁stronger	-10.9396
▁मासु	-10.9396
▁बनाए	-10.9397
▁channel	-10.9397
▁phase	-10.9401
▁employer	-10.9401
▁h	-10.9402
▁चिकित्सक	-10.9403
नमा	-10.9406
▁सालको	-10.9406
▁समृद्धिको	-10.941
▁हा	-10.9411
यर	-10.9412
▁proposal	-10.9412
▁succeed	-10.9413
▁कल	-10.9417
अघि	-10.9421
▁हर	-10.9421
।”	-10.9421
▁obtained	-10.9422
▁बताउनुभएको	-10.9427
▁mad	-10.9433
▁authors	-10.9433
▁दाङ	-10.9433
ual	-10.9435
▁entitled	-10.9437
▁तपाईँको	-10.944
▁विविध	-10.9441
▁bridge	-10.9442
▁Mother	-10.9442
▁चलाउन	-10.9442
▁Mom	-10.9443
▁reduction	-10.9443
▁Japanese	-10.9445
▁अधिवेशन	-10.9445
▁Policy	-10.9445
▁sake	-10.9448
▁भट्टराईले	-10.9454
▁league	-10.9456
▁solar	-10.9457
▁जसको	-10.9459
▁Enjoy	-10.9463
▁मन्त्रालयको	-10.9463
वाट	-10.9464
सम्मको	-10.9464
▁तस्बिर	-10.9465
▁hanging	-10.9468
▁magazine	-10.9469
▁Harry	-10.947
▁successfully	-10.9473
▁Start	-10.9474
▁समृद्ध	-10.9477
▁समानुपातिक	-10.9478
ाउँदा	-10.9479
▁Master	-10.948
▁गण्डकी	-10.9483
▁Paris	-10.9484
िंग	-10.9484
▁गोरखा	-10.9488
▁deeply	-10.9489
▁Du	-10.9491
▁शक्तिशाली	-10.9492
▁confused	-10.9492
▁mixed	-10.9493
▁appreciated	-10.9494
▁रुचि	-10.9498
▁lips	-10.9502
▁Senate	-10.9503
wood	-10.9505
ja	-10.9505
▁eligible	-10.9506
▁lately	-10.9508
▁माध्यम	-10.9508
▁आचार्य	-10.9512
▁headed	-10.9513
▁खेल्न	-10.9514
▁healthcare	-10.9521
qui	-10.9522
▁breast	-10.9523
they	-10.9524
▁forest	-10.9525
▁विज्ञापनको	-10.9525
▁fuck	-10.9528
▁border	-10.9528
▁Special	-10.9531
ure	-10.9535
▁यात्रु	-10.9537
▁ocean	-10.9539
▁सेवन	-10.9539
▁estimated	-10.954
▁Too	-10.9543
▁recipes	-10.9543
▁acts	-10.9544
▁महाधिवेशन	-10.9544
▁1)	-10.9545
▁outdoor	-10.9548
lan	-10.9549
▁honestly	-10.955
▁Instagram	-10.9555
▁Design	-10.9557
▁आजदेखि	-10.9561
▁Chicago	-10.9562
एमाले	-10.9566
11	-10.9573
▁outcome	-10.9575
▁करोडको	-10.9579
Now	-10.958
▁county	-10.958
▁telephone	-10.9581
▁lift	-10.9584
▁owned	-10.9587
▁researchers	-10.959
▁engineering	-10.9591
▁वर्षसम्म	-10.9594
▁zero	-10.9596
▁promised	-10.9598
▁Actually	-10.96
who	-10.9601
▁हट	-10.9604
७५	-10.9606
14	-10.9606
▁उपस्थिति	-10.9608
▁painting	-10.9608
▁holidays	-10.9609
▁मङ्सिर	-10.961
शि	-10.9611
▁ads	-10.9614
01	-10.9615
▁finance	-10.9616
१५	-10.9616
▁priority	-10.9616
▁Dec	-10.9617
▁technique	-10.9618
▁height	-10.9619
▁मानसिक	-10.962
▁provisions	-10.9622
▁ठीक	-10.9624
▁judgment	-10.9626
mi	-10.9628
▁गन्तव्य	-10.9631
▁Institute	-10.9637
▁studying	-10.9638
्ग	-10.9638
▁Program	-10.9639
▁extensive	-10.964
▁नियुक्ति	-10.9641
22	-10.9647
▁dates	-10.9647
▁Insurance	-10.9647
▁originally	-10.9649
▁organic	-10.965
▁महिलाले	-10.9651
▁संविधानको	-10.9652
▁प्रतिशतले	-10.9658
▁पर्याप्त	-10.966
▁coat	-10.9661
art	-10.9661
▁dollar	-10.9662
▁rising	-10.9663
cing	-10.9663
▁उपेन्द्र	-10.9664
न्द	-10.967
▁तोकिएको	-10.967
▁Global	-10.9671
▁expressed	-10.9673
▁2)	-10.9673
▁चन्द्र	-10.9676
▁बस्ती	-10.9677
18	-10.9678
ator	-10.9679
▁patterns	-10.9679
ार	-10.9681
fe	-10.9681
▁objects	-10.9683
▁bird	-10.9683
▁supplies	-10.9688
▁Sure	-10.9693
▁giant	-10.9696
▁holds	-10.9697
▁Dis	-10.9697
▁रहे	-10.9702
▁2018.	-10.9704
▁रिपोर्ट	-10.9705
▁draft	-10.9705
é	-10.9705
▁Place	-10.9706
▁आएपछि	-10.9707
ray	-10.9708
▁उपयोग	-10.971
▁resort	-10.9711
▁पुनर्निर्माण	-10.9712
▁व्यवस्थित	-10.9713
?!	-10.9714
▁bath	-10.9715
▁नाटक	-10.9715
▁Ask	-10.9715
▁केन्द्रको	-10.9721
▁argue	-10.9725
▁जनाले	-10.9726
▁बंगलादेश	-10.9727
▁fabric	-10.9728
▁reform	-10.9729
▁पुराना	-10.973
▁retail	-10.973
हर	-10.9735
▁Page	-10.9735
▁increasingly	-10.9736
▁pregnant	-10.9737
▁forgotten	-10.9738
▁cookies	-10.9738
▁shares	-10.9746
▁जान्छ	-10.9753
▁बने	-10.9753
▁CO	-10.9757
▁अर्का	-10.9757
▁Holy	-10.9758
▁गु	-10.9758
▁Ni	-10.9758
गु	-10.9761
▁प्रधानमन्त्रीले	-10.9764
▁depend	-10.9765
▁continuing	-10.9767
▁देशभर	-10.9768
▁राजस्व	-10.977
▁खर्ब	-10.9772
▁उनीहरूको	-10.9773
सम्पादन	-10.9773
▁achieved	-10.9773
▁Know	-10.9773
▁रमेश	-10.9774
▁एकीकरण	-10.9777
▁लक्ष्मी	-10.9778
▁Mexico	-10.9779
▁लेख्ने	-10.9779
▁accessible	-10.978
▁भाइ	-10.9782
▁निर्माता	-10.9788
▁खोज	-10.979
▁launched	-10.979
▁silver	-10.9791
▁sauce	-10.9792
▁कित्ता	-10.9795
sy	-10.9802
▁attractive	-10.9803
▁घिमिरे	-10.9804
▁सहायक	-10.9805
ेज	-10.9809
▁YouTube	-10.981
▁ब्लग	-10.981
▁नक्कली	-10.9815
▁commission	-10.9815
▁System	-10.9816
▁उद्देश्यले	-10.9822
▁उनीहरुलाई	-10.9823
▁सिट	-10.9826
▁वर्षका	-10.9828
▁sum	-10.9832
▁clock	-10.9832
▁औ	-10.9834
▁stream	-10.9836
▁micro	-10.9836
▁समयदेखि	-10.9838
▁components	-10.9838
▁subjects	-10.9839
▁Middle	-10.9841
िस	-10.9841
▁सरल	-10.9842
▁juice	-10.9846
▁formal	-10.9846
▁claimed	-10.9848
head	-10.9848
▁नरेन्द्र	-10.9849
▁आपूर्ति	-10.9851
▁लाइन	-10.9853
▁crucial	-10.9853
▁न्यायाधीश	-10.9855
▁मानिसको	-10.9857
ai	-10.9857
▁हिसाबले	-10.9858
▁shots	-10.9858
▁suggests	-10.9859
▁enforcement	-10.9859
▁साह	-10.986
▁introduce	-10.9862
ढ	-10.9862
▁असफल	-10.9865
▁mainly	-10.9867
▁थोरै	-10.9867
▁retirement	-10.9867
▁तर्क	-10.9869
▁provision	-10.9869
▁Always	-10.9871
▁dining	-10.9875
▁bio	-10.9875
▁prayer	-10.9879
▁thick	-10.9879
▁तर्फ	-10.9881
▁धनी	-10.9882
SE	-10.9887
▁Jan	-10.9887
▁शो	-10.9889
▁impression	-10.9889
▁Step	-10.9895
१२	-10.9898
▁मेगावाट	-10.99
▁संसद्	-10.9901
ments	-10.9901
#	-10.9904
ायो	-10.9907
mar	-10.9907
▁कार्ड	-10.9909
ुभयो	-10.9909
▁कदम	-10.9911
▁driven	-10.9916
▁कसैलाई	-10.9916
▁plate	-10.9916
▁Richard	-10.9917
▁powers	-10.9917
▁«	-10.9923
▁replaced	-10.9924
▁8.	-10.9931
▁Brown	-10.9931
▁राजनीतिमा	-10.9931
▁transportation	-10.9931
▁landscape	-10.9933
▁Fire	-10.9934
▁thinks	-10.9937
▁craft	-10.9939
▁दावी	-10.9939
▁बमोजिम	-10.9939
▁शीर्षकहरु	-10.9941
▁कामको	-10.9941
▁Light	-10.9943
▁सकिएको	-10.9946
फा	-10.9948
आइ	-10.9948
▁exists	-10.9948
▁relating	-10.9948
▁behaviour	-10.9951
पो	-10.9952
Fi	-10.9955
▁sing	-10.9957
▁finger	-10.9957
▁sudden	-10.9963
hour	-10.9966
▁Posted	-10.9966
▁चिया	-10.9972
▁नभएर	-10.9973
▁दुरुपयोग	-10.9973
▁remote	-10.9973
ाए	-10.9974
▁केन्द्रले	-10.9975
▁Russian	-10.9975
▁नदी	-10.9983
▁qualified	-10.9984
▁पाइएको	-10.9985
वे	-10.9985
▁y	-10.9988
▁तथ्यांक	-10.9989
भारत	-10.9989
▁encouraged	-10.999
▁collected	-10.999
▁Iraq	-10.9991
▁strongly	-10.9991
▁surrounding	-10.9994
▁जु	-10.9995
▁District	-10.9998
▁सुर्खेत	-11
▁potentially	-11.0001
php	-11.0002
▁लिंक	-11.0004
▁सुरुवात	-11.0005
▁scientists	-11.0005
▁आय	-11.0006
▁व्यक्तिले	-11.0007
▁traveling	-11.0007
▁tape	-11.0009
▁Queen	-11.0011
▁destination	-11.0011
▁बीचमा	-11.0012
▁confirmed	-11.0013
OR	-11.0015
▁मामिला	-11.0015
▁narrow	-11.0019
▁सहर	-11.002
▁faces	-11.0024
▁suffered	-11.0028
▁relax	-11.0029
▁तिर	-11.003
row	-11.0031
▁regret	-11.0037
▁शेर्पा	-11.0041
▁आउनु	-11.0042
	-11.0042
ren	-11.0043
▁bags	-11.0043
▁भएमा	-11.0044
वन	-11.0046
▁मधेशी	-11.0048
▁winner	-11.0048
▁barely	-11.0049
▁१००	-11.0052
▁edition	-11.0056
▁objective	-11.0061
▁राप्रपा	-11.0062
▁personality	-11.0065
▁monitor	-11.0068
▁carbon	-11.0068
▁intelligent	-11.0069
▁फूल	-11.0069
▁सिद्धान्त	-11.007
▁filed	-11.007
▁destroy	-11.0073
▁clinical	-11.0076
▁चि	-11.0078
tri	-11.0078
▁Thus	-11.0081
▁confirm	-11.0086
▁Canadian	-11.0086
▁specified	-11.009
oo	-11.009
▁टाढा	-11.0092
▁विजेता	-11.0095
▁भुक्तानी	-11.0098
▁संसार	-11.01
▁पछाडि	-11.0101
▁नेताहरु	-11.0103
▁returns	-11.0108
▁ठगी	-11.0109
▁गायिका	-11.0122
▁yard	-11.0125
▁era	-11.0128
एल	-11.0128
▁ladies	-11.0129
▁विधान	-11.013
▁shook	-11.0131
za	-11.0136
▁सूची	-11.0137
प्रा	-11.0138
▁emotions	-11.0139
▁३८	-11.014
ified	-11.014
▁beneficial	-11.0141
ture	-11.0144
▁films	-11.0146
▁strike	-11.0147
याउन	-11.0148
▁भेटघाट	-11.0149
▁heaven	-11.0155
ीमा	-11.0156
▁anger	-11.0157
▁ढंगले	-11.0159
▁Se	-11.0162
▁sharp	-11.0162
▁pushed	-11.0163
▁वर्षे	-11.0163
▁कर्मचारीको	-11.0164
▁bother	-11.0165
दे	-11.0165
RE	-11.0166
▁moon	-11.017
▁(2	-11.017
▁महिलालाई	-11.017
▁300	-11.0171
▁exception	-11.0172
▁bills	-11.0177
▁Tri	-11.0179
▁criteria	-11.0179
▁पर्दछ	-11.0182
▁struck	-11.0186
▁Road	-11.0186
▁deck	-11.0186
▁Society	-11.0196
▁नदिने	-11.0198
▁pride	-11.0199
ball	-11.0199
▁सगरमाथा	-11.02
si	-11.0205
▁६५	-11.0207
▁App	-11.0209
▁institution	-11.0209
▁elected	-11.0211
▁Continue	-11.0211
▁Sp	-11.0212
▁Something	-11.0213
lar	-11.0216
▁Smith	-11.0219
▁ज्ञानेन्द्र	-11.0223
लु	-11.0223
ple	-11.0224
▁coast	-11.0228
▁देखाएको	-11.0229
▁stomach	-11.0232
युक्त	-11.0234
▁tested	-11.0236
▁अलग	-11.024
रासस	-11.024
ever	-11.0241
27	-11.0244
▁Republican	-11.0247
▁rarely	-11.0247
▁बढ्दो	-11.025
▁west	-11.0251
▁delay	-11.0251
▁mg	-11.0253
▁childhood	-11.0257
टे	-11.0262
▁2,	-11.0264
▁अथवा	-11.0266
ass	-11.0267
02	-11.0269
eg	-11.0273
बु	-11.0275
ph	-11.0276
ned	-11.0277
▁desired	-11.0279
▁बचत	-11.0279
▁Rock	-11.0282
▁acid	-11.0283
▁calendar	-11.0285
▁muscle	-11.0286
▁नारा	-11.0286
▁efficiency	-11.0287
-3	-11.0287
▁attract	-11.0288
▁wisdom	-11.029
▁कार्यालयको	-11.0291
▁replacement	-11.0293
▁योग	-11.0294
▁sustainable	-11.0299
▁nearby	-11.0301
▁Catholic	-11.0301
▁ग्रहण	-11.0304
▁evaluation	-11.0305
nic	-11.0306
ुहुन्छ	-11.0307
▁mile	-11.0311
pre	-11.0311
AM	-11.0312
▁networks	-11.0312
▁campus	-11.0313
▁Bob	-11.0315
br	-11.0317
▁फिल्ममा	-11.0319
▁View	-11.032
▁बोर्ड	-11.0325
▁Contact	-11.0326
▁OR	-11.0328
▁गल्ती	-11.0332
box	-11.0332
▁पठाउन	-11.0334
▁अबको	-11.0336
wi	-11.0338
▁managing	-11.0342
▁soldiers	-11.0343
▁domain	-11.0346
▁increases	-11.0346
▁रक्षा	-11.0346
▁फल	-11.0347
▁सुन्न	-11.0348
gi	-11.0349
▁birds	-11.0351
23	-11.0351
▁struggling	-11.0351
▁उठ	-11.0352
▁fucking	-11.0353
▁लुम्बिनी	-11.0354
▁लागिएको	-11.0356
▁संघीयता	-11.0359
▁मुक्त	-11.0359
▁कुराहरु	-11.0365
▁मि	-11.0366
▁declared	-11.0367
▁fitness	-11.0368
ens	-11.0372
ेश्वर	-11.0376
▁स्थगित	-11.0377
▁बस्दै	-11.0378
▁विश्वविद्यालय	-11.0381
▁गाविस	-11.0383
ेड	-11.0383
are	-11.0383
Let	-11.0385
▁भारतका	-11.0389
▁जनजाति	-11.0389
▁brands	-11.0391
▁भन्यो	-11.0391
ामा	-11.0393
including	-11.0398
▁Watch	-11.0399
▁liquid	-11.04
▁नियमावली	-11.0402
▁जी	-11.0403
ाउँछ	-11.0405
▁ढकाल	-11.0405
▁अभियानमा	-11.0408
▁Land	-11.0416
▁रगत	-11.0423
sion	-11.0427
▁चा	-11.0427
level	-11.0428
▁root	-11.0431
▁innovation	-11.0431
03	-11.0433
▁regional	-11.0434
▁minds	-11.0436
▁देखियो	-11.0436
▁यसैगरी	-11.0436
▁hopes	-11.0437
▁arrival	-11.0437
▁adopted	-11.0437
▁healing	-11.0439
▁disagree	-11.0439
▁sensitive	-11.044
▁sc	-11.0441
▁formed	-11.0442
▁closing	-11.0443
jo	-11.0443
▁End	-11.0448
▁raising	-11.0448
▁split	-11.0449
▁]	-11.0449
▁newspaper	-11.0451
▁बेलायत	-11.0452
ations	-11.0453
▁ः	-11.0455
▁Play	-11.0455
▁न्यूज	-11.0457
▁पर्वत	-11.0457
▁देव	-11.0461
▁स्टार	-11.0466
▁dust	-11.0469
▁अा	-11.047
▁observed	-11.047
▁अन्तराष्ट्रिय	-11.0474
भी	-11.0475
▁प्रवद्र्धन	-11.0475
▁permit	-11.0475
▁ban	-11.0476
▁आर	-11.0478
▁forgot	-11.048
▁explains	-11.0481
▁zone	-11.0482
▁परिवारको	-11.0486
▁बुँदे	-11.0487
▁wheel	-11.0491
▁absence	-11.0492
▁grass	-11.0497
▁परम्परा	-11.0502
▁lifetime	-11.0503
▁convenient	-11.0504
▁innovative	-11.0504
ात्मक	-11.0507
▁admitted	-11.0508
uff	-11.0511
▁मासिक	-11.0513
▁shock	-11.0515
▁घटनामा	-11.0519
tin	-11.0521
▁Trust	-11.0523
▁fool	-11.0523
▁अंग	-11.0524
▁बताउनु	-11.0524
▁wave	-11.0526
▁कमेन्ट	-11.0535
▁उदाहरण	-11.0536
▁जय	-11.0544
▁समयमै	-11.0544
ंक	-11.0546
▁Fund	-11.0549
▁जसरी	-11.055
▁दशक	-11.0551
▁निरन्तरता	-11.0551
▁swimming	-11.0559
▁लोकप्रिय	-11.0559
new	-11.0562
▁जनाइएको	-11.0563
▁खेलको	-11.0564
▁sheet	-11.0565
ेसन	-11.0574
▁fabulous	-11.0577
class	-11.0578
▁asks	-11.058
▁elsewhere	-11.058
▁believes	-11.0581
▁ताजा	-11.0585
्रा	-11.0586
▁भनिन्छ	-11.0592
▁अनु	-11.0596
▁सफा	-11.0597
▁मौसम	-11.0597
▁babies	-11.0599
▁५१	-11.0601
▁sin	-11.0602
▁rely	-11.0602
▁धारा	-11.0602
water	-11.0603
17	-11.0605
▁Music	-11.0608
▁golf	-11.0611
even	-11.0614
ick	-11.0614
▁पठाउने	-11.0615
ff	-11.0618
▁कार्यक्रमका	-11.0619
LY	-11.0623
▁regards	-11.0625
making	-11.0627
29	-11.0628
▁jail	-11.0631
▁वेबसाइट	-11.0632
▁returning	-11.0632
▁मुटु	-11.0634
कल	-11.0637
▁मिल	-11.0639
▁एकताको	-11.0639
ties	-11.064
▁relative	-11.064
▁wash	-11.0641
▁पोखरेलले	-11.0641
▁दर्जन	-11.0641
▁समग्र	-11.0645
▁dish	-11.0646
▁convinced	-11.0647
AN	-11.0648
▁गीतमा	-11.0651
▁भाद्र	-11.0654
▁script	-11.0656
▁steel	-11.0657
▁CA	-11.0658
▁performing	-11.066
▁boss	-11.066
▁पाठ	-11.0663
▁communications	-11.0664
right	-11.0665
▁Technology	-11.0668
▁compensation	-11.0671
▁दर्शन	-11.0674
▁जोडी	-11.0678
▁Chapter	-11.068
▁examine	-11.0681
▁Ba	-11.0681
▁consultation	-11.0682
▁weekly	-11.0683
▁पढ	-11.0684
▁participation	-11.0685
▁chemical	-11.0688
▁गराएका	-11.0689
▁सेन्टर	-11.069
▁उपलब्धि	-11.0691
▁arts	-11.0693
▁ति	-11.0694
▁label	-11.0694
▁टुंगो	-11.0696
▁rough	-11.0699
▁unknown	-11.07
▁requirement	-11.07
ष्	-11.0707
▁categories	-11.071
▁burn	-11.0712
▁drinks	-11.0714
▁organisation	-11.0716
▁pregnancy	-11.0717
▁protein	-11.0719
▁विमानस्थलमा	-11.072
▁requests	-11.0723
▁recording	-11.0723
क्क	-11.0724
▁machines	-11.0724
there	-11.0726
▁स्वीकृति	-11.0726
▁भर्खरै	-11.0727
न्ड	-11.0732
▁rear	-11.0733
▁dying	-11.0734
०७३	-11.0735
▁उसलाई	-11.0736
▁Blog	-11.0736
▁encounter	-11.0738
▁fishing	-11.0741
▁भविष्य	-11.0743
▁यहाँको	-11.0743
▁अंश	-11.0744
▁मल	-11.0744
▁Beach	-11.0746
▁unusual	-11.0747
▁नष्ट	-11.0748
▁Australian	-11.0748
▁(1	-11.0749
▁आयोगका	-11.075
▁चिसो	-11.0751
▁preparing	-11.0751
▁relations	-11.0752
▁talks	-11.0756
▁visible	-11.0756
▁boxes	-11.0757
▁नव	-11.0759
▁हतियार	-11.076
rate	-11.0761
▁advise	-11.0762
▁Mc	-11.0764
▁रात	-11.0764
▁पाण्डे	-11.0765
▁attended	-11.0766
▁सचेत	-11.0766
▁LOVE	-11.0767
▁मतगणना	-11.0767
▁मोडल	-11.0767
▁अभिनेता	-11.077
िङ्ग	-11.0771
ii	-11.0772
▁व्यक्तिलाई	-11.0772
▁ट्वीटर	-11.0773
▁रहेर	-11.0775
▁experiment	-11.0775
▁संवैधानिक	-11.0775
▁riding	-11.0775
▁काठमाडौंको	-11.0777
▁निकट	-11.0777
▁युद्ध	-11.0778
▁nations	-11.0779
04	-11.0785
▁३७	-11.0785
▁deeper	-11.0786
26	-11.0787
▁vi	-11.0788
▁picking	-11.0789
▁परिवारका	-11.079
▁भट्ट	-11.0793
र्ट	-11.0794
▁Angeles	-11.0794
▁आफैं	-11.0796
▁इन्	-11.0796
▁precious	-11.0796
ँदै	-11.0797
▁Share	-11.0798
▁equivalent	-11.08
▁दियो	-11.08
some	-11.0801
▁आव	-11.0803
▁PS	-11.0805
नले	-11.0805
▁विष्णु	-11.0811
▁ID	-11.0813
▁largely	-11.0815
▁gym	-11.0819
▁involves	-11.082
▁अख्तियार	-11.0821
long	-11.0822
isation	-11.0822
cent	-11.0826
▁निर्वाह	-11.0829
▁Spirit	-11.0829
▁चन्द	-11.0831
▁पे	-11.0833
▁हटाउन	-11.0836
RA	-11.0837
▁managers	-11.0844
CA	-11.0845
▁आत्महत्या	-11.0845
▁deposit	-11.0846
▁east	-11.0848
▁Dad	-11.0849
31	-11.0851
▁2007	-11.0851
▁Set	-11.0852
▁bug	-11.0852
▁म्याग्दी	-11.0853
▁आफै	-11.0856
▁इन	-11.0858
▁अनुहार	-11.0859
▁मोदी	-11.0862
▁password	-11.0864
ice	-11.0864
▁तहका	-11.0864
▁joint	-11.0865
▁Ah	-11.0866
▁inner	-11.0867
▁बनाइएको	-11.0868
▁Head	-11.0868
▁Pi	-11.0869
ming	-11.0869
▁contribution	-11.087
▁प्रावधान	-11.087
▁स्वीकृत	-11.0874
▁उमेरमा	-11.0877
▁तालिका	-11.0879
▁बिभिन्न	-11.0882
▁settle	-11.0882
▁कार्यपालिकाको	-11.0882
▁widely	-11.0884
▁लाखको	-11.0885
▁वर्षभित्र	-11.0888
▁हुनेछन्	-11.089
▁Foundation	-11.0894
▁principle	-11.0894
▁गुरुङले	-11.0899
▁ears	-11.0902
▁Nice	-11.0903
▁२०१६	-11.0905
▁exposed	-11.0908
▁शिखर	-11.0909
▁liability	-11.0909
ct	-11.0911
▁shops	-11.0914
▁३४	-11.0914
▁reaching	-11.0919
▁अभिभावक	-11.0919
▁ट्रक	-11.092
▁duties	-11.0922
▁loose	-11.0923
▁अन	-11.0923
▁entrance	-11.0924
▁घटनाको	-11.0925
▁Grand	-11.0927
▁Stay	-11.093
▁खोजेको	-11.0931
▁राजधानीमा	-11.0933
▁Che	-11.0937
▁48	-11.0938
ong	-11.0943
▁लु	-11.0945
▁द्वन्द्व	-11.0947
ants	-11.0948
▁depth	-11.095
दर	-11.0951
▁equally	-11.0954
▁Asia	-11.0954
▁एण्ड	-11.0956
गर	-11.0958
▁injured	-11.0959
▁preparation	-11.0962
▁यसबाट	-11.0967
▁प्रधानन्यायाधीश	-11.0967
▁रेखा	-11.0967
▁हेरिएको	-11.0974
ily	-11.0975
▁Britain	-11.0976
ory	-11.0978
▁पारेर	-11.0978
बल	-11.098
न्ट	-11.0983
▁settled	-11.0983
▁vary	-11.0984
▁satisfaction	-11.0984
▁ordinary	-11.0985
▁विश्वका	-11.0989
▁Anyone	-11.0989
uck	-11.099
▁समायोजन	-11.099
▁Comment	-11.0991
▁bonus	-11.0991
▁passionate	-11.0991
ran	-11.0993
▁Martin	-11.0996
्नुपर्ने	-11.0999
▁सलमान	-11.1
▁प्रारम्भिक	-11.1001
▁compliance	-11.1002
▁संघले	-11.1002
▁मोरङ	-11.1003
mit	-11.1005
▁४२	-11.1006
▁नागरिकको	-11.1008
▁awful	-11.1008
▁gap	-11.101
रिया	-11.1011
▁trends	-11.1013
▁सुख	-11.1013
▁दुख	-11.1014
▁framework	-11.1016
▁principal	-11.1018
▁arrested	-11.1019
▁commit	-11.1022
▁diverse	-11.1022
▁combat	-11.1022
▁opposed	-11.1027
▁//	-11.1028
▁उपमहानगरपालिका	-11.1029
▁Wall	-11.103
▁सर्वाधिक	-11.1032
▁eggs	-11.1034
▁consumption	-11.1034
▁kit	-11.1034
▁Spanish	-11.1035
▁weapon	-11.1036
▁चीनले	-11.1038
▁Gra	-11.1041
▁Support	-11.1043
▁designs	-11.1044
▁स्थल	-11.1046
▁instant	-11.1047
▁Scott	-11.1052
▁thirty	-11.1058
▁nights	-11.1059
मेन्ट	-11.106
▁addressed	-11.1061
▁#1	-11.1062
99	-11.1065
95	-11.1068
▁युनियन	-11.107
▁laptop	-11.1071
▁urban	-11.1071
▁habit	-11.1072
▁introduction	-11.1073
▁disaster	-11.1074
▁अरब	-11.1076
दो	-11.1078
▁formula	-11.1079
▁raw	-11.1081
▁strategic	-11.1085
▁vegetables	-11.1085
नेपाली	-11.1092
▁upset	-11.1093
▁monitoring	-11.1094
▁worldwide	-11.1096
▁sp	-11.1096
▁Had	-11.1096
▁flu	-11.1096
▁नगरेको	-11.11
▁पुष्टि	-11.1101
▁Secretary	-11.1103
ising	-11.1106
▁circle	-11.1108
▁marked	-11.1108
SA	-11.1109
▁प्रतिनिधित्व	-11.1111
war	-11.1112
▁moves	-11.1114
▁उपरीक्षक	-11.1115
▁layer	-11.1116
od	-11.1116
▁गणेश	-11.112
▁छुट्टै	-11.112
▁विभागका	-11.1123
▁faced	-11.1124
ify	-11.1125
▁electricity	-11.1126
▁fallen	-11.1128
▁Besides	-11.1128
▁insight	-11.1129
▁नाका	-11.1132
▁refused	-11.1136
▁छोटो	-11.1137
▁booking	-11.1137
.1	-11.1137
▁Gu	-11.1139
▁garage	-11.1139
▁अञ्चल	-11.114
▁४१	-11.1144
▁diseases	-11.1147
▁समितिमा	-11.1148
▁कम्प्युटर	-11.1149
▁musical	-11.1151
▁व्यस्त	-11.1152
▁stopping	-11.1154
▁कार्यान्वयनमा	-11.1156
▁manufacturing	-11.1158
▁2017.	-11.1161
▁बो	-11.1163
▁शैली	-11.1163
▁दिन्छ	-11.1168
▁समुह	-11.1169
▁da	-11.1169
▁घरको	-11.1175
▁Ke	-11.1175
▁grace	-11.1177
ाएका	-11.1177
ung	-11.1178
▁क्याम्पस	-11.1179
▁thrown	-11.1179
▁sorts	-11.1179
▁disappointed	-11.1181
▁द्वारा	-11.1183
▁stable	-11.1184
करण	-11.1186
▁खाली	-11.119
▁सेनाको	-11.1191
▁shirt	-11.1191
▁par	-11.1192
▁prime	-11.1199
▁du	-11.1201
▁जडान	-11.1204
05	-11.1204
▁quit	-11.1205
▁नया	-11.1205
▁temporary	-11.1209
▁खोटाङ	-11.122
▁ya	-11.1222
▁peak	-11.1222
▁spa	-11.1224
▁hearts	-11.1224
▁जमिन	-11.1225
ेल	-11.1225
▁Through	-11.1228
▁requested	-11.123
▁सम्झ	-11.123
▁दूध	-11.1231
▁comply	-11.1236
▁छौ	-11.1236
▁गुल्मी	-11.1236
▁संस्थागत	-11.1237
▁रह्यो	-11.1239
IT	-11.124
▁expecting	-11.124
▁horses	-11.1243
भित्रै	-11.1243
▁entering	-11.1244
▁प्रकारको	-11.1245
bble	-11.1247
▁premium	-11.1251
▁concepts	-11.1251
▁परिवारलाई	-11.1254
▁agenda	-11.1255
▁बैंकका	-11.1256
▁League	-11.1258
▁remarkable	-11.1258
▁लागु	-11.126
▁चलाउने	-11.1261
▁quotes	-11.1264
▁हुदै	-11.1264
वास	-11.1265
▁reducing	-11.1266
▁साथमा	-11.127
▁indicate	-11.1271
▁मानिन्छ	-11.1272
▁victory	-11.1273
▁Full	-11.1274
▁प्रशिक्षक	-11.1274
▁डिजिटल	-11.1275
▁भि	-11.1276
▁सकेका	-11.1278
▁Mi	-11.1279
▁कसैको	-11.128
▁workshop	-11.1282
▁$4	-11.1283
▁laughing	-11.1285
▁resist	-11.129
▁em	-11.1292
▁Justice	-11.1293
▁करीब	-11.1294
▁flexible	-11.1297
▁spoken	-11.1298
▁intention	-11.1305
▁Chief	-11.1307
▁मर्मत	-11.1308
▁smoking	-11.131
▁४४	-11.1312
stone	-11.1314
▁मदिरा	-11.1314
ay	-11.1316
▁Medical	-11.1318
▁झन्	-11.1319
▁कै	-11.1319
अब	-11.132
▁बोनस	-11.1321
▁wondered	-11.1321
▁remind	-11.1322
▁बलिउड	-11.1322
▁Doctor	-11.1324
▁स्वदेश	-11.1326
▁पाकिस्तान	-11.133
▁union	-11.1331
$	-11.1331
▁हकप्रद	-11.1335
▁गीतको	-11.1337
▁मन्त्रिपरिषद्	-11.1342
▁माथिल्लो	-11.1342
▁invite	-11.1343
▁गोपाल	-11.1344
▁अनलाईन	-11.1346
▁th	-11.1346
▁रमाइलो	-11.1348
▁बी	-11.1352
ip	-11.1354
ls	-11.1355
▁covering	-11.1356
▁एमालेको	-11.1358
ze	-11.1361
▁ON	-11.1362
हामी	-11.1362
▁निर्वाचनका	-11.1364
▁म्याद	-11.1365
▁36	-11.1365
▁Lee	-11.1365
▁दलले	-11.1371
▁नगरपालिकाका	-11.1371
▁घन्टा	-11.1372
▁दृश्य	-11.1374
▁स्वार्थ	-11.1375
▁नामक	-11.1377
▁देखा	-11.1377
ID	-11.1379
▁भु	-11.138
▁सुशासन	-11.1381
▁2003	-11.1383
▁poverty	-11.1384
▁यहि	-11.1384
▁शर्त	-11.1387
र्न	-11.1388
▁rapidly	-11.1388
▁extend	-11.1389
▁controlled	-11.139
▁hill	-11.139
MA	-11.1393
▁gained	-11.1393
▁मदन	-11.1396
▁massage	-11.1397
▁represents	-11.1397
००	-11.1402
▁50%	-11.1402
▁33	-11.141
▁पशु	-11.141
▁define	-11.1412
▁horrible	-11.1414
▁computers	-11.1414
ight	-11.1416
▁Much	-11.1418
▁dozen	-11.142
▁गरौं	-11.1424
बर	-11.1424
▁BBC	-11.1425
van	-11.1426
दार	-11.1426
▁ME	-11.1428
▁photography	-11.1428
▁::	-11.1428
▁destroyed	-11.1429
▁habits	-11.1433
▁बन्यो	-11.1433
▁धादिङ	-11.1438
▁Ten	-11.1442
▁earned	-11.1442
द्धारा	-11.1444
▁आफु	-11.1444
▁रो	-11.1445
▁9.	-11.1447
▁अन्नपूर्ण	-11.1448
▁प्राधिकरणले	-11.1448
▁सन्तान	-11.145
▁Video	-11.1452
▁स्थानिय	-11.1452
▁एनआरएन	-11.1452
▁Personal	-11.1455
स्व	-11.1456
▁refund	-11.1456
▁Young	-11.1457
▁सीमित	-11.1457
▁भन्छ	-11.1458
▁Night	-11.1461
▁drove	-11.1461
▁soil	-11.1464
▁applies	-11.1464
▁lock	-11.1465
▁माध्यमबाट	-11.1468
▁शरीर	-11.147
▁शारीरिक	-11.1473
▁Alex	-11.1473
▁कार्यमा	-11.1476
▁Har	-11.1477
chi	-11.1477
index	-11.1479
▁gather	-11.1481
▁burden	-11.1483
▁Frank	-11.1487
▁Change	-11.1489
▁primarily	-11.1489
▁नपाउने	-11.1492
▁जनशक्ति	-11.1493
▁खाद्य	-11.1496
▁roads	-11.1497
▁निर्यात	-11.1498
▁interface	-11.1498
-2	-11.15
▁shelter	-11.1507
▁पूर्वी	-11.1507
ag	-11.1507
▁रद्द	-11.1509
▁परराष्ट्र	-11.1511
▁cheaper	-11.1514
▁Rights	-11.1514
▁silent	-11.1515
post	-11.1515
▁कैद	-11.1522
32	-11.1523
▁proved	-11.1524
▁accomplish	-11.1526
▁उत्पन्न	-11.1526
▁लिखित	-11.1528
▁certificate	-11.153
▁झा	-11.1536
▁अवैध	-11.1536
ाको	-11.1538
▁output	-11.1538
▁प्रकरण	-11.1543
▁कमिटी	-11.1546
▁गाई	-11.1547
बार	-11.1547
धन	-11.155
▁अवरोध	-11.155
वान	-11.155
▁राज्यले	-11.1554
▁समाजको	-11.1557
▁guns	-11.1558
▁मनमा	-11.156
▁sooner	-11.1573
state	-11.1574
▁Tu	-11.1574
▁हित	-11.1574
▁हरु	-11.1574
▁resulting	-11.1575
▁अदालतको	-11.1575
▁decline	-11.1577
har	-11.1584
▁Fa	-11.1584
▁contrast	-11.1585
▁Sha	-11.1585
▁व्यापक	-11.1589
सन्	-11.159
▁joining	-11.1591
ose	-11.1592
▁ठहर	-11.1596
▁prize	-11.1596
▁चलचित्रमा	-11.1597
▁copies	-11.1599
▁Network	-11.1602
▁versions	-11.1602
▁overcome	-11.1604
▁mirror	-11.1606
▁Ireland	-11.1608
▁silly	-11.161
▁History	-11.1612
ino	-11.1614
▁voting	-11.1614
▁वैज्ञानिक	-11.1615
▁arrest	-11.1619
▁प्रयोगको	-11.162
▁journal	-11.1622
ाँ	-11.1622
▁Search	-11.1623
▁तेल	-11.1626
न्छ	-11.1628
▁bond	-11.1628
▁ca	-11.1629
▁Way	-11.1629
▁तारिख	-11.1631
▁जनसंख्या	-11.1631
▁सिटी	-11.1633
▁singing	-11.1633
▁बेलामा	-11.1636
▁oven	-11.1637
▁rating	-11.1637
▁सरुवा	-11.1639
called	-11.1639
▁annoying	-11.1642
▁सेनाले	-11.1642
ade	-11.1643
▁packed	-11.1643
▁CD	-11.165
▁सधैं	-11.165
१६	-11.165
ane	-11.165
ञ्ज	-11.1651
३०	-11.1652
▁crash	-11.1652
!!!!	-11.1653
घर	-11.1654
▁भाडा	-11.1656
▁पहाडी	-11.1657
▁सक	-11.1661
▁THAT	-11.1661
▁scared	-11.1662
▁examination	-11.1664
▁expense	-11.1664
▁टे	-11.1666
▁Manager	-11.1667
▁classroom	-11.1667
Me	-11.167
्थे	-11.1671
▁directed	-11.1671
▁publication	-11.1672
▁Ed	-11.1674
▁seats	-11.1675
▁अध्यक्षमा	-11.1676
▁नसक्दा	-11.168
▁minister	-11.1681
▁imp	-11.1682
▁stretch	-11.1682
▁THIS	-11.1682
▁राख्दै	-11.1683
▁applying	-11.1683
▁ता	-11.1686
▁मजदुर	-11.1687
▁drama	-11.1687
▁अवधि	-11.1688
ेक	-11.1689
▁Santa	-11.169
▁editor	-11.1691
मेल	-11.1692
▁चर्चामा	-11.1693
▁tons	-11.1693
▁उपत्यका	-11.1694
▁graduate	-11.1698
▁अध्यक्षतामा	-11.1698
▁तपाईले	-11.1699
▁falls	-11.1701
fer	-11.1709
▁मोर्चा	-11.171
▁ध्यानाकर्षण	-11.1711
▁pushing	-11.1711
▁workplace	-11.1711
▁edit	-11.1713
Yeah	-11.1715
ek	-11.1716
▁tap	-11.1716
हे	-11.1717
▁diabetes	-11.1718
▁fiction	-11.1719
▁Room	-11.1719
vin	-11.172
▁कवि	-11.172
▁कपडा	-11.1722
▁कप्तान	-11.1722
▁remembered	-11.1723
▁literature	-11.1723
▁स्मृति	-11.1724
▁defend	-11.1725
▁tank	-11.1727
▁चल	-11.1728
▁अतिरिक्त	-11.1728
▁spin	-11.1728
html	-11.1729
▁math	-11.1733
▁nodded	-11.1738
ाल	-11.1742
▁Android	-11.1742
▁scenes	-11.1743
▁बढाएको	-11.1744
▁burning	-11.1748
▁ट्रम्प	-11.1748
▁माधव	-11.175
▁इलाम	-11.1752
▁settlement	-11.1756
▁sizes	-11.1757
▁fascinating	-11.1758
▁phrase	-11.1761
▁Conference	-11.1761
▁फे	-11.1764
tter	-11.1764
▁scope	-11.1772
lic	-11.1773
▁स्मरण	-11.1774
▁stored	-11.1776
▁मिल्ने	-11.1776
▁exclusive	-11.1776
▁चरण	-11.1776
▁अत्यन्त	-11.1777
▁firms	-11.1778
प्रचण्ड	-11.1779
Just	-11.1779
▁involving	-11.178
▁pink	-11.1782
▁चालु	-11.1786
▁virtual	-11.1787
▁suicide	-11.1793
नेकपा	-11.1798
▁complaint	-11.18
▁तिहार	-11.1801
▁improvements	-11.1802
▁दोश्रो	-11.1802
des	-11.1803
view	-11.1803
??	-11.1806
▁Hopefully	-11.1806
...".	-11.1807
▁transaction	-11.1813
▁puts	-11.1814
▁cuts	-11.1818
▁beliefs	-11.182
▁intellectual	-11.182
-4	-11.1821
िँदै	-11.1822
▁झन्डै	-11.1823
▁भन	-11.1825
▁responses	-11.1825
▁flag	-11.1826
ach	-11.183
▁तस्करी	-11.183
▁Financial	-11.1832
▁Italian	-11.1832
▁थालेपछि	-11.1833
▁ग्यालरी	-11.1838
▁lit	-11.1839
▁हार्दिक	-11.184
month	-11.1841
▁Chi	-11.1843
ign	-11.1843
▁adds	-11.1844
date	-11.1844
ताका	-11.1845
▁तरिकाले	-11.1847
▁tag	-11.185
ups	-11.1858
▁महेन्द्र	-11.1859
â	-11.186
▁anniversary	-11.186
▁पहिलोपटक	-11.1861
▁contents	-11.1861
हरूका	-11.1865
▁क्षेत्रलाई	-11.187
▁औद्योगिक	-11.1871
▁अपडेट	-11.1872
▁४८	-11.1872
्यू	-11.1873
▁volunteers	-11.1874
▁Control	-11.1876
▁resolve	-11.1876
ेस	-11.1877
▁developers	-11.1877
Be	-11.1879
▁Army	-11.1879
night	-11.188
▁मधेश	-11.188
▁आकर्षण	-11.188
▁vs	-11.1882
Then	-11.1885
▁Game	-11.189
▁Centre	-11.1891
▁बरु	-11.1892
▁employers	-11.1892
known	-11.1892
▁पत्रकारिता	-11.1894
▁chronic	-11.1895
▁employed	-11.1896
▁hardware	-11.1896
▁substance	-11.1897
▁courage	-11.1897
ological	-11.1897
▁contained	-11.1901
ान	-11.1902
▁Ru	-11.1903
wa	-11.1903
▁Cat	-11.1904
▁सहितको	-11.1904
▁Heart	-11.1909
▁Ti	-11.191
▁प्रतिबन्ध	-11.1912
▁राईले	-11.1912
▁Someone	-11.1913
कर्मी	-11.1914
▁rice	-11.1915
▁dont	-11.192
▁प्रकारका	-11.1921
▁personnel	-11.1921
रमा	-11.1921
▁thoroughly	-11.1923
▁Th	-11.1925
▁झ	-11.1927
औँ	-11.1929
00	-11.1929
▁Ever	-11.193
▁logo	-11.193
▁locked	-11.1932
▁प्रवृत्ति	-11.1932
▁हातमा	-11.1939
▁Pay	-11.194
▁सक्नु	-11.1941
▁Press	-11.1941
▁सहायता	-11.1941
▁chart	-11.1942
▁अवलोकन	-11.1945
▁lo	-11.1946
▁manual	-11.1948
▁नगरपालिकाले	-11.1948
▁PR	-11.1948
▁phones	-11.1949
▁काँग्रेसका	-11.1949
्ड	-11.1951
▁संस्करण	-11.1951
gar	-11.1952
▁yards	-11.1955
quality	-11.1955
▁नजिकै	-11.1959
▁interior	-11.196
▁profession	-11.1965
▁Energy	-11.1967
▁fake	-11.1967
▁पढाइ	-11.1968
▁Royal	-11.197
▁Hard	-11.1972
ru	-11.1974
▁बिजुली	-11.1974
▁importantly	-11.1976
▁portfolio	-11.1978
▁फर्क	-11.198
▁Gold	-11.198
चो	-11.1982
▁Ok	-11.1983
,‘	-11.1985
▁पशुपति	-11.1985
▁representative	-11.1986
▁प्राधिकरण	-11.1986
▁दिनसम्म	-11.1987
▁ultimate	-11.1987
▁experiencing	-11.1988
ग्	-11.1988
app	-11.1988
▁maintaining	-11.1988
▁Matt	-11.199
▁बाबु	-11.1993
▁po	-11.1994
▁AT	-11.1997
▁spare	-11.1999
▁ski	-11.1999
▁नरहेको	-11.2
▁बर्षको	-11.2001
▁innocent	-11.2002
55	-11.2002
▁programming	-11.2002
Ma	-11.2003
28	-11.2005
▁शिक्षण	-11.2006
▁tradition	-11.2007
▁AS	-11.2008
▁crap	-11.2008
▁बताइन्	-11.201
▁बाध्यता	-11.2011
▁ट्रेलर	-11.2011
▁यद्यपि	-11.2013
▁sword	-11.2013
▁संग्रह	-11.2014
काल	-11.2015
▁medication	-11.2015
▁तनाव	-11.2015
▁नेप्से	-11.2015
▁partnership	-11.2016
▁bi	-11.2019
▁ग्यास	-11.2019
▁खोल	-11.2021
▁bars	-11.2022
▁component	-11.2023
part	-11.2024
ven	-11.2025
▁तीव्र	-11.2028
▁कर्मचारीलाई	-11.2028
▁scenario	-11.2028
▁possess	-11.2029
▁rush	-11.2033
▁refuse	-11.2035
▁थापाको	-11.2038
▁spouse	-11.2039
gy	-11.2041
▁recover	-11.2041
▁आदिवासी	-11.2043
▁printed	-11.2043
▁घाटा	-11.2044
▁अभि	-11.2048
ets	-11.2048
ल्ला	-11.2051
▁मकवानपुर	-11.2053
IC	-11.2054
▁attempts	-11.2056
▁सभाको	-11.2057
▁समूहले	-11.2059
▁Agreement	-11.206
▁अनेक	-11.206
जो	-11.2062
▁दीपक	-11.2062
▁10%	-11.2062
ear	-11.2064
�	-11.2064
चि	-11.2066
▁mu	-11.2066
ji	-11.2068
सभा	-11.2068
▁$10	-11.207
ठा	-11.2072
▁stepped	-11.2072
▁युरोप	-11.2072
▁reveal	-11.2074
▁फा	-11.2074
▁occurs	-11.2074
▁स्वतन्त्रता	-11.2074
त्त	-11.2075
▁glance	-11.2076
▁painful	-11.2077
36	-11.2079
▁Da	-11.2079
▁(4)	-11.208
▁Summer	-11.2083
▁attending	-11.2084
▁गरिन्	-11.2084
▁जितेको	-11.2084
▁अवरुद्ध	-11.2087
▁grasp	-11.2088
▁asleep	-11.2094
▁बालक	-11.2094
▁fraud	-11.2101
▁श्रावण	-11.2102
ue	-11.2103
▁handling	-11.2104
िज	-11.2104
▁purchasing	-11.2105
▁ताल	-11.2105
nes	-11.2106
▁worship	-11.2107
list	-11.2107
▁Digital	-11.211
low	-11.211
▁सूचीमा	-11.2111
▁intent	-11.2113
▁fewer	-11.2114
▁मात्रामा	-11.2115
▁कार्यविधि	-11.2115
▁waited	-11.212
▁rural	-11.2121
made	-11.2123
Read	-11.2123
▁focusing	-11.2123
▁na	-11.2123
▁Sign	-11.2123
▁essentially	-11.2125
िनु	-11.2126
▁बोकेर	-11.2126
▁industries	-11.2133
▁threw	-11.2135
▁0.	-11.2135
▁लैजान	-11.2136
▁मोहन	-11.2136
▁abilities	-11.2136
▁assault	-11.214
▁poll	-11.2142
▁फिल्मको	-11.2144
▁unfortunately	-11.2146
▁Ver	-11.2146
▁volunteer	-11.215
▁यहाँका	-11.2151
▁Captain	-11.2152
▁knee	-11.2152
▁governments	-11.2153
▁मृत	-11.2155
▁पहाड	-11.2157
▁preferred	-11.2161
▁demands	-11.2161
▁engaging	-11.2163
▁खोज्ने	-11.2168
▁पठाएको	-11.217
Can	-11.2173
▁differently	-11.2175
▁लागे	-11.2176
वार	-11.2176
▁अतिथि	-11.2179
▁अष्ट्रेलिया	-11.218
▁venture	-11.218
जर	-11.218
▁Spring	-11.2184
▁अनुसारको	-11.2184
▁dynamic	-11.2185
▁जोशी	-11.2188
▁अल	-11.2188
बासी	-11.219
▁announce	-11.219
▁सर्वाधिकार	-11.2191
▁involve	-11.2192
▁Thomas	-11.2192
▁2016.	-11.2193
▁पी	-11.2194
De	-11.2197
▁dressed	-11.2199
मेरो	-11.2201
▁Dean	-11.2203
▁stunning	-11.2205
▁residence	-11.2205
▁केवल	-11.2208
▁sought	-11.2208
▁RE	-11.2209
▁विषयलाई	-11.221
ric	-11.2211
▁index	-11.2213
town	-11.2214
▁layout	-11.2215
▁recognition	-11.2215
▁भेटवार्ता	-11.2215
▁Tax	-11.2216
▁pursue	-11.2216
cha	-11.2216
▁लागत	-11.2218
▁प्रियंका	-11.2218
शील	-11.2219
▁शाही	-11.2223
▁brothers	-11.2225
▁सकिनेछ	-11.2226
▁reminded	-11.2228
▁witness	-11.2228
▁semi	-11.223
▁पढ्नुहोस	-11.2231
air	-11.2234
▁disorder	-11.2236
▁trans	-11.2237
▁reminder	-11.2237
▁heavily	-11.2237
place	-11.2239
▁बिज्ञापन	-11.2239
▁treatments	-11.224
▁permitted	-11.224
load	-11.2241
▁abroad	-11.2241
▁Order	-11.2245
▁subsequent	-11.2249
▁बनाउनु	-11.2249
▁Francisco	-11.2251
[...].	-11.2251
▁ensuring	-11.2254
▁संस्थापक	-11.2256
100	-11.2259
▁exit	-11.2259
title	-11.226
▁periods	-11.226
▁reward	-11.2261
▁Whatever	-11.2264
▁खतिवडा	-11.2265
TA	-11.2267
▁लेख्न	-11.2267
▁Gar	-11.2271
▁य	-11.2272
▁Fair	-11.2272
▁blessed	-11.2274
44	-11.2275
▁lake	-11.2277
▁खासै	-11.2278
▁Four	-11.228
▁Nor	-11.2282
▁Gen	-11.2282
▁कतार	-11.2285
▁Marketing	-11.2285
▁gathering	-11.2286
▁सार	-11.2289
▁गित	-11.229
▁नुवाकोट	-11.229
▁powder	-11.2291
▁statistics	-11.2291
py	-11.2291
▁infection	-11.2292
▁followers	-11.2293
▁विगतमा	-11.2295
▁unlikely	-11.2295
▁Boston	-11.2297
▁physically	-11.2301
▁Max	-11.2301
Who	-11.2302
ेट	-11.2303
▁ट्रम्पले	-11.2303
▁Lady	-11.2303
▁नामावली	-11.2304
Con	-11.2304
▁टा	-11.2308
▁हेरेर	-11.2311
......	-11.2311
https	-11.2311
▁thankful	-11.2313
▁Travel	-11.2313
ov	-11.2314
-5	-11.2316
▁Clinton	-11.2317
▁Microsoft	-11.2317
▁फरार	-11.2319
▁enormous	-11.2319
▁नगर्न	-11.232
▁सामना	-11.2323
▁tongue	-11.2324
▁Ca	-11.2324
friendly	-11.2324
दु	-11.2327
▁माओवादीले	-11.233
▁एप	-11.2333
▁परामर्श	-11.2333
▁Executive	-11.2335
▁मुद्दामा	-11.2339
▁इलाका	-11.2342
▁नायक	-11.2344
▁mountains	-11.2346
▁हुनाले	-11.2347
▁ठेक्का	-11.2349
▁arguments	-11.235
▁extension	-11.2354
▁Meanwhile	-11.2354
चन्द्र	-11.2355
▁आवास	-11.2356
▁नेताहरुले	-11.2357
▁producing	-11.2357
top	-11.2359
▁३९	-11.236
▁आफन्त	-11.236
▁लामिछाने	-11.236
▁Sch	-11.2361
▁William	-11.2367
▁Valley	-11.2369
▁intense	-11.2374
▁marks	-11.2374
▁भाग्य	-11.2374
▁kinda	-11.2377
▁trips	-11.2378
▁hoped	-11.2382
▁स्वस्थ	-11.2382
▁adopt	-11.2383
▁संविधानसभा	-11.2383
▁लगाएका	-11.2384
▁egg	-11.2386
▁corn	-11.2386
्ला	-11.2391
▁Mer	-11.2391
▁Money	-11.2396
▁सम्	-11.2397
▁Ab	-11.2399
▁भाषामा	-11.2403
▁lists	-11.2404
▁accused	-11.2404
▁Word	-11.2409
▁हजुर	-11.241
र्त	-11.2411
▁conversations	-11.2412
▁Tim	-11.2417
▁आउँदै	-11.2419
▁nurse	-11.2419
▁repeated	-11.242
tal	-11.2421
▁Adam	-11.2425
hy	-11.2426
▁छाप	-11.2426
▁approaches	-11.2427
खु	-11.2429
देव	-11.2429
nch	-11.2429
▁तस्वीर	-11.2431
▁boring	-11.2431
▁चलेको	-11.2431
wing	-11.2432
▁filling	-11.2433
▁Cup	-11.2433
▁steam	-11.2434
▁opt	-11.2435
जना	-11.2435
▁horror	-11.2437
▁भै	-11.2437
▁asset	-11.2437
▁adjust	-11.2438
▁आउँदा	-11.2439
▁रुकुम	-11.2442
▁Getting	-11.2443
▁convey	-11.2446
▁tries	-11.2449
▁Put	-11.245
▁ST	-11.2458
▁दोषी	-11.2459
gue	-11.2466
▁कार्कीले	-11.2468
▁नेताले	-11.2468
▁fancy	-11.247
▁bone	-11.2471
One	-11.2471
▁नेपालीले	-11.2473
▁Hill	-11.2475
▁पर्दा	-11.2475
▁Italy	-11.2476
ीका	-11.2476
▁SEO	-11.2476
▁चलन	-11.2479
▁किसिमको	-11.2479
▁orange	-11.2482
▁विनियोजन	-11.2483
ette	-11.2484
▁Season	-11.2484
▁cable	-11.2485
▁safely	-11.2487
▁सब	-11.249
▁रुपन्देही	-11.2494
▁throat	-11.2494
▁34	-11.2495
▁excess	-11.2496
ep	-11.2496
२५	-11.2496
▁Town	-11.2497
▁roles	-11.2497
मात्रै	-11.2497
▁Create	-11.2498
▁residential	-11.2498
▁featured	-11.2498
▁bookmark	-11.2498
▁origin	-11.25
▁Supreme	-11.2503
ES	-11.2504
▁हिन्दु	-11.2509
▁अभिव्यक्ति	-11.2511
▁upgrade	-11.2512
▁भइरहेका	-11.2514
▁खु	-11.2519
▁flavor	-11.252
▁फ्रान्स	-11.2521
▁meaningful	-11.2523
▁खट	-11.2523
▁exploring	-11.2524
▁आन्दोलनमा	-11.2524
▁equipped	-11.2525
▁दायित्व	-11.2527
▁engines	-11.2528
▁genuine	-11.2529
Are	-11.2529
▁नम्बरको	-11.2531
▁promotion	-11.2531
▁४३	-11.2533
▁aged	-11.2533
non	-11.2536
▁प्राथमिकतामा	-11.2537
▁मनाउने	-11.2538
▁आकर्षित	-11.2542
▁आधारभूत	-11.2542
▁जीवनको	-11.2543
▁bid	-11.2544
▁Say	-11.2545
St	-11.2545
1.	-11.2545
▁DE	-11.2547
▁sections	-11.2548
cast	-11.2549
▁fa	-11.255
▁चिन	-11.2552
▁कठिन	-11.2552
ub	-11.2554
▁चलिरहेको	-11.2555
oh	-11.2555
▁Site	-11.2555
▁appointed	-11.2556
▁150	-11.2562
▁discussions	-11.2564
▁hunt	-11.2565
र्क	-11.2565
▁५२	-11.2567
▁summary	-11.2568
▁प्रष्ट	-11.2568
▁quietly	-11.2569
▁2004	-11.257
EN	-11.2573
▁राखे	-11.2575
▁नाकाबन्दी	-11.2576
▁crossed	-11.2576
िसकेको	-11.2578
star	-11.2579
हाल	-11.2579
▁outcomes	-11.258
▁Welcome	-11.2583
▁protest	-11.2585
▁पाल्पा	-11.2589
▁कोठा	-11.2589
▁हेटौंडा	-11.2591
▁motivation	-11.2591
▁luxury	-11.2592
▁investments	-11.2594
नारायण	-11.2594
▁ज्ञवाली	-11.2596
घाट	-11.26
▁passage	-11.26
good	-11.2601
▁ridiculous	-11.2601
▁surprising	-11.2601
37	-11.2601
▁Class	-11.2603
▁voters	-11.2604
▁toilet	-11.2608
▁Stop	-11.2608
फे	-11.2608
▁समीक्षा	-11.2609
▁सञ्जालमा	-11.2613
▁संख्यामा	-11.2614
हामीले	-11.2614
▁flash	-11.2615
▁enjoyable	-11.2615
▁buyers	-11.2615
▁तोकेको	-11.2617
▁grave	-11.262
▁आमाको	-11.262
▁beside	-11.2624
▁भागमा	-11.2625
get	-11.2627
माया	-11.2627
▁concert	-11.2629
▁देखाउन	-11.2629
▁pulling	-11.2629
ug	-11.2633
▁ओभरमा	-11.2634
▁बसोबास	-11.2635
ara	-11.2637
▁Civil	-11.2639
▁व्यापारी	-11.264
▁adapt	-11.2641
▁responded	-11.2641
▁touched	-11.2642
▁रणनीति	-11.2644
▁captain	-11.2646
▁association	-11.2648
▁दिनदेखि	-11.2649
▁superior	-11.2652
▁cats	-11.2653
स्क	-11.2653
CH	-11.2657
▁बयान	-11.2657
▁connections	-11.2657
▁व्यवसायिक	-11.2658
▁enemies	-11.266
▁डिसेम्बर	-11.2661
▁Cross	-11.2664
▁विसं	-11.2665
▁offices	-11.2666
▁साइट	-11.2669
▁breaks	-11.2671
▁alarm	-11.2671
▁बग	-11.2673
७६	-11.2674
▁निकालिएको	-11.2676
▁राजमार्ग	-11.2677
▁Local	-11.2678
▁CEO	-11.2679
▁सम्पदा	-11.2681
33	-11.2681
▁एकल	-11.2682
sp	-11.2682
▁ढोका	-11.2683
▁hungry	-11.2683
profit	-11.2685
Good	-11.2686
यन	-11.2687
▁नभएका	-11.2687
▁सक्षम	-11.2689
▁errors	-11.269
▁collaboration	-11.2691
▁ni	-11.2691
▁टीका	-11.2692
्वा	-11.2696
▁Republicans	-11.2698
TM	-11.2698
▁blocks	-11.2698
▁commonly	-11.27
▁indicated	-11.2701
▁भन्छिन्	-11.2703
▁mystery	-11.2703
▁column	-11.2708
▁possession	-11.2711
▁पुँजी	-11.2711
▁घटेको	-11.2711
▁resistance	-11.2711
▁investing	-11.2715
▁shoulders	-11.2716
▁opposition	-11.272
▁initiative	-11.272
ea	-11.272
▁spaces	-11.272
▁रोल्पा	-11.2721
▁सभामा	-11.2721
▁gathered	-11.2721
▁पर्सा	-11.2723
▁maintained	-11.2723
▁pension	-11.2726
ox	-11.2727
▁demonstrate	-11.2729
▁brave	-11.2732
▁channels	-11.2732
रण	-11.2732
▁gentle	-11.2735
▁सचिवालय	-11.2737
▁मंगलवार	-11.2741
▁platforms	-11.2745
from	-11.2746
▁Pat	-11.2747
▁हुन्न	-11.2749
▁lets	-11.275
▁gate	-11.2751
▁professor	-11.2751
65	-11.2752
▁महानगरीय	-11.2752
▁assigned	-11.2754
▁productive	-11.2755
▁Sarah	-11.2755
▁emphasis	-11.2757
set	-11.2757
log	-11.2758
▁Jewish	-11.2759
देवी	-11.276
▁3-	-11.276
▁छिट्टै	-11.2765
▁Small	-11.2773
गाउँ	-11.2774
Pro	-11.2775
Go	-11.2775
NA	-11.2776
▁दर्शक	-11.2778
▁भूमि	-11.2779
▁substantial	-11.2786
▁सङ्ख्या	-11.2786
▁surrounded	-11.2786
▁फाइनल	-11.2789
यू	-11.2789
धा	-11.279
▁dirty	-11.279
▁फुट	-11.2792
▁directions	-11.2793
▁दिनुभएको	-11.2795
▁कास्की	-11.2796
Thank	-11.2796
AD	-11.2796
▁लगभग	-11.2799
▁objectives	-11.2799
being	-11.2801
▁giveaway	-11.2802
▁चाहन्छु	-11.2802
▁spots	-11.2802
run	-11.2803
▁Key	-11.2804
▁Guide	-11.281
▁देखिए	-11.2813
▁प्रतिष्ठान	-11.2815
▁भिसा	-11.2816
▁लाल	-11.2817
▁Card	-11.2817
▁उहाँलाई	-11.2818
▁tied	-11.2818
▁vulnerable	-11.2819
▁Until	-11.2819
▁बाटोमा	-11.2821
▁जसलाई	-11.2824
▁पत्नी	-11.2825
▁alert	-11.2826
▁complaints	-11.2827
ita	-11.2828
▁excitement	-11.2829
▁prescription	-11.2829
▁eliminate	-11.2833
▁salad	-11.2838
▁kiss	-11.2838
▁दशैं	-11.2841
▁currency	-11.2842
▁चल्ने	-11.2842
▁Unless	-11.2843
▁मस्यौदा	-11.2843
rk	-11.2846
aw	-11.2847
▁voted	-11.2849
▁Excellent	-11.2851
▁slip	-11.2854
Of	-11.2857
▁supplement	-11.286
▁bra	-11.2862
▁परिस्थिति	-11.2863
▁lighting	-11.2867
▁बोल्न	-11.2869
▁स्वर	-11.2871
▁तारा	-11.2872
▁compete	-11.2875
▁organisations	-11.2875
▁girlfriend	-11.2879
US	-11.2881
▁YOUR	-11.2882
▁सेवामा	-11.2882
्रो	-11.2884
su	-11.2891
▁darkness	-11.2893
▁branch	-11.2896
▁hits	-11.2896
▁उपहार	-11.2897
▁talented	-11.2897
▁Consider	-11.2898
▁Indeed	-11.2899
▁serves	-11.2902
▁2002	-11.2903
१८	-11.2909
qu	-11.291
▁dare	-11.291
▁विद्यादेवी	-11.2912
▁सकियो	-11.2912
nce	-11.2913
▁gossip	-11.2914
▁न्यूनतम	-11.2914
▁Museum	-11.2915
▁shortly	-11.2919
▁hero	-11.292
▁handy	-11.292
tle	-11.2922
▁begun	-11.2924
08	-11.2925
▁रियल	-11.2925
▁अनशन	-11.2927
▁acceptable	-11.2929
▁usage	-11.2929
▁tracks	-11.293
▁गगन	-11.2933
ama	-11.2933
page	-11.2934
▁बजेसम्म	-11.2935
▁crimes	-11.2936
*.	-11.2938
▁charity	-11.294
▁Age	-11.2941
▁मनोज	-11.2942
▁Mor	-11.2945
▁handed	-11.2945
▁रू	-11.2949
▁पेट्रोलियम	-11.2954
▁Below	-11.2955
्मा	-11.2957
▁विज्ञ	-11.2958
▁troops	-11.296
▁Week	-11.296
▁contracts	-11.2963
EC	-11.2965
▁रंग	-11.2966
▁Child	-11.2971
▁वे	-11.2971
▁देवी	-11.2971
AT	-11.2972
▁stages	-11.2973
▁समूहको	-11.2975
▁grounds	-11.2976
ोस्	-11.2976
▁विद्यार्थीको	-11.2978
▁creativity	-11.298
▁lab	-11.2982
▁खनालले	-11.2982
▁खो	-11.2984
▁walks	-11.2984
▁मौलिक	-11.2985
...”.	-11.2987
▁hook	-11.2989
▁j	-11.2989
▁कोरियाली	-11.2991
where	-11.2994
▁$100	-11.2995
▁findings	-11.2995
▁assistant	-11.2997
▁1990	-11.2997
▁प्रदीप	-11.2998
▁contributions	-11.3001
ians	-11.3008
▁losses	-11.3008
▁implemented	-11.3012
▁कैलाली	-11.3013
▁पन्त	-11.3013
▁Name	-11.3014
▁विद्यार्थीलाई	-11.3014
▁बिहिबार	-11.3015
▁rank	-11.3017
▁ईश्वर	-11.3018
▁philosophy	-11.3018
▁II	-11.3019
▁strip	-11.3022
▁displayed	-11.3023
▁Simply	-11.3024
▁लाइसेन्स	-11.3025
▁रामबहादुर	-11.3028
▁vice	-11.303
▁beneath	-11.3031
▁गरिसकेका	-11.3032
▁माछा	-11.3035
▁धनुषा	-11.3036
▁WordPress	-11.3038
▁जग	-11.3038
▁ग्रामीण	-11.304
▁relate	-11.304
▁dental	-11.304
▁pa	-11.3041
▁:-	-11.3042
▁थारु	-11.3042
▁assured	-11.3042
▁होम	-11.3044
▁documentation	-11.3044
▁violent	-11.3049
▁फारम	-11.3049
▁काउन्सिल	-11.3051
▁dumpster	-11.3051
▁निवास	-11.3052
▁promoting	-11.3053
▁Point	-11.3055
▁tie	-11.3056
▁थाल्यो	-11.3057
take	-11.3059
▁throwing	-11.3059
▁acknowledge	-11.3059
चु	-11.3063
▁IP	-11.3065
▁scary	-11.3066
▁Customer	-11.3068
▁संस्थाका	-11.307
▁proportion	-11.307
▁mixture	-11.3072
▁सायद	-11.3073
▁तिमीलाई	-11.3073
▁considerable	-11.3075
▁Cu	-11.3075
▁decrease	-11.3077
▁Radio	-11.3078
▁tail	-11.3079
▁पानीको	-11.3079
▁string	-11.3079
▁Ri	-11.308
3.	-11.3081
धी	-11.3082
▁Democrats	-11.3083
▁Self	-11.3084
▁डिजाइन	-11.3085
अहिले	-11.3087
▁dishes	-11.3091
▁publishing	-11.3091
▁स्मार्टफोन	-11.3094
▁Building	-11.3094
▁precisely	-11.3095
▁जोड्ने	-11.3095
▁मनाङ	-11.3096
▁Republic	-11.3097
tain	-11.3104
▁criticism	-11.3104
▁लोडसेडिङ	-11.3104
पानी	-11.3105
▁फोहोर	-11.3106
cal	-11.3106
▁बानी	-11.311
▁🙂	-11.3112
▁संयोजन	-11.3114
▁presents	-11.3116
▁farmers	-11.3116
▁पुग	-11.3117
▁expansion	-11.3122
▁imagination	-11.3122
▁Far	-11.3124
▁देख	-11.3125
▁adequate	-11.3129
▁fits	-11.3129
bra	-11.313
▁400	-11.3131
▁आश्विन	-11.3131
▁Given	-11.3133
▁dose	-11.3133
▁elections	-11.3133
जित	-11.3134
▁युवती	-11.3135
ky	-11.3138
▁प्रक्रियामा	-11.3142
▁keen	-11.3143
▁LA	-11.3143
▁प्रविधिको	-11.3145
▁possibilities	-11.3145
39	-11.3146
table	-11.315
ther	-11.3152
▁PA	-11.3153
ez	-11.3158
▁यतिबेला	-11.3158
▁interact	-11.3159
dic	-11.3162
gov	-11.3164
▁mask	-11.3165
▁historic	-11.3165
रको	-11.3167
▁drew	-11.3169
▁blogger	-11.3169
▁prompt	-11.317
▁fired	-11.317
▁शनिवार	-11.3171
▁politicians	-11.3172
▁unexpected	-11.3175
vert	-11.3175
▁stairs	-11.3176
foot	-11.3178
▁2006	-11.3179
▁offense	-11.3179
▁सामाग्री	-11.318
सकेको	-11.318
ीत	-11.3181
▁badly	-11.3181
▁cr	-11.3182
ola	-11.3182
▁भैरहवा	-11.3182
win	-11.3183
स्थल	-11.3183
▁सुरक्षाकर्मी	-11.3183
▁चाँडै	-11.3185
▁विपक्षी	-11.3186
▁जित्न	-11.3186
▁pilot	-11.3187
tu	-11.3189
▁containing	-11.3191
▁देखेर	-11.3192
▁encouraging	-11.3194
▁crack	-11.3194
aries	-11.3194
र्ड	-11.3196
▁genuinely	-11.3196
▁विस्फोट	-11.3196
▁मञ्च	-11.3197
▁climb	-11.3197
-10	-11.3198
▁dancing	-11.3199
▁suggestion	-11.32
▁ल्याएर	-11.3203
▁belt	-11.3204
▁?’	-11.3205
▁retain	-11.3205
cc	-11.3205
▁divorce	-11.3206
▁Rose	-11.3206
▁generous	-11.3209
▁विशेषज्ञ	-11.3212
▁देखी	-11.3213
▁WE	-11.3214
▁salary	-11.3215
▁division	-11.3218
▁सम्मानित	-11.3219
▁जरिवाना	-11.3221
Your	-11.3224
▁आकर्षक	-11.3224
▁hiring	-11.3225
▁removal	-11.3226
▁ownership	-11.3226
48	-11.3228
▁Zealand	-11.323
yl	-11.3231
▁affairs	-11.3232
▁guitar	-11.3235
▁patience	-11.3236
▁वटै	-11.3236
▁विहान	-11.3237
▁समझदारी	-11.3237
power	-11.324
▁creates	-11.3241
▁शिविर	-11.3241
▁loads	-11.3242
▁त्यतिबेला	-11.3243
▁penalty	-11.3244
▁Especially	-11.3245
▁जनप्रतिनिधि	-11.3246
▁shake	-11.3249
▁designer	-11.3249
▁Reading	-11.325
▁concrete	-11.3251
▁wished	-11.3254
▁रातो	-11.3255
▁खालको	-11.3255
▁घट्यो	-11.3257
▁दो	-11.3258
▁Talk	-11.3259
▁खुट्टा	-11.3261
▁ओलीलाई	-11.3261
ough	-11.3262
play	-11.3263
▁romantic	-11.3264
▁बिकास	-11.3264
▁knife	-11.3264
▁convince	-11.3269
▁caring	-11.3271
▁रिट	-11.3271
▁एक्लै	-11.3272
▁कन्	-11.3273
▁बनाउँदै	-11.3273
▁रामचन्द्र	-11.3278
49	-11.3279
▁responsibilitie	-11.3279
▁hunting	-11.3279
▁Dave	-11.328
▁जोडिएको	-11.3282
▁nicely	-11.3282
▁Jane	-11.3283
पे	-11.3286
▁languages	-11.3286
▁Carolina	-11.3287
▁सरकारसँग	-11.3289
▁Bur	-11.329
▁ba	-11.3291
▁प्रयोगकर्ता	-11.3293
▁बन्छ	-11.3293
minute	-11.3295
▁एकको	-11.3296
MP	-11.3296
ral	-11.3296
▁केटी	-11.3297
▁75	-11.3297
▁हस्तक्षेप	-11.3297
कम	-11.3299
रले	-11.3299
▁tackle	-11.3299
▁setup	-11.33
▁उत्साह	-11.3301
▁Sub	-11.3301
▁LOL	-11.3303
▁amongst	-11.3308
▁Spain	-11.3312
▁lawyers	-11.3313
▁खुलेको	-11.3313
▁smiling	-11.3313
▁मानिसहरु	-11.3314
वल	-11.3314
▁नेपालीमा	-11.3315
▁breathing	-11.3315
▁९८	-11.3319
▁transactions	-11.3323
▁exam	-11.3323
▁याद	-11.3326
▁पब्लिकेसन्स	-11.3329
▁भेट्न	-11.333
▁छुटाउनु	-11.333
शी	-11.333
▁युवराज	-11.3331
▁profits	-11.3334
▁क्षेत्रबाट	-11.3334
lia	-11.3334
५०	-11.3335
▁श्रेष्ठको	-11.3336
▁रहन्छ	-11.3336
▁सर्व	-11.334
▁मुक्ति	-11.334
▁foster	-11.3342
१४	-11.3344
▁pitch	-11.3345
▁देशलाई	-11.3347
▁शंका	-11.3347
▁MS	-11.3348
▁ईमेल	-11.3349
ient	-11.335
▁electrical	-11.3351
▁accommodation	-11.3353
▁participating	-11.3353
▁लैजाने	-11.3355
िल	-11.3356
lon	-11.3356
▁peer	-11.3358
▁delighted	-11.3359
▁shell	-11.336
▁subscription	-11.3364
▁Several	-11.3364
▁damaged	-11.3366
ाव	-11.3367
▁मुल्य	-11.3368
▁राजविराज	-11.3368
▁stroke	-11.3368
▁उपराष्ट्रपति	-11.3368
▁pic	-11.3372
ob	-11.3373
हार	-11.3373
▁revolution	-11.3377
iff	-11.3378
▁enterprise	-11.3379
म्ब	-11.338
▁rolling	-11.3381
nal	-11.3382
▁resume	-11.3384
▁तपाईलाई	-11.3384
्क	-11.3387
▁ro	-11.3387
▁lease	-11.3387
शन	-11.3388
▁besides	-11.3388
▁1980	-11.339
▁इटहरी	-11.3392
▁addresses	-11.3393
▁०१	-11.3393
▁एल	-11.3393
ुस्	-11.3394
▁pile	-11.3395
▁शंकर	-11.3395
▁मानिसले	-11.3399
▁conversion	-11.34
oon	-11.3401
▁swing	-11.3401
िता	-11.3402
▁डटकम	-11.3402
▁प्रदर्शनमा	-11.3403
▁Boy	-11.3403
▁spell	-11.3407
▁unto	-11.3409
▁dialogue	-11.3411
▁3)	-11.3411
फि	-11.3411
AP	-11.3415
▁disability	-11.3416
▁Feel	-11.3419
▁दुर्गा	-11.3422
ुहोस्	-11.3422
▁humanity	-11.3422
▁आजै	-11.3423
▁तपाइको	-11.3424
▁अधिक	-11.3424
▁कुराको	-11.3425
▁नमुना	-11.3426
▁apple	-11.343
▁difficulties	-11.3433
rist	-11.3433
▁पल	-11.3436
dia	-11.3436
▁कमजोरी	-11.3436
cho	-11.3437
▁__	-11.3441
▁fence	-11.3441
▁निर्	-11.3442
▁festival	-11.3442
▁मनोनयन	-11.3442
▁discussing	-11.3445
▁boot	-11.3447
par	-11.3448
▁worthy	-11.3449
▁Charles	-11.345
▁flower	-11.3452
▁Anti	-11.3454
▁soup	-11.3455
▁दोहोरो	-11.3455
yes	-11.3455
▁ठक्करबाट	-11.3456
▁आन्दोलनको	-11.3456
▁proceed	-11.3456
gu	-11.3457
▁खराब	-11.3458
मैले	-11.3458
▁cons	-11.3459
▁चलचित्रको	-11.3459
भो	-11.3461
▁availability	-11.3463
▁गरिब	-11.3463
▁५६	-11.3464
▁Glad	-11.3466
▁थ	-11.3467
85	-11.3467
▁eager	-11.3468
▁आयुक्त	-11.3468
▁initially	-11.3469
▁toys	-11.347
▁लेखन	-11.3471
▁newly	-11.3473
▁complain	-11.3473
ाउँछन्	-11.3473
▁37	-11.3475
▁dive	-11.3476
▁aircraft	-11.3477
▁occasionally	-11.3478
एका	-11.3478
▁Inc	-11.3479
ala	-11.3481
▁लेखा	-11.3482
▁interviews	-11.3483
▁wrap	-11.3488
ल्ड	-11.3489
▁पात्र	-11.349
▁(3	-11.3493
▁राणा	-11.3496
ition	-11.3496
▁Fi	-11.3497
▁Website	-11.3499
थ्यो	-11.35
▁clever	-11.3502
home	-11.3502
▁Korea	-11.3504
▁export	-11.3504
▁assess	-11.3505
ks	-11.3505
▁banking	-11.3506
▁2015.	-11.3507
▁trap	-11.3511
▁पुर्व	-11.3512
▁मल्ल	-11.3514
▁immigration	-11.3516
▁सुनिश्चित	-11.3517
▁रुपैया	-11.3517
ack	-11.3518
▁estimate	-11.3521
▁साझेदारी	-11.3523
34	-11.3523
▁एशिया	-11.3525
▁Inter	-11.3526
43	-11.3528
▁dig	-11.3529
▁armed	-11.353
▁scan	-11.3531
▁accounting	-11.3534
▁visits	-11.3537
▁discovery	-11.3541
▁pointing	-11.3542
▁rail	-11.3544
▁सजिलै	-11.3545
▁किशोर	-11.3546
▁मित्र	-11.3547
▁हल्ला	-11.3549
▁ye	-11.3551
▁२०१५	-11.3552
▁व्यक्तित्व	-11.3552
▁trusted	-11.3557
▁अन्तर्वार्ता	-11.3557
▁सुपर	-11.3558
▁crying	-11.3562
▁Ge	-11.3564
▁Number	-11.3566
द्ध	-11.3567
pi	-11.3567
▁confusion	-11.3568
▁signing	-11.3568
▁सवै	-11.3568
▁DC	-11.3569
▁Auto	-11.3572
लर	-11.3572
वासी	-11.3575
▁legitimate	-11.358
▁नागरिकलाई	-11.3582
▁Nov	-11.3582
▁afterwards	-11.3586
▁Access	-11.3587
▁aimed	-11.3588
khabar	-11.3592
▁बिच	-11.3592
▁niche	-11.3594
▁neighbors	-11.3594
पुरा	-11.3594
▁छोड	-11.3594
▁फाइनलमा	-11.3596
▁pie	-11.3597
▁सेवाको	-11.3597
▁अभियुक्त	-11.3597
▁कर्मचारीले	-11.3598
▁secrets	-11.3598
▁audit	-11.36
IP	-11.3602
▁logic	-11.3605
▁fortune	-11.3605
▁twist	-11.3605
▁Ja	-11.3605
▁सुनको	-11.3609
▁completion	-11.361
▁राशि	-11.361
▁Administration	-11.3612
▁tournament	-11.3612
▁सस्तो	-11.3613
▁dumb	-11.3613
▁वास्तविक	-11.3615
▁rescue	-11.3615
▁convenience	-11.3615
▁rolled	-11.3616
▁संवाद	-11.3617
▁evolution	-11.3618
ari	-11.3618
▁बैंकिङ	-11.3619
▁coaching	-11.362
▁मेसिन	-11.3623
▁Looks	-11.3623
▁Iran	-11.3624
▁copyright	-11.3624
▁Got	-11.3625
▁tables	-11.3626
PA	-11.3628
▁generations	-11.363
▁गिरी	-11.363
▁List	-11.3631
▁बासिन्दा	-11.3631
▁regulation	-11.3632
▁जिन्दगी	-11.3633
▁लगाए	-11.3636
▁राख्नु	-11.3638
▁worker	-11.3638
▁divided	-11.3639
▁प्रतिभा	-11.364
▁Question	-11.364
०७४	-11.364
▁belong	-11.3641
▁यथार्थ	-11.3643
▁Cal	-11.3645
▁cure	-11.3648
school	-11.365
ाका	-11.365
▁blast	-11.3653
▁एफ	-11.3653
world	-11.3654
▁पेट	-11.3654
clock	-11.3656
▁जुट	-11.3657
▁frequent	-11.3657
-19	-11.366
nny	-11.3663
AR	-11.3663
▁Parliament	-11.3664
▁secondary	-11.3667
▁notion	-11.3668
Hey	-11.3668
▁खोल्न	-11.3669
▁Ste	-11.3669
▁array	-11.3669
▁characteristics	-11.3671
▁contrary	-11.3671
▁जलविद्युत	-11.3671
▁प्रमाणित	-11.3671
▁clicking	-11.3674
ON	-11.3675
▁glasses	-11.3678
val	-11.3679
-6	-11.368
▁finds	-11.3681
▁rapid	-11.3682
बेला	-11.3683
तो	-11.3684
▁Force	-11.3686
▁रिस	-11.3687
▁शरीरमा	-11.369
▁loaded	-11.3693
▁destruction	-11.3693
TS	-11.3695
▁Working	-11.3695
▁reminds	-11.3696
▁MO	-11.3696
▁subsection	-11.3697
▁निगमले	-11.3699
▁ceiling	-11.37
grade	-11.3701
▁कर्म	-11.3702
▁20%	-11.3703
▁Space	-11.3703
▁भ्रम	-11.3705
▁विधा	-11.3707
▁flood	-11.3707
07	-11.3709
▁संस्कार	-11.3712
▁generated	-11.3713
▁specialist	-11.3718
▁bold	-11.372
▁tracking	-11.372
▁Constitution	-11.3722
▁Fall	-11.3725
cy	-11.3725
मूलक	-11.3726
▁Down	-11.3727
▁intend	-11.3727
▁पारे	-11.3727
gg	-11.373
▁पेट्रोल	-11.3731
▁Angel	-11.3731
पति	-11.3734
▁forecast	-11.3734
▁shore	-11.3736
▁खण्डमा	-11.3736
▁Virginia	-11.3736
▁reception	-11.3738
ाइएको	-11.374
▁गुणस्तरीय	-11.374
ास	-11.3742
▁प्रकट	-11.3745
-12	-11.3745
▁mum	-11.3748
▁Follow	-11.375
news	-11.375
▁DVD	-11.3752
▁Join	-11.3752
▁knock	-11.3752
ुर	-11.3753
िएपछि	-11.3757
▁psychological	-11.3757
▁नपर्ने	-11.3757
▁किम	-11.3758
▁महोत्तरी	-11.3758
▁Safety	-11.3758
▁uncomfortable	-11.3758
▁प्रहरीलाई	-11.376
tan	-11.3766
▁Download	-11.3768
▁pit	-11.3768
66	-11.3769
▁minimal	-11.3769
..."	-11.3769
▁officially	-11.377
▁administrative	-11.377
▁55	-11.3772
▁trash	-11.3773
Our	-11.3773
▁लेखेको	-11.3773
▁interpretation	-11.3777
▁टाउको	-11.3777
▁conservative	-11.3777
▁४९	-11.3778
▁मन्त्रालयमा	-11.3779
SS	-11.3781
week	-11.3782
▁faculty	-11.3783
▁plug	-11.3783
▁घट	-11.3785
▁landing	-11.3785
▁ratio	-11.3788
▁cancel	-11.379
▁actively	-11.3791
▁van	-11.3792
▁Coast	-11.3797
▁weblog	-11.3797
▁सुनसरी	-11.3797
▁pants	-11.3798
▁interaction	-11.3798
care	-11.3799
▁invention	-11.3799
▁slight	-11.3799
▁react	-11.3801
gs	-11.3801
▁superb	-11.3802
▁MA	-11.3802
▁Daniel	-11.3802
▁marry	-11.3802
▁Non	-11.3803
▁सन्तोष	-11.3804
▁studied	-11.3805
▁समारोहमा	-11.3805
▁सप्तरी	-11.3806
▁cameras	-11.3808
ok	-11.3809
▁speaker	-11.381
▁Probably	-11.3811
▁Prime	-11.3811
▁ठ	-11.3812
late	-11.3812
▁रहेकाले	-11.3813
▁wanna	-11.3813
▁Leave	-11.382
pan	-11.3821
???	-11.3821
▁Nick	-11.3821
▁जर्मनी	-11.3825
▁संक्रमण	-11.3827
▁ठेगाना	-11.3829
▁arrangements	-11.3831
▁हि	-11.3831
▁धरान	-11.3833
▁ta	-11.3834
▁चढ	-11.3835
▁आउट	-11.3836
▁लाग्दैन	-11.3837
टु	-11.3838
▁votes	-11.3838
▁Va	-11.3839
▁affiliate	-11.3839
▁अर्जुन	-11.384
▁मैदान	-11.3841
▁extraordinary	-11.3841
▁Better	-11.3842
▁liberal	-11.3842
sta	-11.3843
▁खुलासा	-11.3843
4.	-11.3843
▁writes	-11.3845
यता	-11.3848
▁spite	-11.3848
▁attempting	-11.3849
▁शुरू	-11.3849
06	-11.385
▁reserve	-11.3854
▁Wood	-11.3855
▁dependent	-11.3856
▁referring	-11.3857
...”	-11.3861
▁leap	-11.3862
http	-11.3868
▁उदयपुर	-11.3868
▁sh	-11.3869
▁pizza	-11.387
▁मार्च	-11.387
▁Sales	-11.3871
°	-11.3872
▁प्राय	-11.3874
▁peaceful	-11.3876
boy	-11.3876
▁baking	-11.3877
▁Dar	-11.3879
▁courts	-11.3879
▁Academy	-11.3879
▁सीप	-11.3879
▁भनि	-11.388
▁predict	-11.3881
▁पाउनु	-11.3881
▁resident	-11.3884
▁गर्भ	-11.3884
▁functional	-11.3887
lock	-11.3887
▁lowest	-11.3889
▁consistently	-11.3892
▁diversity	-11.3895
▁nutrition	-11.3895
▁गर्नुहुन्छ	-11.3895
▁instantly	-11.39
▁Save	-11.3901
▁रहनेछ	-11.3901
▁architecture	-11.3902
▁प्रभु	-11.3904
▁चाहिन्छ	-11.3904
▁किताब	-11.3904
▁अत्यधिक	-11.3906
आफ्नो	-11.3906
▁downtown	-11.3908
▁facilitate	-11.3909
▁डाटा	-11.3909
▁stolen	-11.3913
▁जनयुद्ध	-11.3913
▁retired	-11.3913
▁Learning	-11.3916
NS	-11.3916
▁सम्झना	-11.3918
▁genetic	-11.3918
▁खास	-11.3921
▁newsletters	-11.3923
pdf	-11.3923
▁endless	-11.3925
▁translation	-11.3925
▁bite	-11.3927
game	-11.3928
▁भाउ	-11.393
▁mat	-11.393
about	-11.3936
▁fate	-11.3937
▁ड्र	-11.3937
af	-11.394
▁अस्पतालको	-11.3942
▁FREE	-11.3943
▁shadow	-11.3945
▁गर्नेछन्	-11.3945
~	-11.3946
ened	-11.395
▁immune	-11.3951
▁भ्रमणका	-11.3951
ew	-11.3952
▁पढ्ने	-11.3954
▁inch	-11.3956
▁Choose	-11.3956
▁tent	-11.3957
▁विज्ञप्ति	-11.3958
name	-11.3958
▁representation	-11.396
▁दोलखा	-11.3961
▁integrated	-11.3963
fire	-11.3963
▁gang	-11.3963
▁पेस	-11.3964
▁pics	-11.3966
▁Sounds	-11.397
▁प्रबन्ध	-11.3971
▁विभेद	-11.3971
▁golden	-11.3972
▁muscles	-11.3976
▁नगरपालिकामा	-11.3977
▁tear	-11.3977
▁inspiring	-11.3977
▁बढेर	-11.398
09	-11.3981
▁विकिपिडिया	-11.3983
▁भगवान	-11.3985
▁कोइरालाले	-11.3986
▁Donald	-11.3987
▁दा	-11.3987
▁apparent	-11.3988
▁समयसम्म	-11.3988
sen	-11.3988
▁accomplished	-11.3989
put	-11.399
धार	-11.3994
▁गणना	-11.3995
▁import	-11.3997
▁सुवेदी	-11.3999
▁frustrating	-11.4
▁advantages	-11.4
▁उड	-11.4
▁Kim	-11.4001
द्	-11.4001
▁regions	-11.4002
▁गुरु	-11.4002
▁केन्द्रिय	-11.401
▁एकदमै	-11.4011
▁बारा	-11.4011
▁गाउँपालिकाको	-11.4012
ib	-11.4015
▁लेखिएको	-11.4015
▁ARE	-11.4018
▁nail	-11.4019
▁structures	-11.402
▁Hospital	-11.4023
2.	-11.4024
▁Trade	-11.4024
▁कृति	-11.4025
▁relaxing	-11.4026
ction	-11.4026
ied	-11.4027
ik	-11.4029
▁Son	-11.403
style	-11.403
्दी	-11.403
▁honey	-11.403
▁२०७१	-11.4031
▁कल्पना	-11.4031
▁65	-11.4031
▁Sal	-11.4031
▁६३	-11.4037
▁गुण	-11.4038
▁पुग्छ	-11.404
नयाँ	-11.4042
▁Em	-11.4042
▁wage	-11.4043
▁humor	-11.4045
▁क्रान्ति	-11.4045
▁टी	-11.4045
▁Cap	-11.4045
nu	-11.4049
▁strain	-11.405
▁comic	-11.4051
▁न्यू	-11.4052
▁tin	-11.4052
▁Kingdom	-11.4052
▁investigate	-11.4054
▁hike	-11.4054
▁बज	-11.4055
▁prayers	-11.4055
ix	-11.4057
▁प्रस्तुति	-11.4057
▁हाउस	-11.4058
▁twelve	-11.4059
▁न्यून	-11.4059
▁ceremony	-11.4061
▁बहु	-11.4061
▁viewing	-11.4062
▁span	-11.4065
▁3,	-11.4069
▁Girl	-11.407
▁नारायणगढ	-11.407
Ro	-11.4076
▁unlike	-11.4077
▁पक्षले	-11.4078
▁comparable	-11.4079
▁reflection	-11.4081
64	-11.4083
▁failing	-11.4083
ev	-11.4084
▁demo	-11.4085
िकरण	-11.4085
गरी	-11.4086
▁marijuana	-11.409
▁consists	-11.4093
bin	-11.4096
▁स्वरुप	-11.4096
▁राष्ट्रियसभा	-11.4096
▁stations	-11.4098
▁Comp	-11.41
▁विद्युतीय	-11.4101
▁hitting	-11.4103
▁Hot	-11.4103
दान	-11.4106
▁Sh	-11.4111
IS	-11.4111
▁राजेश	-11.4112
▁सदस्यको	-11.4114
▁calories	-11.4115
▁सेप्टेम्बर	-11.4115
▁restrictions	-11.4117
त्य	-11.4117
▁गराए	-11.4118
At	-11.4118
▁Col	-11.412
▁goodness	-11.4122
▁सामूहिक	-11.4123
▁लिमिटेड	-11.4123
▁boyfriend	-11.4123
▁न्यौपाने	-11.4126
▁गर्भवती	-11.4126
▁पारस	-11.4126
▁steal	-11.4126
▁threats	-11.4128
▁स्प	-11.4129
▁38	-11.413
▁virtually	-11.413
▁पात्रो	-11.4132
38	-11.4133
▁nowhere	-11.4134
▁42	-11.4134
▁Based	-11.4136
▁पार्टीमा	-11.4136
▁दिगो	-11.4137
समा	-11.4138
▁obligations	-11.4138
▁Christians	-11.4139
▁मुल	-11.4142
▁spray	-11.4143
▁adoption	-11.4144
▁quilt	-11.4145
▁execution	-11.4147
▁fiscal	-11.4147
AS	-11.4147
▁ne	-11.4147
▁समाप्त	-11.4148
▁भत्क	-11.4148
▁tension	-11.4149
▁drunk	-11.415
▁पछिल्ला	-11.415
▁Either	-11.4151
▁democracy	-11.4153
cu	-11.4153
▁represented	-11.4156
ou	-11.416
47	-11.4161
ett	-11.4161
▁wet	-11.4162
▁emissions	-11.4164
▁pepper	-11.4168
▁announcement	-11.4168
▁अफर	-11.4169
▁चाहने	-11.4169
▁resolved	-11.417
▁समयको	-11.4172
▁बिग्र	-11.4173
▁Visit	-11.4173
CE	-11.4173
▁seeds	-11.4175
SP	-11.4176
▁Ya	-11.4177
▁defeat	-11.4179
▁Southern	-11.4179
▁amazed	-11.418
▁लो	-11.4181
▁territory	-11.4184
▁angle	-11.4184
▁उठाउन	-11.4188
▁survival	-11.4188
▁प्रहरीका	-11.4191
▁favour	-11.4191
▁Training	-11.4191
▁वीर	-11.4192
ाउदै	-11.4193
98	-11.4195
▁protecting	-11.4196
▁चाल	-11.4197
▁Jews	-11.4205
दुई	-11.4208
▁आशंका	-11.421
▁roughly	-11.421
▁नराम्रो	-11.4211
▁लमजुङ	-11.4211
▁लाभांश	-11.4214
▁museum	-11.4217
▁Form	-11.4218
▁Wa	-11.422
▁integrity	-11.4221
▁supports	-11.4223
▁Brian	-11.4224
▁Living	-11.4224
▁पालना	-11.4225
▁थान	-11.4226
▁फेसबुकमा	-11.4227
▁स्रोतले	-11.4227
▁अस	-11.4227
डो	-11.4228
▁guaranteed	-11.4228
illa	-11.4229
▁Daily	-11.4229
apos	-11.4229
UR	-11.4229
जन्य	-11.423
▁Action	-11.4231
▁listened	-11.4232
▁बिशेष	-11.4232
▁tab	-11.4233
▁filter	-11.4233
▁सन्दीप	-11.4235
▁steady	-11.424
▁chill	-11.424
▁citizen	-11.4241
mark	-11.4241
▁exceptional	-11.4244
▁अग्रता	-11.4244
▁singer	-11.4247
▁निरीक्षक	-11.4248
▁Pan	-11.4251
ica	-11.4252
▁nuts	-11.4253
▁उर्जा	-11.4256
वाल	-11.4256
▁baseball	-11.4256
▁काल	-11.4256
▁trigger	-11.426
▁मलेसियामा	-11.4261
▁प्रकार	-11.4261
▁परिषद्	-11.4264
सक	-11.4264
▁controls	-11.4264
▁exercises	-11.4265
▁holes	-11.4265
▁packages	-11.4267
▁युएई	-11.4267
▁yoga	-11.4269
▁विद्यालयको	-11.4271
िँदा	-11.4272
▁episodes	-11.4272
▁राय	-11.4273
▁addiction	-11.4275
िना	-11.4277
▁मुलुकका	-11.4279
▁Greek	-11.428
▁gross	-11.428
क्रम	-11.428
▁deaths	-11.4283
ते	-11.4285
▁पति	-11.4286
▁gentleman	-11.4287
▁दिनुपर्छ	-11.4288
▁handful	-11.4296
▁डी	-11.4296
▁चेक	-11.4298
▁skilled	-11.4298
▁किनकि	-11.4301
▁celebration	-11.4303
▁petition	-11.4303
▁Prince	-11.4303
▁Table	-11.4304
▁Jones	-11.4305
▁पवित्र	-11.4306
PS	-11.4306
▁पृथ्वी	-11.4306
▁punishment	-11.4309
▁pe	-11.4309
▁et	-11.4311
▁2005	-11.4313
▁पारिश्रमिक	-11.4313
▁patch	-11.4314
▁ब्राजिल	-11.4316
▁targeted	-11.4316
▁इन्जिनियर	-11.4318
▁Bad	-11.4322
▁keys	-11.4324
▁anxious	-11.4329
▁परिवारले	-11.4329
▁उपन्यास	-11.433
▁labour	-11.4331
▁थालिएको	-11.4331
▁editing	-11.4332
▁किन्न	-11.4333
▁visa	-11.4333
▁promises	-11.4333
तु	-11.4339
▁भव्य	-11.434
▁५७	-11.434
▁यात्रामा	-11.4342
▁जापानमा	-11.4344
▁31,	-11.4344
▁एयर	-11.4346
▁evaluate	-11.4347
निक	-11.4349
▁bo	-11.4349
ult	-11.4349
▁नेताहरू	-11.435
▁भाइरल	-11.4351
▁convert	-11.4355
▁सुशील	-11.4356
▁लक्षण	-11.4356
▁भारतबाट	-11.4358
▁explaining	-11.4358
▁फैल	-11.4358
▁साप्ताहिक	-11.4359
▁Death	-11.436
▁wherever	-11.4361
▁Mind	-11.4361
▁broadcast	-11.4362
▁lu	-11.4363
▁Library	-11.4363
▁राजश्व	-11.4363
▁praise	-11.4365
▁1970	-11.4365
▁राती	-11.4366
▁दुईवटा	-11.4366
▁कञ्चनपुर	-11.4367
▁exhibition	-11.4367
▁अंकले	-11.4368
▁hey	-11.4368
▁embrace	-11.437
▁हुनसक्ने	-11.4371
iest	-11.4375
▁जाति	-11.4376
रहेका	-11.4378
▁टन	-11.4384
स्थ	-11.4385
▁entertaining	-11.4385
▁पार्दै	-11.4387
▁4,	-11.4388
▁जुनसुकै	-11.4388
िलो	-11.4388
▁instrument	-11.4389
▁Account	-11.4389
▁बर्दिया	-11.439
ble	-11.439
▁consult	-11.4391
तामा	-11.4392
▁bow	-11.4392
▁मूल्यमा	-11.4394
▁1/2	-11.4394
▁Cons	-11.4397
▁बौद्ध	-11.4399
41	-11.4401
▁productivity	-11.4402
▁highlight	-11.4403
▁curve	-11.4404
▁संयन्त्र	-11.4404
धान	-11.4404
▁५८	-11.4406
▁motivated	-11.4407
▁delight	-11.4408
१७	-11.4411
▁भोजपुर	-11.4411
ump	-11.4413
▁Area	-11.4413
lly	-11.4413
▁Due	-11.4414
▁विना	-11.4414
▁fifty	-11.4415
▁desperate	-11.4416
▁outfit	-11.4419
▁साधारणसभा	-11.4419
▁किशोरी	-11.4422
▁Ken	-11.4422
▁pricing	-11.4423
▁jacket	-11.4427
▁describes	-11.4427
▁तथ्याङ्क	-11.443
An	-11.4432
▁physician	-11.4433
ENT	-11.4434
▁Making	-11.4436
▁Thanksgiving	-11.4438
▁regime	-11.4438
▁माध्यमिक	-11.4439
▁कामना	-11.444
▁सडकको	-11.444
▁worn	-11.4441
▁छाडेर	-11.4441
▁स्मार्ट	-11.4442
▁aims	-11.4444
▁राउत	-11.4444
▁दायर	-11.4445
acy	-11.4445
▁concentration	-11.4446
▁hung	-11.4453
▁पूँजी	-11.4454
▁workout	-11.4455
▁entity	-11.4457
▁Scotland	-11.4462
rant	-11.4463
▁बोलको	-11.4466
▁विप्लव	-11.4466
▁विश्वकै	-11.4466
▁संसदको	-11.4471
▁campaigns	-11.4471
▁spelling	-11.4472
मलाई	-11.4472
वाला	-11.4472
▁sink	-11.4473
▁अंग्रेजी	-11.4474
▁पाठक	-11.4475
▁Us	-11.4476
▁respective	-11.4478
▁tender	-11.4478
▁भाषण	-11.4479
लको	-11.448
▁नारी	-11.4481
▁Five	-11.4482
▁venue	-11.4483
▁ships	-11.4483
▁Taking	-11.4483
▁पुर	-11.4484
nk	-11.4485
▁deadline	-11.4487
▁४६	-11.4487
ura	-11.4488
▁Tra	-11.4488
▁अन्तरक्रिया	-11.4488
▁quantity	-11.4489
▁employ	-11.4489
77	-11.4491
CC	-11.4494
▁शपथ	-11.4496
▁Mad	-11.4498
▁manufacturer	-11.4498
▁Peace	-11.4498
▁;).	-11.4499
iz	-11.45
▁cheer	-11.45
▁warned	-11.4501
▁Andrew	-11.4503
▁डो	-11.4503
72	-11.4504
▁कार्यसमिति	-11.4505
▁७२	-11.4506
▁strive	-11.4506
▁Ryan	-11.4509
▁दुइ	-11.451
▁seasons	-11.4512
▁bomb	-11.4514
▁पुनःनिर्माण	-11.4515
▁सिमेन्ट	-11.4515
▁occasions	-11.4516
▁सिक	-11.4517
VE	-11.4519
▁cousin	-11.452
▁आएकी	-11.452
▁उस्तै	-11.4531
▁passes	-11.4531
▁राम्रा	-11.4532
▁titles	-11.4533
▁लगानीमा	-11.4536
▁uncle	-11.4536
▁६४	-11.4537
▁बनाई	-11.4537
▁Obviously	-11.4541
rick	-11.4541
▁स्तर	-11.4542
▁2-	-11.4542
▁backup	-11.4543
▁uniform	-11.4546
▁swear	-11.455
▁blend	-11.455
▁खोला	-11.4551
▁नेकपाको	-11.4552
▁trailer	-11.4552
▁बक्स	-11.4553
▁अनुभूति	-11.4554
▁Michigan	-11.4554
▁equity	-11.4554
▁gaming	-11.4555
▁gently	-11.4556
▁desert	-11.4556
्थ्यो	-11.4556
▁photographs	-11.4556
चल	-11.4558
▁fought	-11.456
ju	-11.4561
▁Ms	-11.4563
▁५४	-11.4565
such	-11.4566
cut	-11.4567
▁para	-11.4568
▁शिक्षाको	-11.457
▁ल्याइएको	-11.4571
▁universities	-11.4577
▁matches	-11.4581
▁fruits	-11.4583
ering	-11.4583
▁observe	-11.4586
▁Beautiful	-11.4587
tech	-11.4588
▁ate	-11.4588
▁त्रि	-11.4588
▁gotta	-11.4589
▁धनकुटा	-11.4589
▁theater	-11.4591
when	-11.4591
ec	-11.4594
▁बाँध	-11.4597
▁खड्काले	-11.4597
▁tremendous	-11.4597
▁कूल	-11.46
ense	-11.4601
▁निष्कर्ष	-11.4603
रू	-11.4603
dle	-11.4604
▁invitation	-11.4604
कन	-11.4605
▁पल्ट	-11.4607
▁जम	-11.4607
▁Among	-11.4608
व्य	-11.4611
▁tutorial	-11.4611
▁छलफलमा	-11.4611
▁आफैँ	-11.4616
five	-11.4616
step	-11.4616
कुमारी	-11.4618
▁छैन्	-11.4618
▁कुरालाई	-11.4619
only	-11.462
▁2001	-11.4621
real	-11.4622
▁अपहरण	-11.4623
▁पर्यो	-11.4624
▁processed	-11.4624
▁हराएको	-11.4624
▁ओभर	-11.4625
▁Store	-11.4626
▁developer	-11.4627
▁Johnson	-11.4628
▁चित्र	-11.4628
▁छाड	-11.4628
▁magical	-11.4629
▁अशोक	-11.4629
▁hotels	-11.4632
▁fi	-11.4632
▁!!!	-11.4632
▁01	-11.4632
▁qualify	-11.4636
▁entries	-11.4637
▁couch	-11.4639
sized	-11.4639
▁Tony	-11.464
▁overwhelming	-11.464
See	-11.4642
▁खोज्न	-11.4644
▁आइरहेको	-11.4647
▁Van	-11.4648
▁रूप	-11.4648
▁उपप्रधानमन्त्री	-11.4651
▁deny	-11.4652
LA	-11.4652
▁stops	-11.4655
▁बेल्जियम	-11.4658
OL	-11.4661
▁welfare	-11.4661
▁assumed	-11.4663
▁महान	-11.4663
▁moderate	-11.4663
▁publicly	-11.4664
▁Phil	-11.4664
▁acquire	-11.4666
्याउने	-11.4668
▁४७	-11.4669
▁printing	-11.4671
▁jumped	-11.4671
▁le	-11.4671
ches	-11.4671
▁pin	-11.4672
▁Ch	-11.4672
ku	-11.4673
▁फर	-11.4676
▁नकारात्मक	-11.4677
▁मावि	-11.4678
▁अधिकारीको	-11.4679
बारी	-11.468
▁वडाध्यक्ष	-11.468
▁diagnosis	-11.4682
▁अभियोगमा	-11.4683
▁obligation	-11.4684
▁Agency	-11.4685
▁woke	-11.4686
▁गठबन्धनको	-11.4689
▁carpet	-11.469
र्ष	-11.469
▁छठ	-11.469
▁अर्याल	-11.4691
wikipedia	-11.4691
▁establishment	-11.4693
▁Main	-11.4697
▁सिंहले	-11.4701
hr	-11.4705
▁stumbled	-11.4707
▁warming	-11.4707
▁लेखेका	-11.4707
▁conscious	-11.4708
▁1:	-11.4708
▁staring	-11.4708
▁बस्नेतले	-11.4709
▁Ministry	-11.4709
▁sequence	-11.4709
▁Following	-11.471
▁True	-11.4711
▁heating	-11.4714
▁travelling	-11.4714
▁प्रदर्शनी	-11.4716
नाम	-11.4716
test	-11.4717
▁नोभेम्बर	-11.4717
▁hiding	-11.4719
▁styles	-11.4719
▁क्रियाकलाप	-11.472
▁रुपैयाँको	-11.472
▁ब्याटिङ	-11.4721
▁strict	-11.4722
▁Protection	-11.4723
द्द	-11.4724
▁व्यवस्थापिका	-11.4724
Come	-11.4726
▁गोर्खा	-11.4726
▁knees	-11.4727
ाङ	-11.4727
▁networking	-11.4727
▁Port	-11.473
▁समाजका	-11.4732
Mo	-11.4733
▁साहित्यकार	-11.4733
PM	-11.4734
▁सहारा	-11.4735
▁Henry	-11.4736
iness	-11.4738
▁insights	-11.474
▁filing	-11.4741
▁clubs	-11.4744
▁stem	-11.4744
▁%	-11.4745
▁५३	-11.4747
▁चाहेको	-11.4748
▁western	-11.4749
▁Jersey	-11.4749
▁दिइने	-11.475
▁overnight	-11.4751
wide	-11.4751
▁हिमाली	-11.4753
▁गर्नुस्	-11.4753
▁determination	-11.4754
gra	-11.4756
▁चिन्ह	-11.4758
▁आत्म	-11.4761
▁नाच	-11.4762
▁cabin	-11.4762
▁inspire	-11.4762
▁Northern	-11.4763
▁Going	-11.4767
▁पाल	-11.4767
▁२०७०	-11.477
▁नृत्य	-11.477
▁upload	-11.4772
▁dispute	-11.4773
▁सर्वसाधारण	-11.4773
▁महासंघका	-11.4774
▁warrant	-11.4774
▁कार्यकाल	-11.4778
rie	-11.4779
▁साम	-11.4779
▁acquired	-11.478
▁reasonably	-11.4781
▁targets	-11.4782
▁उनीहरूलाई	-11.4784
ज्यू	-11.4785
▁advised	-11.4786
▁shocked	-11.4786
▁urge	-11.4787
▁बजेदेखि	-11.4787
▁clue	-11.4788
▁ignored	-11.479
गी	-11.4791
▁दशैँ	-11.4792
▁swim	-11.4793
▁आर्मी	-11.4793
▁sole	-11.4793
▁उपत्यकामा	-11.4795
56	-11.4795
▁Min	-11.4796
▁Apparently	-11.48
▁buried	-11.48
▁coal	-11.48
ony	-11.48
TE	-11.4801
▁dramatic	-11.4804
▁Char	-11.4804
▁representatives	-11.4805
▁संकट	-11.4808
TH	-11.4808
▁यसपटक	-11.4812
▁धेरैले	-11.4812
▁bat	-11.4813
▁एकपटक	-11.4813
▁बुधवार	-11.4814
▁timing	-11.4814
काठमाडौं	-11.4814
7.	-11.4816
▁प्रस्थान	-11.4816
सार	-11.4817
▁lens	-11.4817
▁denied	-11.4817
▁उप्रेती	-11.4819
▁honour	-11.4821
▁Irish	-11.4822
१३	-11.4824
▁listing	-11.4824
▁delete	-11.4825
▁Economic	-11.4825
▁nursing	-11.4825
▁wider	-11.4825
▁enabled	-11.4826
भाग	-11.4826
▁fluid	-11.4827
▁दूतावास	-11.4827
▁flexibility	-11.4829
rin	-11.4829
ination	-11.4832
▁पुस्ता	-11.4833
▁Moreover	-11.4833
▁appreciation	-11.4834
ash	-11.4834
▁cart	-11.4836
▁भैरहेको	-11.4838
▁Nations	-11.4838
▁delivering	-11.484
▁बुद्धि	-11.4841
▁instruction	-11.4842
▁prevention	-11.4842
▁rec	-11.4842
lt	-11.4844
▁विश्वमा	-11.4844
▁actor	-11.4845
▁meets	-11.4846
▁प्रशंसा	-11.4848
▁11,	-11.4848
▁काठमाडाैं	-11.485
▁सोध	-11.485
▁सङ्घीय	-11.485
▁Com	-11.4854
▁killer	-11.4858
▁खै	-11.4859
▁instances	-11.4859
▁tricks	-11.486
▁capabilities	-11.4861
▁friendship	-11.4862
▁दिनभित्र	-11.4863
▁चरित्र	-11.4864
▁cruise	-11.4864
67	-11.4864
▁Copyright	-11.4865
▁Lots	-11.4866
▁Nu	-11.487
len	-11.487
bu	-11.4871
▁harsh	-11.4872
▁मानिसहरू	-11.4872
▁handled	-11.4872
▁founded	-11.4873
▁नदीमा	-11.4873
▁६१	-11.4873
▁fond	-11.4874
▁beans	-11.4877
▁grocery	-11.4878
▁कार्यक्रमलाई	-11.4879
▁रोगको	-11.488
▁template	-11.488
▁''	-11.4881
▁भिडियोमा	-11.4882
▁SP	-11.4885
▁बाँके	-11.4886
▁hip	-11.4888
▁fed	-11.4888
च्च	-11.4889
▁केटा	-11.489
▁Ph	-11.489
watch	-11.4891
▁HE	-11.4891
▁नेपालीलाई	-11.4891
▁Roman	-11.4892
▁पक्का	-11.4893
▁passengers	-11.4899
▁गरिए	-11.49
गि	-11.4902
▁परिषद	-11.4902
▁अखिल	-11.4903
Ha	-11.4904
▁संस्थामा	-11.4904
97	-11.4906
▁prospect	-11.4906
▁Democratic	-11.4908
▁wire	-11.4909
Where	-11.4911
▁mere	-11.4912
ुहोला	-11.4913
▁Additionally	-11.4913
▁घुस	-11.4913
▁jam	-11.4916
46	-11.4916
du	-11.4919
▁Study	-11.4919
▁आकाश	-11.4923
▁प्रतिपक्षी	-11.4927
▁restore	-11.4928
ters	-11.4929
▁photograph	-11.4929
▁glory	-11.493
▁बुबा	-11.4931
42	-11.4931
aka	-11.4931
भु	-11.4932
▁कुटपिट	-11.4934
▁dealt	-11.4934
▁transformation	-11.4935
▁bored	-11.4936
▁अरुण	-11.4942
av	-11.4942
▁देखिन	-11.4943
▁hired	-11.4946
▁Louis	-11.4948
▁टिभी	-11.4948
▁ढकालले	-11.4949
▁खोल्नुहोस्	-11.4951
▁fantasy	-11.4952
▁रुपियाँ	-11.4952
▁बिल	-11.4953
▁थिएनन्	-11.4954
ern	-11.4958
▁सैन्य	-11.4959
ME	-11.4959
▁घुम	-11.496
▁नेपालबाट	-11.496
sive	-11.4961
▁attempted	-11.4963
▁SE	-11.4963
▁ugly	-11.4963
▁नसकिने	-11.4964
▁lap	-11.4965
▁प्रतिवद्धता	-11.4966
ीलाई	-11.4966
▁सङ्घ	-11.4967
IL	-11.4968
▁flour	-11.4969
▁Credit	-11.4969
eth	-11.4969
▁बरामद	-11.4971
▁बोल्ने	-11.4971
▁पक्कै	-11.4973
बजार	-11.4973
सर	-11.4976
▁burst	-11.4977
▁affects	-11.4977
▁Oct	-11.4978
gate	-11.4978
▁Member	-11.4979
lor	-11.498
▁virus	-11.498
pers	-11.4981
▁Almost	-11.4981
▁container	-11.4983
▁बिजनेस	-11.4983
▁retreat	-11.4984
▁lean	-11.4988
िर	-11.499
▁realistic	-11.4992
dom	-11.4993
▁narrative	-11.4993
▁Test	-11.4995
▁कोरियाको	-11.4999
▁panic	-11.4999
▁Must	-11.5001
▁दरबार	-11.5001
▁thorough	-11.5002
▁chemicals	-11.5002
▁जनाए	-11.5003
OS	-11.5003
ञ्च	-11.5004
▁(5)	-11.5004
lip	-11.5006
ld	-11.5008
▁Arts	-11.5008
▁ra	-11.501
sha	-11.501
▁speakers	-11.5014
▁अस्वीकार	-11.5014
▁लेखेर	-11.5015
je	-11.5015
▁meantime	-11.5019
▁intervention	-11.502
▁Line	-11.5021
▁चाहे	-11.5022
▁woods	-11.5022
ुक	-11.5024
▁discipline	-11.5024
▁धम्की	-11.5024
▁voices	-11.5025
char	-11.5025
▁बढुवा	-11.5026
▁सुत	-11.5027
▁Dick	-11.503
▁temperatures	-11.503
▁Bu	-11.5032
▁अलपत्र	-11.5033
ल्ल	-11.5034
▁regulatory	-11.5036
▁Bra	-11.5039
ans	-11.504
▁stranger	-11.504
▁realise	-11.504
Co	-11.5041
hood	-11.5042
▁सेन्ट्रल	-11.5042
▁तालमेल	-11.5043
Nepal	-11.5043
Le	-11.5045
▁Pen	-11.5046
▁Jackson	-11.5046
▁गर्छौं	-11.5046
्ता	-11.5047
▁बालबालिकाको	-11.5049
▁dirt	-11.505
▁ठेकेदार	-11.505
▁समस्याको	-11.5051
▁विष्ट	-11.5052
▁manufacturers	-11.5054
▁2014.	-11.5056
▁awarded	-11.5056
▁fe	-11.5057
▁bankruptcy	-11.5057
▁Charlie	-11.5057
ची	-11.5058
▁सिंगापुर	-11.5058
▁समुदायका	-11.5062
क्त	-11.5062
▁patent	-11.5064
▁युवक	-11.5065
्ट	-11.5067
68	-11.5068
पूर्वक	-11.5069
▁जिप	-11.5069
▁स्पेन	-11.5069
▁concluded	-11.507
▁असल	-11.5072
MENT	-11.5074
▁सकेनन्	-11.5075
▁combine	-11.5076
▁कृपया	-11.5076
▁Otherwise	-11.5078
▁पन्तको	-11.5079
▁sweat	-11.5081
▁awards	-11.5081
▁इन्स्योरेन्स	-11.5082
▁sisters	-11.5082
▁deciding	-11.5083
▁तीज	-11.5083
▁contemporary	-11.5084
▁drag	-11.5084
▁olive	-11.5086
▁newsletter	-11.5091
▁बृद्धि	-11.5092
▁जुम्ला	-11.5092
pri	-11.5096
vers	-11.5097
२१	-11.51
▁diagnosed	-11.5101
▁Jeff	-11.5102
lie	-11.5102
▁resulted	-11.5103
समक्ष	-11.5104
▁अन्त	-11.5105
▁बार	-11.5105
▁मनाउन	-11.5107
▁Gi	-11.5107
▁संविधानले	-11.5107
▁arise	-11.5108
▁Within	-11.5109
▁Figure	-11.5111
▁गरिबी	-11.5111
▁treasure	-11.5112
▁́	-11.5113
▁Meeting	-11.5113
▁चेतना	-11.5114
▁अवधारणा	-11.5115
▁1000	-11.5116
▁bull	-11.5118
▁बै	-11.5118
74	-11.5119
▁राष्ट्रियता	-11.512
zi	-11.5121
-20	-11.5122
▁लगत्तै	-11.5124
▁नायब	-11.5126
American	-11.5126
▁inspection	-11.5127
▁छोडेर	-11.5127
Look	-11.5128
▁preserve	-11.513
▁fails	-11.5133
▁Jason	-11.5134
ched	-11.5134
▁disabled	-11.5134
▁hint	-11.5134
▁15,	-11.5137
▁initiatives	-11.514
▁उता	-11.514
DA	-11.5142
tz	-11.5142
▁सरोकारवाला	-11.5142
try	-11.5145
▁चालू	-11.5145
ese	-11.5146
▁shout	-11.5146
थि	-11.5147
5,000	-11.515
::	-11.5151
▁clip	-11.5152
▁globe	-11.5153
▁magnificent	-11.5153
▁gratitude	-11.5154
िको	-11.5155
▁apologize	-11.5155
▁fifth	-11.5155
200	-11.5155
▁बलमा	-11.5159
▁11.	-11.516
▁violation	-11.516
▁flesh	-11.5162
▁su	-11.5163
▁graphic	-11.5163
▁OS	-11.5164
▁भुटान	-11.5165
AC	-11.5166
▁लगाइएको	-11.5166
▁दमक	-11.5167
▁Cost	-11.5168
▁arrangement	-11.5168
▁boards	-11.5168
▁kindness	-11.5169
▁Vol	-11.517
सको	-11.5171
cus	-11.5172
▁पोल	-11.5173
▁अफगानिस्तान	-11.5175
pon	-11.5177
२०७५	-11.5177
▁movements	-11.5178
▁राष्ट्रपतिको	-11.5179
▁रोजगारीका	-11.5179
▁boots	-11.5181
▁tune	-11.5181
▁speaks	-11.5184
▁viewed	-11.5185
tel	-11.5187
हल	-11.5188
▁cooperation	-11.5189
fall	-11.519
▁hesitate	-11.5192
▁39	-11.5192
▁विशिष्ट	-11.5193
▁disabilities	-11.5194
▁finishing	-11.5195
▁अधिकारको	-11.5195
person	-11.5197
▁scar	-11.52
▁सुनाए	-11.5202
vol	-11.5206
▁Rather	-11.5206
▁Annual	-11.5207
▁desktop	-11.5209
▁चितवनको	-11.521
▁विशाल	-11.5211
▁reviewed	-11.5211
ँदा	-11.5211
▁Years	-11.5211
▁फुल	-11.5212
▁महत्त्वपूर्ण	-11.5213
▁abortion	-11.5214
vis	-11.5217
▁प्रारम्भ	-11.5218
▁condo	-11.5218
▁Eric	-11.522
▁bump	-11.5221
▁pretend	-11.5222
▁accompanied	-11.5222
▁trace	-11.5222
▁भेटिएको	-11.5225
ius	-11.5225
▁relaxed	-11.5226
▁Asian	-11.5227
▁ब्याज	-11.523
▁बुवा	-11.5231
▁universal	-11.5231
▁लेखनाथ	-11.5234
▁बर्	-11.5234
▁suggesting	-11.5234
fu	-11.5236
▁उत्तिकै	-11.5238
▁काभ्रे	-11.5238
२९	-11.524
न्न	-11.5243
▁नर	-11.5243
▁Fox	-11.5245
्ती	-11.5246
▁supporters	-11.5246
▁विक	-11.5247
▁संस्थान	-11.5247
ella	-11.525
▁drives	-11.525
▁देउवाको	-11.5251
▁hi	-11.5253
▁automatic	-11.5254
▁leather	-11.5254
▁यसकारण	-11.5255
मर	-11.5255
▁गर्दछन्	-11.5257
▁gr	-11.5257
▁odds	-11.5259
high	-11.526
▁रौतहट	-11.5264
▁scam	-11.5265
▁नदिन	-11.5267
▁wrapped	-11.5269
टन	-11.527
▁continuous	-11.5271
▁cooked	-11.5272
मुक्त	-11.5273
▁सहसचिव	-11.5274
):.	-11.5275
ेशन	-11.5276
▁tale	-11.5276
▁junk	-11.5276
looking	-11.5278
▁मोदीको	-11.5278
सक्ने	-11.5278
पाल	-11.5279
▁बिमा	-11.5279
▁loop	-11.5279
▁references	-11.5279
▁शुक्रवार	-11.5283
▁औषधी	-11.5287
gan	-11.5287
▁संवाददाता	-11.5289
▁collective	-11.529
▁पदार्थको	-11.529
▁alongside	-11.5291
लगत्तै	-11.5292
▁symbol	-11.5294
▁स्वास्थ्यमा	-11.5294
ular	-11.5295
▁Isn	-11.5298
lit	-11.5299
▁जनवरी	-11.5303
चन	-11.5305
▁differ	-11.5306
yn	-11.5307
▁नेकपाका	-11.5307
▁हावा	-11.5308
▁ch	-11.5308
▁Major	-11.5309
▁accommodate	-11.5309
▁Kevin	-11.5309
CO	-11.5311
▁2019	-11.5311
▁disappeared	-11.5311
▁मात्रा	-11.5312
▁$6	-11.5313
▁blank	-11.5313
▁नवलपरासी	-11.5314
▁धु	-11.5316
▁km	-11.5316
▁Story	-11.5317
▁बराबर	-11.5317
▁spectacular	-11.5317
89	-11.5317
▁pets	-11.5319
▁indication	-11.532
link	-11.5321
▁excessive	-11.5322
space	-11.5322
र्थ	-11.5323
▁Pacific	-11.5324
▁arrange	-11.5324
▁opens	-11.5325
▁राजु	-11.5325
▁एन्ड्रोइड	-11.533
▁Bring	-11.533
▁>>	-11.533
▁बानेश्वर	-11.5331
▁रसुवा	-11.5332
▁placing	-11.5332
▁चरम	-11.5333
▁yield	-11.5334
▁Image	-11.5335
▁कम्तिमा	-11.5335
▁ho	-11.5335
▁licensed	-11.5337
▁मोदीले	-11.5341
als	-11.5342
▁min	-11.5344
73	-11.5348
▁थापाथली	-11.5349
चित	-11.5351
▁शि	-11.5352
press	-11.5352
▁Rob	-11.5354
▁Cancel	-11.5355
▁भएकै	-11.5355
▁offensive	-11.5356
▁devil	-11.5356
▁waves	-11.5358
500	-11.5358
▁उत्तम	-11.5359
▁घाईते	-11.5361
▁1999	-11.5362
▁16,	-11.5365
▁बोकेको	-11.5365
्दैन	-11.5366
▁grip	-11.5366
▁progressive	-11.5367
▁shine	-11.5369
▁17,	-11.5369
▁st	-11.5371
▁देखाउने	-11.5372
▁किरण	-11.5372
▁सेवाग्राही	-11.5374
▁निकुञ्ज	-11.5375
▁सिन्धुपाल्चोक	-11.5377
aging	-11.5377
▁certified	-11.5377
▁Email	-11.5377
्जा	-11.538
▁परिसर	-11.5381
०००	-11.5382
ax	-11.5383
▁governor	-11.5384
▁brush	-11.5384
▁दिनेश	-11.5384
▁चाड	-11.5385
▁captured	-11.5385
▁भोली	-11.5386
▁गुम	-11.5387
▁actors	-11.5387
▁seed	-11.5389
▁Congratulations	-11.5389
▁composition	-11.5389
▁accidents	-11.539
िमा	-11.539
▁Shi	-11.5391
lot	-11.5392
▁icon	-11.5392
▁Pet	-11.5392
▁achievement	-11.5393
▁temple	-11.5393
▁एसियाली	-11.5394
▁आत्मनिर्भर	-11.5394
▁Mag	-11.5395
▁ताप्लेजुङ	-11.5396
▁भविष्यमा	-11.5397
▁awkward	-11.5399
अप	-11.54
▁recommendation	-11.5401
▁कम्पनीका	-11.5403
▁texture	-11.5406
▁बढिरहेको	-11.5406
▁fortunate	-11.5408
pl	-11.541
▁→	-11.541
▁पावर	-11.541
▁rep	-11.5411
▁रहनु	-11.5412
scale	-11.5415
bed	-11.5416
▁निक्षेप	-11.5417
▁Halloween	-11.5419
▁रोकिएको	-11.5419
▁कस्ता	-11.5423
▁भइसकेका	-11.5425
▁Select	-11.5427
▁आयल	-11.5427
▁None	-11.543
क्षा	-11.543
▁वायु	-11.543
इन	-11.5433
▁शाक्य	-11.5433
▁Ann	-11.5433
▁औसत	-11.5433
oy	-11.5438
▁wireless	-11.5438
▁anytime	-11.5439
▁Furthermore	-11.544
▁७८	-11.5444
▁reverse	-11.5445
▁आवद्ध	-11.5446
▁Except	-11.5446
▁assure	-11.5447
▁rational	-11.5447
▁बनेर	-11.5448
ute	-11.5449
▁जित्ने	-11.5449
▁Usually	-11.545
tes	-11.5451
▁medications	-11.5451
▁यि	-11.5453
▁बनायो	-11.5453
▁factory	-11.5454
▁बनाउँछ	-11.5455
▁forgive	-11.5457
▁साहित्यिक	-11.5457
▁Festival	-11.5459
key	-11.546
▁strengthen	-11.5461
▁instruments	-11.5461
▁टिका	-11.5462
▁Type	-11.5462
▁रेग्मी	-11.5462
▁सुरुमा	-11.5463
▁कार्यदल	-11.5463
86	-11.5465
▁oldest	-11.5465
▁फुटबलको	-11.5465
▁बेनी	-11.5466
was	-11.5467
▁अमेरिकाले	-11.5468
▁6,	-11.5468
EL	-11.547
▁effectiveness	-11.547
▁प्रोत्साहन	-11.547
▁(4	-11.5471
▁क्षतिपूर्ति	-11.5474
▁रुख	-11.5474
▁indicates	-11.5474
▁treating	-11.5474
▁bench	-11.5476
▁logical	-11.5478
mg	-11.5479
▁भारी	-11.5479
▁Governor	-11.548
▁transform	-11.5482
bling	-11.5482
▁artificial	-11.5482
▁Buy	-11.5482
▁Hiya	-11.5483
▁विनोद	-11.5483
▁माटो	-11.5485
craft	-11.5487
▁Wait	-11.5487
▁wings	-11.5488
▁useless	-11.549
▁सापकोटा	-11.5493
▁महानिरीक्षक	-11.5493
lee	-11.5494
▁candy	-11.5496
▁ख्याल	-11.5496
▁अस्पतालका	-11.5496
▁keyboard	-11.5496
वर्ष	-11.5497
▁ruling	-11.5499
▁अचम्म	-11.5499
▁कार्यक्रमहरु	-11.55
▁बिचार	-11.5502
▁गौतमले	-11.5502
ole	-11.5505
▁योग्यता	-11.5506
▁£1	-11.5507
▁खस	-11.5507
▁aggressive	-11.5508
▁स्क	-11.5509
▁2015,	-11.551
76	-11.5511
▁तल्लो	-11.5511
▁bones	-11.5511
▁interactive	-11.5512
Is	-11.5512
▁distinct	-11.5513
▁उहाँका	-11.5513
service	-11.5514
▁रोचक	-11.5514
▁विकसित	-11.5515
▁प्रचण्डको	-11.5515
▁तस्विर	-11.5517
MS	-11.5519
▁रोपनी	-11.5519
▁श्रीलंका	-11.5521
▁placement	-11.5524
▁अनुवाद	-11.5525
pin	-11.5525
ending	-11.5525
▁loading	-11.5527
▁ट्र	-11.5528
▁सार्बजनिक	-11.5529
ब्	-11.5529
▁Tour	-11.553
▁mild	-11.553
▁Complete	-11.5534
▁Write	-11.5535
▁दसैं	-11.5538
▁Often	-11.5538
▁44	-11.5539
▁मन्त्रिपरिषद्को	-11.5539
▁राज्यमन्त्री	-11.5541
ोट	-11.5541
▁Dream	-11.5541
▁emerging	-11.5545
▁Student	-11.5545
▁hospitals	-11.5546
▁podcast	-11.5547
▁तब	-11.5551
▁सहमत	-11.5551
▁thrilled	-11.5554
खोला	-11.5554
62	-11.5554
▁अप्रिल	-11.5555
▁rocks	-11.5555
▁MP	-11.5557
face	-11.5557
ada	-11.5559
▁जान्न	-11.5559
▁alleged	-11.5561
On	-11.5561
▁सुदूरपश्चिम	-11.5561
▁प्रतिस्पर्धी	-11.5562
टार	-11.5562
▁Ohio	-11.5564
▁cock	-11.5565
▁भ्रमणको	-11.5566
प्	-11.5566
ening	-11.5568
▁Kids	-11.5568
▁scratch	-11.5568
▁रहस्य	-11.5572
▁HIV	-11.5573
▁कपिलवस्तु	-11.5575
▁चाप	-11.5576
▁रहर	-11.5576
▁duration	-11.5577
▁नत्र	-11.5577
);	-11.5579
एफ	-11.5581
▁tri	-11.5584
Ah	-11.5584
▁नेपालगन्ज	-11.5584
▁निम्न	-11.5586
▁Si	-11.5587
▁pause	-11.5588
▁wooden	-11.5588
▁ju	-11.5589
▁जसका	-11.559
हरुसँग	-11.5591
▁13,	-11.5593
▁चितवनमा	-11.5593
▁scrap	-11.5594
▁महानगर	-11.5594
▁नवराज	-11.5595
▁Hollywood	-11.5596
▁Link	-11.5598
▁Nature	-11.5599
▁knowledgeable	-11.5601
▁2016,	-11.5601
विद्	-11.5602
▁competitors	-11.5602
▁रह	-11.5603
▁Professor	-11.5603
▁basketball	-11.5604
▁चित्त	-11.5605
▁कुकुर	-11.5605
▁चर्को	-11.5605
▁चौकी	-11.5606
▁दिदै	-11.5606
▁Hell	-11.5606
▁ग्लोबल	-11.5607
▁विशेषता	-11.5609
▁ठाकुर	-11.5611
▁workshops	-11.5612
▁आउँदो	-11.5613
▁सधै	-11.5614
▁श्रमिक	-11.5614
▁त्यसरी	-11.5615
▁timely	-11.5616
ेली	-11.5616
▁centuries	-11.5617
▁happier	-11.562
▁सुरक्षाको	-11.5621
▁quest	-11.5622
▁AN	-11.5622
▁oral	-11.5623
after	-11.5624
▁dropping	-11.5624
▁शून्य	-11.5626
▁गर्थे	-11.5627
▁खडा	-11.5628
▁assuming	-11.5629
▁convention	-11.563
▁sacrifice	-11.5632
▁था	-11.5634
▁अडान	-11.5636
az	-11.5636
▁prescribed	-11.5636
tch	-11.5636
▁भन्नुहुन्छ	-11.564
▁नेपालगञ्ज	-11.5642
▁बढ्छ	-11.5642
▁अत्यन्तै	-11.5643
under	-11.5644
las	-11.5644
▁southern	-11.5644
any	-11.5645
▁क्रान्तिकारी	-11.5645
▁राम्रै	-11.5646
ye	-11.5647
▁प्रो	-11.5648
▁measured	-11.5648
▁श्रीमान्	-11.565
▁पुलिस	-11.5652
▁परिचयपत्र	-11.5653
▁चौधरीले	-11.5653
▁Provide	-11.5653
▁sneak	-11.5653
▁आकार	-11.5654
▁सधैँ	-11.5654
▁७७	-11.5655
▁couples	-11.5656
hin	-11.5656
मिन	-11.5659
▁deemed	-11.566
▁त्रिवि	-11.5661
▁acceptance	-11.5661
berg	-11.5661
▁heal	-11.5662
▁Price	-11.5664
चर	-11.5664
म्बर	-11.5664
▁योग्य	-11.5664
▁integration	-11.5667
away	-11.5668
▁purchases	-11.567
▁मुस्ताङ	-11.5671
▁5-	-11.5672
▁पण्डित	-11.5673
self	-11.5674
struct	-11.5675
▁पूरै	-11.5678
▁Overall	-11.568
▁Disney	-11.568
▁disc	-11.5682
▁theatre	-11.5682
▁MY	-11.5683
▁ministry	-11.5687
ीक	-11.5688
too	-11.5689
▁गतिमा	-11.5692
▁solely	-11.5693
7%	-11.5693
-7	-11.5697
51	-11.5697
▁PDF	-11.5698
▁applicant	-11.5698
▁educated	-11.57
▁admission	-11.5701
▁authentic	-11.5702
▁विदा	-11.5702
▁tower	-11.5702
▁अर्थतन्त्र	-11.5704
▁SA	-11.5705
▁sometime	-11.5706
पर्	-11.5708
▁wound	-11.5708
now	-11.5709
▁observation	-11.5709
▁2017,	-11.5714
▁advocate	-11.5716
▁spec	-11.5719
▁बोर्डले	-11.572
▁buyer	-11.572
▁seal	-11.572
78	-11.5723
▁jurisdiction	-11.5723
चे	-11.5725
▁Dark	-11.5726
▁Par	-11.5726
▁grey	-11.5726
▁sounded	-11.5727
▁romance	-11.5728
▁HERE	-11.5729
▁mutual	-11.573
▁परम्परागत	-11.5731
▁टोल	-11.5733
▁frustration	-11.5733
▁Seriously	-11.5733
▁९५	-11.5734
▁altogether	-11.5734
▁कट	-11.5735
▁Te	-11.5736
▁विश्वको	-11.5736
verse	-11.5738
▁Third	-11.5741
▁sl	-11.5741
ुल	-11.5742
▁२०१४	-11.5742
▁कसको	-11.5743
▁crop	-11.5743
▁basket	-11.5743
▁Muslim	-11.5744
▁समारोह	-11.5745
63	-11.5746
▁फस	-11.5747
▁beef	-11.5749
gger	-11.575
▁पाँचथर	-11.575
▁दफा	-11.5753
sk	-11.5754
▁विश्वकपमा	-11.5756
▁centers	-11.5756
▁युग	-11.5757
▁unnecessary	-11.5757
▁Organization	-11.5757
▁painted	-11.5758
▁विकेटले	-11.5761
▁चाहिने	-11.5761
▁५००	-11.5763
▁पर्नेछ	-11.5763
range	-11.5763
▁disappear	-11.5763
▁affair	-11.5764
▁Ac	-11.5765
▁बनाइ	-11.5766
▁subscribe	-11.5766
▁faithful	-11.5766
▁जीप	-11.5768
▁refers	-11.5768
दन	-11.5769
?)	-11.5769
▁».	-11.577
▁deserves	-11.5772
▁Professional	-11.5773
▁kingdom	-11.5774
▁ढुक्क	-11.5774
▁30,	-11.5774
▁2013.	-11.5775
87	-11.5776
▁सम्मको	-11.5776
▁checks	-11.5777
▁निर्णायक	-11.5778
▁आन्दोलनका	-11.5778
बो	-11.5781
▁दरले	-11.5782
69	-11.5782
▁दिदी	-11.5783
▁balanced	-11.5783
▁गर्मी	-11.5784
▁हुनुभएको	-11.5784
▁Vo	-11.5785
▁wing	-11.5785
96	-11.5787
▁यसबारे	-11.5788
▁breach	-11.5791
▁intimate	-11.5793
▁hurry	-11.5794
मुखी	-11.5794
▁wages	-11.5796
▁wore	-11.5797
▁mouse	-11.5798
wn	-11.5799
▁फाल्गुन	-11.58
▁wins	-11.5801
▁bands	-11.5801
▁Division	-11.5803
▁lazy	-11.5804
▁Rome	-11.5809
▁authorized	-11.581
▁removing	-11.5813
▁va	-11.5814
▁बित	-11.5814
▁racing	-11.5815
La	-11.5821
▁owe	-11.5822
▁stability	-11.5822
▁terror	-11.5822
▁अनियमितता	-11.5824
®	-11.5824
▁विनिमय	-11.5824
▁financing	-11.5826
▁washing	-11.5828
▁14,	-11.5829
▁spam	-11.583
▁बजेर	-11.583
IA	-11.5833
ect	-11.5834
word	-11.5835
▁sons	-11.5838
▁configuration	-11.5838
▁frozen	-11.5839
ेन्स	-11.5841
▁reveals	-11.5842
▁रेलमार्ग	-11.5843
RO	-11.5845
▁६२	-11.5845
▁कोठामा	-11.5847
▁Officer	-11.5847
ाइरहेको	-11.5849
▁segment	-11.5849
▁feeding	-11.5852
२०७४	-11.5852
▁arranged	-11.5853
▁considerably	-11.5854
▁limitations	-11.5855
▁Imagine	-11.5857
▁श्याम	-11.5857
Ho	-11.5857
▁दान	-11.5859
▁corporation	-11.5861
▁easiest	-11.5861
▁involvement	-11.5861
▁लालबाबु	-11.5862
▁दोष	-11.5864
NC	-11.5866
▁चुनावको	-11.5866
position	-11.5866
▁arch	-11.5867
▁pale	-11.5868
▁cave	-11.5868
▁12,	-11.5868
ियन	-11.5873
fo	-11.5873
▁mate	-11.5874
other	-11.5878
▁कृषक	-11.5881
वटा	-11.5881
▁विक्रम	-11.5883
▁abandoned	-11.5884
▁रहेछन्	-11.5884
▁practically	-11.5884
▁confirmation	-11.5885
▁पठाउनु	-11.5888
▁अस्ट्रेलिया	-11.5889
▁mod	-11.589
▁adorable	-11.5891
▁holy	-11.5892
▁गुट	-11.5893
til	-11.5894
▁circuit	-11.5895
▁7,	-11.5896
▁दिएपछि	-11.5896
▁mainstream	-11.5897
▁मिलाउन	-11.5898
▁ध्यानमा	-11.5899
▁Update	-11.59
▁रुपैयाँमा	-11.5902
▁elderly	-11.5903
▁२००	-11.5904
ison	-11.5904
▁६८	-11.5905
▁suite	-11.5906
ीन	-11.5906
▁Hand	-11.5907
▁regarded	-11.5907
▁बिषय	-11.5907
▁Heaven	-11.5908
सुन	-11.5908
▁sigh	-11.5909
▁गएपछि	-11.5909
▁compound	-11.5912
▁repairs	-11.5912
▁corporations	-11.5916
▁naked	-11.5919
▁insane	-11.5921
▁→.	-11.5922
▁Elizabeth	-11.5922
▁आरोहण	-11.5922
Did	-11.5923
TC	-11.5924
लिन	-11.5926
▁scores	-11.5928
सबै	-11.5928
▁franchise	-11.5928
▁($	-11.5929
88	-11.593
▁सर्वेक्षण	-11.593
▁Clean	-11.5931
▁$50	-11.5932
▁जीवनका	-11.5933
your	-11.5933
▁legally	-11.5934
▁extract	-11.5935
▁बैङ्क	-11.5935
(1)	-11.5936
▁balls	-11.5936
▁tissue	-11.5937
ami	-11.5938
▁FA	-11.5939
▁ल्याए	-11.594
▁विरोधमा	-11.5941
▁distributed	-11.5941
▁चौ	-11.5942
▁poem	-11.5943
▁graphics	-11.5943
▁Easy	-11.5944
▁independence	-11.5944
▁८५	-11.5946
pped	-11.5947
▁achieving	-11.5949
▁कर्तव्य	-11.595
▁लड	-11.595
▁acquisition	-11.5951
▁दिँदा	-11.5952
▁दौड	-11.5956
▁SC	-11.5956
▁highway	-11.5957
▁NY	-11.5957
▁ठक्कर	-11.5958
▁मानिसलाई	-11.5958
▁हमला	-11.5959
▁fears	-11.596
▁skip	-11.5961
▁fifteen	-11.5961
▁tourist	-11.5961
िनी	-11.5963
▁डोनाल्ड	-11.5964
▁पारिवारिक	-11.5964
rest	-11.5965
पूर्व	-11.5969
▁जातीय	-11.597
▁सुरेन्द्र	-11.5975
▁समावेशी	-11.5975
ट्टा	-11.5977
▁सन	-11.5978
▁Yu	-11.598
▁screw	-11.598
pp	-11.598
▁inflation	-11.5981
▁प्रयत्न	-11.5982
▁Colorado	-11.5982
▁prominent	-11.5985
▁लाग्दा	-11.5985
▁बिरामीको	-11.5986
-8	-11.5988
▁donation	-11.5989
round	-11.5989
▁Answer	-11.5991
▁सिजन	-11.5992
▁Garden	-11.5992
▁प्रतिपक्ष	-11.5993
▁Jordan	-11.5994
▁brick	-11.5996
▁दैनिकमा	-11.5997
,500	-11.5998
▁hence	-11.5999
▁Stone	-11.5999
ulation	-11.6
▁declare	-11.6
▁पछी	-11.6
▁प्राथमिक	-11.6003
▁नेताको	-11.6003
▁श्रीमान	-11.6007
▁curriculum	-11.6008
ically	-11.6009
rt	-11.601
▁flip	-11.601
cro	-11.6011
will	-11.6011
▁Camp	-11.6011
▁वान	-11.6011
▁एक्स	-11.6012
▁सामेल	-11.6021
▁Experience	-11.6022
▁शहीद	-11.6022
▁screening	-11.6023
lay	-11.6023
▁detect	-11.6027
▁exceed	-11.6032
▁4-	-11.6032
▁आचार्यले	-11.6033
▁संविधानमा	-11.6033
▁महतो	-11.6034
न्द्र	-11.6036
rich	-11.6037
▁एसपी	-11.6037
▁Mu	-11.6038
ston	-11.6039
▁निकायको	-11.6042
▁Dear	-11.6044
▁churches	-11.6045
▁rape	-11.6046
बास	-11.6047
▁तिर्न	-11.6048
▁बाह्य	-11.6048
▁आफुले	-11.6048
▁देखे	-11.6049
्नुपर्छ	-11.605
▁Portal	-11.605
Please	-11.6051
▁compelling	-11.6051
79	-11.6052
▁cloth	-11.6053
Com	-11.6054
lf	-11.6054
inch	-11.6054
hole	-11.6054
▁focuses	-11.6055
▁transmission	-11.6056
▁folder	-11.6056
Lo	-11.6056
▁Capital	-11.6058
▁Mel	-11.6059
▁forums	-11.6059
▁20,	-11.6059
▁themes	-11.6061
▁cares	-11.6061
▁Ju	-11.6062
▁शा	-11.6062
▁assignment	-11.6062
▁ज्येष्ठ	-11.6063
संगै	-11.6063
▁भलिबल	-11.6064
▁ruin	-11.6064
▁exclaimed	-11.6067
शु	-11.6067
▁शाहले	-11.6068
▁छायांकन	-11.6068
▁charm	-11.6068
▁अन्तरिम	-11.6068
mate	-11.6069
▁neighbor	-11.6071
▁lemon	-11.6074
▁मन्दिरमा	-11.6075
▁Short	-11.6077
▁बढीको	-11.6078
▁poetry	-11.6078
▁emotion	-11.6079
▁Moon	-11.608
▁प्राधिकरणका	-11.6082
▁च्याम्पियनसिप	-11.6083
oma	-11.6085
िदै	-11.6086
▁Joseph	-11.6087
▁Judge	-11.6088
▁Eastern	-11.609
▁separated	-11.6091
उप	-11.6092
▁clause	-11.6095
▁७१	-11.6095
▁बिषयमा	-11.6095
▁whispered	-11.6096
▁निर्धारित	-11.6096
▁Kong	-11.6096
etic	-11.6099
४०	-11.6099
▁mechanism	-11.6102
▁:-).	-11.6103
▁स्वदेशी	-11.6105
▁शौचालय	-11.6106
zy	-11.6106
▁modify	-11.6106
▁designated	-11.6107
▁operator	-11.6109
▁§	-11.611
▁उज्यालो	-11.6112
have	-11.6113
ाहा	-11.6113
lies	-11.6114
▁सोमवार	-11.6114
bound	-11.6119
▁रक्सी	-11.6124
oldid	-11.6124
▁Fortunately	-11.6125
▁tooth	-11.6125
▁daughters	-11.6128
▁harmful	-11.6129
▁jury	-11.613
▁Made	-11.613
▁अक्टोबर	-11.6132
▁Pick	-11.6132
▁overseas	-11.6133
▁conventional	-11.6138
▁Ray	-11.6138
▁(1).	-11.614
92	-11.614
▁homework	-11.6144
vy	-11.6144
▁enables	-11.6145
▁बधाई	-11.6146
▁drain	-11.6148
▁visitor	-11.6149
▁addressing	-11.615
▁verify	-11.615
6%	-11.6151
▁सवार	-11.6152
card	-11.6152
▁photographer	-11.6154
▁जाडो	-11.6157
▁threatened	-11.6159
▁Israeli	-11.6163
▁रोजगारीको	-11.6163
▁बाम	-11.6163
▁ethical	-11.6164
▁समाचारहरु	-11.6166
▁attacked	-11.6166
▁छापा	-11.6166
▁auction	-11.6168
▁operational	-11.6169
▁Ram	-11.6169
▁chamber	-11.6169
▁certification	-11.617
▁creatures	-11.617
▁underlying	-11.6171
ses	-11.6171
▁2018,	-11.6171
▁discrimination	-11.6173
त्ति	-11.6174
▁makeup	-11.6174
▁shade	-11.6174
▁colours	-11.6176
▁incorporate	-11.6182
▁Members	-11.6183
▁transferred	-11.6184
ष्ठ	-11.6184
▁Kate	-11.6185
▁casual	-11.6185
▁Six	-11.6188
▁खालका	-11.619
नका	-11.619
▁Bas	-11.619
▁Speaking	-11.6191
▁पारेका	-11.6192
▁shed	-11.6197
▁consciousness	-11.6199
▁priest	-11.6201
▁ब्यक्ति	-11.6202
▁पर्यटकको	-11.6203
▁clo	-11.6204
▁frequency	-11.6204
▁19,	-11.6204
71	-11.6205
केट	-11.6207
▁approached	-11.6207
91	-11.6208
घात	-11.6209
▁नक्सा	-11.6209
elle	-11.621
▁cur	-11.621
▁Friends	-11.621
▁प्रज्ञा	-11.6213
▁पुग्दा	-11.6214
82	-11.6215
▁64	-11.6216
▁exhibit	-11.6216
▁dessert	-11.6217
▁forty	-11.6218
del	-11.6218
▁dedication	-11.6219
▁relatives	-11.622
▁damages	-11.6223
ङ्क	-11.6224
▁Mal	-11.6225
▁विद्यार्थीले	-11.6226
▁functionality	-11.6227
dies	-11.6228
▁Later	-11.6229
▁claiming	-11.6229
screen	-11.6231
▁पुस्तकालय	-11.6232
▁उठाउने	-11.6232
त्मक	-11.6233
▁संसारमा	-11.6233
▁locate	-11.6234
▁Studies	-11.6234
▁sheep	-11.6235
▁खानेकुरा	-11.6241
▁utilize	-11.6243
?).	-11.6243
▁engineer	-11.6244
▁Early	-11.6244
▁grabbed	-11.6245
▁1998	-11.6246
▁bacteria	-11.6247
▁justify	-11.625
300	-11.625
▁eaten	-11.6251
▁midst	-11.6252
▁licence	-11.6252
▁Jon	-11.6253
▁proposals	-11.6253
▁samples	-11.6254
€	-11.6255
▁चे	-11.6257
▁बैतडी	-11.6257
▁Shop	-11.6259
▁एन्ड	-11.626
very	-11.626
▁contributed	-11.6261
रिक	-11.6263
▁राजकुमार	-11.6265
▁भे	-11.6266
▁agreements	-11.6267
▁plugin	-11.6267
▁जानुहोस्	-11.6268
▁Mill	-11.6268
▁महासंघको	-11.627
▁overview	-11.627
▁नेपालीहरुको	-11.6272
▁debut	-11.6272
▁प्रशस्त	-11.6275
▁neuro	-11.6276
oid	-11.6277
▁पिता	-11.6278
▁potatoes	-11.6278
IM	-11.6278
▁1,000	-11.6279
▁Perfect	-11.6281
▁लुक	-11.6283
▁sectors	-11.6283
▁Williams	-11.6283
▁invested	-11.6285
▁cha	-11.6286
▁soap	-11.6287
▁Natural	-11.6288
▁tactics	-11.6289
▁चामल	-11.6292
▁41	-11.6296
▁2012.	-11.6297
▁मूल्यांकन	-11.6298
▁liver	-11.6298
ington	-11.6299
्व	-11.63
▁creature	-11.6301
▁Country	-11.6302
▁€	-11.6302
▁worries	-11.6303
▁2:	-11.6303
▁तौल	-11.6303
▁म्यान	-11.6303
▁सृजना	-11.6304
मय	-11.6304
▁Stephen	-11.6304
ेन्ट	-11.6305
▁प्रकोप	-11.6306
▁implications	-11.6308
▁5,	-11.6308
ऊ	-11.6309
▁उपयोगी	-11.631
▁towns	-11.631
▁earnings	-11.6312
nie	-11.6313
▁दास	-11.6314
▁$20	-11.6315
▁AC	-11.6316
▁beast	-11.6317
▁Convention	-11.6317
▁फिट	-11.6318
▁तत्व	-11.632
▁Tea	-11.632
▁shy	-11.632
▁छाला	-11.6323
▁Win	-11.6324
परराष्ट्रमन्त्री	-11.6324
▁Run	-11.6325
▁newest	-11.6327
▁alternatives	-11.6327
▁iPad	-11.6328
▁Foreign	-11.6329
▁breathe	-11.6332
▁guides	-11.6333
▁Mass	-11.6334
▁alike	-11.6335
▁उपचारको	-11.6337
▁qualities	-11.634
▁dentist	-11.6342
▁निको	-11.6344
▁ठिक	-11.6344
ifying	-11.6344
▁उपप्रमुख	-11.6345
▁Je	-11.6346
▁नमूना	-11.6346
▁Sky	-11.6346
चीन	-11.6346
▁ढाँचा	-11.6347
▁समस्यामा	-11.6347
▁technological	-11.6348
रुप	-11.6348
लले	-11.6349
▁rejected	-11.6349
most	-11.6351
▁Nobody	-11.6352
▁stamp	-11.6353
▁साथीहरु	-11.6354
▁gallery	-11.6354
▁भीम	-11.6355
▁inventory	-11.6356
▁अवस्थित	-11.6356
hal	-11.636
▁समृद्धिका	-11.6362
▁करिव	-11.6363
क्सन	-11.6365
▁Bridge	-11.6365
▁stack	-11.6366
▁आश	-11.6366
▁लेख्नुहोस्	-11.6367
▁alter	-11.6367
because	-11.6368
▁champion	-11.6368
▁stared	-11.6369
▁सर्लाही	-11.637
▁बल्ल	-11.637
▁bless	-11.637
cap	-11.637
▁organize	-11.6374
▁URL	-11.6377
▁beloved	-11.6378
▁देशले	-11.6379
▁Personally	-11.6379
▁priorities	-11.6382
▁Pass	-11.6382
▁Baby	-11.6384
▁undoubtedly	-11.6385
order	-11.6387
▁ढिलो	-11.6387
tive	-11.639
▁directors	-11.6391
▁desires	-11.6391
२८	-11.6392
▁funeral	-11.6396
▁$7	-11.6396
▁devoted	-11.6399
▁fridge	-11.6399
▁nevertheless	-11.64
▁mentor	-11.6401
▁Bro	-11.6403
▁terminal	-11.6405
▁bits	-11.6405
▁खत्री	-11.6405
▁बहिनी	-11.6406
▁	-11.6406
▁असन्तुष्टि	-11.6407
▁1-	-11.6407
▁shorter	-11.6409
▁क्षमताको	-11.6412
▁Terms	-11.6412
▁Challenge	-11.6412
▁existed	-11.6412
▁CH	-11.6412
▁पू	-11.6415
▁बढे	-11.6416
▁Games	-11.6417
▁खासगरी	-11.6417
▁ONE	-11.6419
▁designers	-11.6419
▁trials	-11.642
▁presidential	-11.6421
▁departments	-11.6421
▁Ve	-11.6422
▁pump	-11.6423
▁lord	-11.6424
▁पदको	-11.6424
:00	-11.6425
▁proceedings	-11.6427
ड्	-11.6429
ered	-11.6429
▁इजरायल	-11.643
▁टेलिफोन	-11.643
हरुबाट	-11.6431
▁maps	-11.6432
ini	-11.6432
▁भएसँगै	-11.6433
▁answering	-11.6434
▁देउ	-11.6435
▁confusing	-11.6436
ाइन	-11.6436
▁23,	-11.6439
▁receipt	-11.6439
▁मानवीय	-11.6439
▁उड्डयन	-11.644
▁मौन	-11.644
▁रहँदा	-11.6442
▁बेलुका	-11.6442
TER	-11.6443
हिन	-11.6443
ena	-11.6443
▁admin	-11.6444
▁अनसन	-11.6445
▁suits	-11.6446
▁बैंकमा	-11.6446
▁सकिन	-11.6446
▁Vegas	-11.6447
sur	-11.6449
▁Series	-11.6451
mal	-11.6451
▁privilege	-11.6451
▁RSS	-11.6453
▁नपाएको	-11.6454
▁sn	-11.6456
mor	-11.6456
▁स्वयं	-11.6458
▁सागर	-11.6459
▁दैलेख	-11.646
▁alien	-11.646
ाम	-11.646
▁नगरे	-11.6461
▁सन्दिप	-11.6462
▁कुरो	-11.6463
▁tablet	-11.6464
▁महिलाहरु	-11.6464
▁नेटवर्क	-11.6465
▁mining	-11.6466
▁burned	-11.6468
▁कानूनी	-11.6468
▁Box	-11.6468
▁चुक्ता	-11.6468
▁Future	-11.6469
▁तिन	-11.6473
using	-11.6474
▁आखिर	-11.6474
▁radical	-11.6476
ali	-11.6477
▁बुझाएको	-11.6479
▁जोखिममा	-11.648
▁linking	-11.6481
ैं	-11.6484
▁गर्नेलाई	-11.6485
▁slide	-11.6485
▁गरेँ	-11.6485
▁Winter	-11.6485
सचिव	-11.6486
▁राजधानीको	-11.6487
▁Enter	-11.6488
minded	-11.6489
▁favorites	-11.6489
!!!!!	-11.6491
मैत्री	-11.6491
योग	-11.6492
च्छ	-11.6492
▁शरणार्थी	-11.6492
▁सूचनाको	-11.6492
▁जगत	-11.6492
▁Quick	-11.6493
▁बुढा	-11.6493
▁Liz	-11.6495
ाइएका	-11.6495
▁roots	-11.6499
▁च्यानल	-11.65
▁समूहका	-11.65
▁mature	-11.6501
▁dude	-11.6503
▁Georgia	-11.6503
▁subtle	-11.6504
▁Ly	-11.6505
▁pipe	-11.6506
▁निर्देशिका	-11.6507
roll	-11.6507
▁Bear	-11.6508
▁वास्तवमा	-11.6508
▁केशव	-11.6509
▁उत्तरी	-11.6511
▁बाली	-11.6512
▁bottles	-11.6512
▁pollution	-11.6513
▁1960	-11.6513
▁User	-11.6514
▁formation	-11.6515
▁Content	-11.6516
चाहिँ	-11.6517
▁कोरियाले	-11.6518
▁मिलन	-11.6518
▁ton	-11.6518
▁soldier	-11.6519
▁अनिल	-11.6519
▁हौं	-11.6519
party	-11.6521
निया	-11.6521
▁navigate	-11.6523
his	-11.6523
▁BO	-11.6526
▁43	-11.6526
▁freak	-11.6528
▁निजामती	-11.6528
94	-11.6529
▁clinic	-11.653
▁genius	-11.6532
▁peers	-11.6532
▁lamp	-11.6534
▁browsing	-11.6535
▁lifted	-11.6536
▁angel	-11.6538
▁Hong	-11.6539
lk	-11.654
▁हेटौँडा	-11.654
▁खाडी	-11.654
▁closet	-11.6541
▁companion	-11.6541
▁यसैबीच	-11.6541
cat	-11.6541
▁sighed	-11.6543
▁बार्षिक	-11.6544
▁grandmother	-11.6547
▁donations	-11.6547
▁chips	-11.6548
▁races	-11.6549
▁कार्ययोजना	-11.6553
▁पौष	-11.6554
▁काठमाण्डौं	-11.6554
▁सन्धि	-11.6556
▁ल्याएका	-11.6561
▁प्ले	-11.6562
▁pur	-11.6563
▁गर्दैन	-11.6563
▁collecting	-11.6563
▁हटाउने	-11.6564
▁Common	-11.6566
▁सङ्कलन	-11.6569
द्र	-11.6569
▁dressing	-11.6571
कार्य	-11.6572
season	-11.6573
▁disclosure	-11.6573
action	-11.6575
▁WITH	-11.6576
▁tub	-11.6576
mas	-11.6577
▁donate	-11.6578
3%	-11.6579
▁अगुवा	-11.6579
▁crystal	-11.658
▁neat	-11.6581
▁evident	-11.6582
▁राजन	-11.6583
▁ain	-11.6584
▁vitamin	-11.6584
▁५९	-11.6585
▁गाउँपालिकामा	-11.6585
▁प्रेमी	-11.6586
▁Val	-11.6586
▁collapse	-11.6586
▁ग्रुप	-11.6587
hold	-11.6588
▁क्र	-11.6589
२४	-11.6589
▁Mobile	-11.659
▁Er	-11.659
▁lip	-11.6592
Pa	-11.6593
▁राखी	-11.6594
क्ट	-11.6594
घा	-11.6595
case	-11.6596
▁बैठकको	-11.6596
काले	-11.6596
▁49	-11.6597
▁implementing	-11.6598
▁गैरआवासीय	-11.6599
▁पुरै	-11.6599
▁drops	-11.66
▁cleared	-11.6601
▁काठ	-11.6603
▁Between	-11.6604
▁अचानक	-11.6604
▁buttons	-11.6604
▁unemployment	-11.6604
▁solo	-11.6609
▁popularity	-11.6609
▁seemingly	-11.6609
▁Pretty	-11.6611
▁फलफूल	-11.6613
ेकी	-11.6613
▁निवासी	-11.6613
▁accepting	-11.6616
▁identification	-11.6617
▁gut	-11.6617
▁राष्ट्रको	-11.662
▁परियार	-11.6622
▁अर्बको	-11.6622
▁दृष्टि	-11.6624
▁Notice	-11.6624
▁bin	-11.6624
Ba	-11.6625
▁कमाउने	-11.6626
▁`	-11.6628
its	-11.6631
▁sits	-11.6632
वत	-11.6632
मार्फत्	-11.6633
▁garbage	-11.6636
▁स्कूल	-11.6637
▁काट	-11.6638
Man	-11.6638
▁propose	-11.6638
ानी	-11.6639
ार्थ	-11.6639
पक्ष	-11.664
▁readily	-11.664
िट	-11.6641
▁approaching	-11.6642
ria	-11.6642
▁निकायले	-11.6643
▁laundry	-11.6644
ock	-11.6644
▁op	-11.6645
:15	-11.6646
gle	-11.6646
▁featuring	-11.6648
स्ता	-11.6651
▁लिटर	-11.6652
▁Ford	-11.6653
▁fiber	-11.6653
▁22,	-11.6653
▁ti	-11.6653
▁commenting	-11.6654
▁किसिमका	-11.6655
▁northern	-11.6656
▁submission	-11.6656
▁कोरियामा	-11.6657
61	-11.666
▁WILL	-11.6661
8.	-11.6662
▁अनामनगर	-11.6665
▁enthusiasm	-11.6666
▁repeatedly	-11.6667
▁fleet	-11.667
▁monster	-11.6671
▁estimates	-11.6671
▁सुरुङ	-11.6671
▁encountered	-11.6672
▁beds	-11.6673
57	-11.6673
59	-11.6674
▁जोडिन	-11.6676
itis	-11.6676
▁blessing	-11.6676
▁snap	-11.6677
▁directory	-11.6677
०३	-11.6679
▁छानविन	-11.668
onic	-11.668
▁जुलाई	-11.6681
▁हलमा	-11.6681
स्तरीय	-11.6681
▁21,	-11.6682
▁सिंहदरबार	-11.6683
▁toxic	-11.6683
▁Award	-11.6685
▁दृष्टिकोण	-11.6686
▁chip	-11.6688
ल्स	-11.6689
▁गोष्ठी	-11.6689
▁highlights	-11.6691
▁र्	-11.6692
▁मण्डल	-11.6692
▁खेल्दै	-11.6695
▁Cha	-11.6698
▁fo	-11.6698
▁भाव	-11.6699
▁Planning	-11.67
▁mysterious	-11.67
ancy	-11.67
▁pressed	-11.67
▁Oil	-11.67
▁लिनु	-11.6701
▁distant	-11.6702
▁suppliers	-11.6702
▁बोलपत्र	-11.6704
▁demonstrated	-11.6704
▁लिइएको	-11.6705
▁खण्ड	-11.6705
▁crown	-11.6706
▁bri	-11.6706
▁Latin	-11.671
▁कामदारको	-11.671
▁सिन्धुली	-11.6711
▁memorable	-11.6711
▁chairs	-11.6713
प्रदेश	-11.6715
▁विज्ञप्तिमा	-11.6716
mission	-11.6717
▁धितोपत्र	-11.6717
▁प्रतिवेदनमा	-11.6718
▁radiation	-11.6718
▁अस्पतालले	-11.6719
▁सेमिफाइनलमा	-11.6721
▁परेर	-11.6721
▁winners	-11.6722
cl	-11.6723
▁सत	-11.6724
▁महँगो	-11.6726
▁विदेशबाट	-11.6728
▁पाण्डेले	-11.6729
1)	-11.673
▁TIP	-11.673
▁10-	-11.6731
rit	-11.6732
▁departure	-11.6732
▁हिन्दू	-11.6735
▁प्रायः	-11.6735
▁bare	-11.6735
▁gradually	-11.6736
▁garlic	-11.6738
▁छवि	-11.6738
▁satisfy	-11.6739
▁accuracy	-11.674
▁console	-11.6741
ाप	-11.6743
▁नेपालमै	-11.6743
▁पेशा	-11.6744
िला	-11.6744
▁Grant	-11.6746
6.	-11.6746
ency	-11.6747
ators	-11.6748
▁freely	-11.6749
▁disorders	-11.6749
▁थाल	-11.675
UN	-11.6751
मत	-11.6751
▁रिहा	-11.6758
▁^	-11.6758
MO	-11.6759
▁9,	-11.676
▁250	-11.6762
▁kindly	-11.6762
▁suspicion	-11.6765
rac	-11.6766
▁पाठ्यक्रम	-11.677
▁छक्का	-11.677
▁punch	-11.677
▁अध्यादेश	-11.6777
▁Authority	-11.6778
▁supportive	-11.6778
स्प	-11.6779
▁७४	-11.6779
▁Matthew	-11.678
▁ट्या	-11.6782
▁lasting	-11.6782
▁utility	-11.6785
▁सरसफाइ	-11.6786
रत	-11.6789
▁2014,	-11.679
▁सदस्यहरु	-11.679
▁Senator	-11.679
▁reject	-11.6791
LD	-11.6792
डर	-11.6794
▁fever	-11.6795
▁सुरू	-11.6796
▁हुदैन	-11.6796
▁प्राध्यापक	-11.6797
▁terrorist	-11.6797
▁castle	-11.6797
▁viewers	-11.6797
▁DNA	-11.6797
gal	-11.6798
▁developments	-11.6799
Or	-11.68
▁pp	-11.68
▁क्रमशः	-11.68
▁800	-11.68
▁striking	-11.6801
Ch	-11.6801
▁Nevertheless	-11.6802
▁बास	-11.6806
▁गतेबाट	-11.6807
▁pound	-11.6807
▁verse	-11.6807
▁अभावमा	-11.6808
▁व्यवसायीले	-11.6808
EE	-11.6809
▁mothers	-11.681
▁स्याङ्जा	-11.6811
▁counts	-11.6812
▁रामेछाप	-11.6813
ees	-11.6813
▁सहभागि	-11.6814
▁मिल्दैन	-11.6815
▁चोट	-11.6816
▁Upon	-11.6817
▁rope	-11.6817
▁consequence	-11.6819
▁दरबन्दी	-11.6819
zo	-11.6819
▁Case	-11.682
▁लुट	-11.6821
ाक	-11.6822
▁दिनपछि	-11.6822
54	-11.6822
84	-11.6823
लमा	-11.6825
cker	-11.6825
▁सत्तारुढ	-11.6825
▁उत्पादनमा	-11.6825
▁भनेपछि	-11.6826
▁मङ्गलबार	-11.6826
▁अनावश्यक	-11.6827
▁खाद्यान्न	-11.6827
▁corruption	-11.6828
▁अस्तित्व	-11.6828
▁इरान	-11.6828
▁जितेर	-11.6829
▁इन्धन	-11.6831
ked	-11.6831
▁क्यान	-11.6832
▁पुनले	-11.6832
▁Sen	-11.6833
हाम्रो	-11.6833
▁Smart	-11.6834
▁accessories	-11.6839
▁dozens	-11.684
▁रनले	-11.684
▁जनताका	-11.6842
Here	-11.6843
▁catching	-11.6843
▁printer	-11.6845
▁Paper	-11.6846
खर	-11.6846
▁recruit	-11.6847
▁सेल	-11.6849
ET	-11.6849
▁भीड	-11.685
▁विपन्न	-11.6851
▁पदक	-11.6852
▁स्वच्छ	-11.6852
ill	-11.6852
▁आयोजकले	-11.6854
▁गर्नुस	-11.6855
stop	-11.6857
जल	-11.6858
▁Singapore	-11.6858
▁prospects	-11.6859
▁भार	-11.6862
▁portal	-11.6862
▁Ball	-11.6864
▁मुद्धा	-11.6868
▁tick	-11.6869
str	-11.687
▁आर्जन	-11.687
▁mill	-11.6871
▁फाइल	-11.6873
▁आयु	-11.6873
▁प्राधिकरणको	-11.6875
▁स्तरीय	-11.6875
▁Messenger	-11.6876
▁Amazing	-11.6878
▁translate	-11.6879
▁generic	-11.688
▁परीक्षाको	-11.688
दिने	-11.6881
▁कल्याण	-11.6882
▁कारोवार	-11.6884
∣	-11.6885
▁deficit	-11.6885
93	-11.6887
▁safer	-11.6889
▁jar	-11.689
▁होटलमा	-11.6891
wan	-11.6892
▁स्वर्ण	-11.6892
▁boom	-11.6893
▁जीवनशैली	-11.6893
▁humble	-11.6894
▁demanded	-11.6895
▁scored	-11.6897
▁सुब्बा	-11.6897
▁Application	-11.6898
cher	-11.6899
▁shoe	-11.6899
▁अवकाश	-11.69
open	-11.6902
ATE	-11.6904
OM	-11.6906
▁Turn	-11.6907
▁हकमा	-11.6907
▁आदर्श	-11.6908
▁हराउँदै	-11.6908
▁warranty	-11.6908
▁गठबन्धनका	-11.6909
▁bitter	-11.6909
▁consume	-11.6911
ore	-11.6912
गे	-11.6913
४५	-11.6914
▁प्याकेज	-11.6916
▁boundaries	-11.6917
▁Further	-11.6917
▁awhile	-11.692
▁wheels	-11.692
lam	-11.6922
▁क्लव	-11.6923
▁जटिल	-11.6924
▁वीरगञ्ज	-11.6927
▁judges	-11.6928
▁जवान	-11.693
▁Hol	-11.693
▁Unlike	-11.6931
▁विमानस्थलको	-11.6931
िटी	-11.6932
▁biological	-11.6932
▁झडप	-11.6934
say	-11.6935
Qu	-11.6936
स्थान	-11.6936
▁नर्स	-11.6937
▁substitute	-11.6939
kind	-11.6939
▁मिल्छ	-11.6939
▁कुखुरा	-11.6939
साथ	-11.6939
ND	-11.694
▁सदस्यमा	-11.694
▁47	-11.6945
▁बचाउन	-11.6945
ving	-11.6946
▁समाजले	-11.6947
▁liable	-11.6948
▁राख	-11.6949
▁sustain	-11.6952
▁Dead	-11.696
▁clarity	-11.6961
▁completing	-11.6963
▁teen	-11.6964
▁lover	-11.6964
▁Egypt	-11.6966
▁सन्दर्भ	-11.6967
▁प्रकृति	-11.6968
▁जनमत	-11.6971
▁दलहरू	-11.6971
▁क्षेत्री	-11.6971
▁Job	-11.6973
RC	-11.6975
याली	-11.6975
▁defence	-11.6975
▁commented	-11.6977
▁खसेको	-11.6977
▁passenger	-11.6977
-11	-11.6979
▁admire	-11.6979
▁टेक	-11.698
▁necessity	-11.698
▁घुम्न	-11.6981
▁gray	-11.6983
▁complaining	-11.6984
▁कपाल	-11.6984
ski	-11.6985
▁आइतवार	-11.6985
▁HAVE	-11.6985
▁beating	-11.6987
ache	-11.6987
▁healthier	-11.6988
सकेका	-11.6989
ken	-11.699
▁guilt	-11.699
▁basement	-11.6991
▁discounts	-11.6992
▁grid	-11.6994
▁मिश्र	-11.6994
▁defensive	-11.6996
▁गर्दैछ	-11.6997
▁premises	-11.6999
pir	-11.7
िसकेका	-11.7001
▁**	-11.7003
२०७३	-11.7004
श्री	-11.7004
▁sexy	-11.7005
▁संगै	-11.7007
हीन	-11.7007
गृह	-11.7008
shirt	-11.7008
कमा	-11.7009
▁Simon	-11.7011
▁मुलुकी	-11.7011
bot	-11.7014
cur	-11.7015
▁शक्तिको	-11.7017
▁happily	-11.7017
▁palm	-11.7018
▁मालिक	-11.7018
BS	-11.7018
▁गराउनु	-11.7021
▁बार्सिलोना	-11.7022
▁determining	-11.7023
२३	-11.7024
▁satellite	-11.7027
▁teens	-11.7029
▁jumping	-11.7029
▁कुराहरू	-11.703
▁signature	-11.7031
▁Eve	-11.7031
▁मार्ने	-11.7031
▁ब्या	-11.7032
▁दिल	-11.7035
▁गठबन्धनले	-11.7036
uch	-11.7037
▁त्यहाँको	-11.7038
▁engineers	-11.7039
▁tu	-11.7041
▁महामन्त्री	-11.7043
▁कागजात	-11.7044
आज	-11.7044
▁मधुमेह	-11.7045
▁solved	-11.7046
sey	-11.7047
▁analyze	-11.7048
▁Truth	-11.7048
▁insert	-11.7048
०५	-11.7049
बाँकी	-11.7052
▁perception	-11.7054
▁टोलीको	-11.7054
▁थाइल्याण्ड	-11.7055
body	-11.7056
▁nap	-11.7057
▁समाचारको	-11.7057
▁झापाको	-11.7058
ero	-11.7058
▁अमर	-11.7059
▁प्रणालीमा	-11.706
▁FBI	-11.7061
els	-11.7062
याएको	-11.7064
▁कागज	-11.7064
२६	-11.7064
▁NFL	-11.7065
▁Guy	-11.7065
▁fitting	-11.7066
▁सिरहा	-11.7069
▁दिई	-11.707
भरि	-11.7071
▁funded	-11.7071
▁specify	-11.7071
▁दिनमै	-11.7072
phone	-11.7072
▁nightmare	-11.7073
▁contacts	-11.7076
▁टिमले	-11.7076
▁loyal	-11.7078
▁राईको	-11.7078
▁आफैले	-11.7079
▁28,	-11.708
्रि	-11.7081
▁tomatoes	-11.7083
▁चोर	-11.7084
▁amenities	-11.7085
▁celebrating	-11.7086
▁occupied	-11.7086
▁lad	-11.7086
▁wow	-11.7086
ोक	-11.709
▁सरोकार	-11.709
▁disk	-11.709
▁तनहुँ	-11.7091
▁identifying	-11.7093
▁faint	-11.7094
though	-11.7095
▁gesture	-11.7097
▁NA	-11.7099
▁काँग्रेसले	-11.71
^	-11.71
master	-11.7101
▁batteries	-11.7104
ाइरहेका	-11.7104
▁minority	-11.7106
▁mentally	-11.7106
HA	-11.7106
२७	-11.7108
▁grief	-11.7108
52	-11.7111
▁princess	-11.7112
▁cultures	-11.7116
uc	-11.7117
▁पश्चात	-11.7117
▁tends	-11.712
▁codes	-11.7121
▁requiring	-11.7121
▁बालुवाटारमा	-11.7122
▁Staff	-11.7124
▁convincing	-11.7124
▁#2	-11.7126
▁ढिलाइ	-11.7128
▁efficiently	-11.7131
प्त	-11.7133
▁नम्बरमा	-11.7135
und	-11.7135
._.	-11.7137
OT	-11.7138
▁Tips	-11.7138
लाइन	-11.7138
▁Maria	-11.7139
▁compromise	-11.7141
Bo	-11.7143
▁Mid	-11.7144
▁वामपन्थी	-11.7144
▁reactions	-11.7146
▁Writing	-11.7146
▁हृदय	-11.7148
die	-11.7149
▁bay	-11.715
▁cyber	-11.715
▁vessel	-11.7151
▁variable	-11.7155
▁खेलेको	-11.7155
▁discretion	-11.7159
9%	-11.716
▁McC	-11.716
▁unfair	-11.7162
▁parallel	-11.7162
▁Len	-11.7163
▁Cancer	-11.7163
▁सहयोगको	-11.7163
▁निकाल्न	-11.7164
▁ga	-11.7165
ियर	-11.7166
▁Valentine	-11.7167
▁stocks	-11.7169
source	-11.717
▁टेलिकमले	-11.717
▁thou	-11.7171
▁Attorney	-11.7172
▁भित्री	-11.7173
▁valley	-11.7174
▁सुनुवाइ	-11.7175
▁प्या	-11.7175
itch	-11.7179
पात	-11.7179
▁finest	-11.718
▁rack	-11.7181
▁gains	-11.7184
2)	-11.7184
▁120	-11.7188
▁piano	-11.7193
▁बुझाउन	-11.7193
▁Bre	-11.7196
▁भोग	-11.7198
▁जस	-11.7198
▁चाहनुहुन्छ	-11.7198
▁52	-11.7198
▁दलहरु	-11.7201
cin	-11.7202
ट्	-11.7204
▁Square	-11.7204
▁attracted	-11.7205
▁countless	-11.7205
▁locally	-11.7205
▁workforce	-11.7205
▁नागरिकले	-11.7205
▁Author	-11.7207
▁firmly	-11.7207
▁attendance	-11.7209
▁grain	-11.721
▁perceived	-11.7211
थी	-11.7211
▁contacted	-11.7212
▁😉.	-11.7213
▁queen	-11.7214
▁कता	-11.7214
▁midnight	-11.7214
▁kicked	-11.7215
▁जिज्ञासा	-11.7216
्ति	-11.7216
▁Reply	-11.7216
▁entrepreneurs	-11.7218
▁Golden	-11.7218
▁Computer	-11.7219
atory	-11.7225
▁घिमिरेले	-11.7225
▁शल्यक्रिया	-11.7225
▁फर्म	-11.7226
▁MR	-11.7226
ोस	-11.7227
▁frustrated	-11.7227
▁Wild	-11.7228
▁सर्त	-11.7229
▁HR	-11.7229
▁पासवर्ड	-11.7231
▁जुत्ता	-11.7231
▁tennis	-11.7234
▁गराइएको	-11.7234
▁porn	-11.7235
▁शताब्दी	-11.7237
▁Privacy	-11.7239
▁meditation	-11.7239
▁Sports	-11.724
-9	-11.724
▁मान्छेको	-11.7241
fit	-11.7242
▁त्यसकारण	-11.7246
▁jet	-11.7247
▁counsel	-11.7247
▁supplements	-11.7248
▁lawn	-11.7249
▁terrific	-11.7249
RI	-11.725
▁ठोस	-11.7251
▁Field	-11.7251
▁layers	-11.7252
▁सुनिल	-11.7253
▁राखिनेछ	-11.7255
▁चाडपर्व	-11.7255
▁गर्नको	-11.7256
▁vendors	-11.7258
especially	-11.7258
▁Yo	-11.726
matic	-11.726
▁annually	-11.7261
▁आबद्ध	-11.7261
▁जाजरकोट	-11.7261
▁निर्णयहरु	-11.7262
▁z	-11.7262
▁crossing	-11.7263
▁मतपत्र	-11.7264
▁sees	-11.7266
▁उत्सव	-11.7266
▁spreading	-11.7268
रोग	-11.727
▁गरेमा	-11.727
▁hills	-11.7272
▁caution	-11.7273
▁Allow	-11.7274
▁pursuit	-11.7279
▁सिधै	-11.7281
▁जीत	-11.7283
▁Ki	-11.7283
sky	-11.7283
▁सफ्टवेयर	-11.7286
▁pursuant	-11.7287
▁Drive	-11.7287
▁stating	-11.7287
▁bullet	-11.7287
▁खोल्ने	-11.7288
▁athletes	-11.7289
lation	-11.7289
fish	-11.7289
▁Khabar	-11.7291
▁Secret	-11.7291
▁Clark	-11.7292
▁टस	-11.7292
▁Practice	-11.7294
▁Quality	-11.7294
▁पराजुली	-11.7295
▁Andy	-11.7295
▁जापानी	-11.7296
▁वामदेव	-11.7297
▁विद्या	-11.7298
▁vocal	-11.7298
▁600	-11.7299
▁संस्थाहरु	-11.73
ula	-11.73
▁CAN	-11.7303
▁varied	-11.7305
▁Others	-11.7307
▁sw	-11.7308
▁होईन	-11.7309
▁intake	-11.731
कको	-11.731
▁expanded	-11.7311
▁सिँचाइ	-11.7311
टमा	-11.7312
कालीन	-11.7313
tics	-11.7315
▁फु	-11.7315
igh	-11.7315
▁महरा	-11.7315
▁हेलिकप्टर	-11.7316
81	-11.7316
▁DA	-11.7317
▁खरेल	-11.7317
ATION	-11.7318
▁agricultural	-11.732
▁Easter	-11.732
type	-11.7321
▁(5	-11.7321
▁कटौती	-11.7321
▁शु	-11.7321
▁घरमै	-11.7321
▁Edward	-11.7322
burn	-11.7322
▁६६	-11.7323
▁परमेश्वरको	-11.7324
ration	-11.7325
▁निगम	-11.7325
...).	-11.7325
▁क्यामेरा	-11.7328
ace	-11.7331
किन	-11.7332
▁व्य	-11.7332
द्य	-11.7333
era	-11.7336
न्य	-11.7337
▁poster	-11.7338
▁precise	-11.7338
कला	-11.7338
▁होस	-11.7339
▁branches	-11.734
▁testimony	-11.734
▁Bull	-11.7342
▁imagined	-11.7343
▁impacts	-11.7344
nn	-11.7345
▁संशोधनको	-11.7345
▁approve	-11.7346
mat	-11.7347
ुको	-11.7347
▁तामाङले	-11.7348
▁Roger	-11.7348
▁पाएपछि	-11.7352
Because	-11.7353
▁expanding	-11.7353
▁Private	-11.7354
▁partly	-11.7354
▁eternal	-11.7355
▁सोचे	-11.7356
▁मेहनत	-11.7356
▁प्रवासी	-11.7356
▁आइडल	-11.7357
SC	-11.7357
▁Assembly	-11.7359
▁क्षण	-11.7359
▁packaging	-11.7359
▁अधिकतम	-11.7359
▁माझ	-11.736
▁संचार	-11.736
▁Rule	-11.7361
▁modified	-11.7362
▁bang	-11.7364
▁stakeholders	-11.7364
▁theft	-11.7365
▁cope	-11.7366
▁26,	-11.7367
▁पेज	-11.7367
▁pub	-11.7368
▁समाजवाद	-11.7368
▁occupation	-11.7369
▁Silver	-11.7369
▁secured	-11.737
▁Magazine	-11.7372
प्प	-11.7373
email	-11.7374
▁प्रचारप्रसार	-11.7375
400	-11.7375
▁parks	-11.7378
▁कर्ण	-11.7379
िभ	-11.7379
▁शिक्षामा	-11.738
यागु	-11.7383
▁Fast	-11.7383
▁disposal	-11.7383
र्ने	-11.7384
▁inevitable	-11.7384
▁डिग्री	-11.7384
हरूसँग	-11.7385
▁cord	-11.7385
8%	-11.7385
wise	-11.7385
▁निकायमा	-11.7385
pot	-11.7386
▁पुर्याउने	-11.7386
पर्ने	-11.7387
▁sheets	-11.7388
्त	-11.7389
▁चीनमा	-11.739
▁Body	-11.7393
▁हजारभन्दा	-11.7393
800	-11.7395
▁HD	-11.7395
▁mar	-11.7397
▁भरमा	-11.7397
▁डान्स	-11.7397
▁Cook	-11.7399
▁mechanical	-11.7402
▁12.	-11.7402
▁counting	-11.7403
महा	-11.7403
cri	-11.7403
▁meters	-11.7403
tric	-11.7405
कुरा	-11.7405
▁comedy	-11.7406
▁समुदायलाई	-11.7407
▁Drug	-11.7408
▁Fed	-11.7408
▁परिमार्जन	-11.741
▁माग्ने	-11.7412
▁bulk	-11.7412
▁सारा	-11.7414
▁earning	-11.7415
▁jewelry	-11.7415
लेख	-11.7416
▁हुनुहुन्थ्यो	-11.7418
▁2012,	-11.7419
▁संचालनमा	-11.7419
83	-11.7419
बिना	-11.742
although	-11.742
▁Seattle	-11.7421
▁पौडेलको	-11.7422
▁लिगमा	-11.7422
▁छोराछोरी	-11.7424
▁Taylor	-11.7424
▁convicted	-11.7425
ोर	-11.7425
With	-11.7426
▁भएँ	-11.7426
▁gaze	-11.7428
▁गुगल	-11.7429
▁bearing	-11.743
▁माओवादीको	-11.743
EA	-11.7431
▁मुस्लिम	-11.7431
▁46	-11.7432
DS	-11.7432
▁24,	-11.7432
▁briefly	-11.7433
▁Product	-11.7433
▁98	-11.7434
▁कब्जा	-11.7434
[...]
