<unk>	0
<s>	0
</s>	0
.	-3.37708
,	-3.46166
▁the	-3.70181
▁to	-4.086
s	-4.15119
▁and	-4.28291
▁of	-4.31585
▁a	-4.3274
▁।	-4.35817
▁in	-4.73952
▁I	-4.74314
▁you	-5.00956
▁is	-5.03441
▁that	-5.0569
’	-5.11517
▁for	-5.1399
'	-5.19432
▁it	-5.23777
को	-5.37348
-	-5.39368
▁on	-5.48382
t	-5.49441
▁with	-5.52736
▁be	-5.53697
मा	-5.62879
▁are	-5.6924
▁have	-5.713
▁र	-5.74797
▁this	-5.77116
▁छ	-5.79179
▁was	-5.79218
▁your	-5.8231
▁as	-5.8313
▁not	-5.96168
▁(	-5.98585
▁The	-5.98905
▁or	-5.9971
का	-6.00755
▁at	-6.01698
ले	-6.04364
▁can	-6.08616
▁"	-6.14199
।	-6.14842
?	-6.14954
ing	-6.15742
▁we	-6.17654
▁from	-6.1782
▁will	-6.18202
▁my	-6.19204
:	-6.21451
▁but	-6.21466
)	-6.24848
▁an	-6.25589
▁“	-6.26824
▁he	-6.28295
▁all	-6.29106
▁by	-6.29146
ed	-6.29178
!	-6.30711
▁they	-6.31707
d	-6.32595
▁	-6.34989
▁so	-6.4235
▁about	-6.45286
▁one	-6.45423
लाई	-6.46208
▁पनि	-6.49053
▁more	-6.49177
▁me	-6.49558
m	-6.5172
▁out	-6.51994
▁up	-6.55994
▁has	-6.56375
▁his	-6.5656
▁do	-6.56737
...	-6.60398
▁It	-6.60958
▁their	-6.63983
▁what	-6.64607
▁if	-6.65274
▁time	-6.65599
▁like	-6.65779
▁had	-6.69989
▁would	-6.72547
▁there	-6.73213
re	-6.7435
▁‘	-6.75036
▁just	-6.7584
▁who	-6.76795
▁been	-6.76854
▁our	-6.76927
▁भएको	-6.78129
▁her	-6.80082
▁which	-6.81379
▁when	-6.84782
▁them	-6.85187
▁get	-6.8619
▁लागि	-6.86624
▁some	-6.87387
▁छन्	-6.91107
▁A	-6.92235
ly	-6.93102
▁were	-6.96444
/	-6.96957
▁people	-6.98549
▁हो	-6.99437
▁know	-7.00002
▁other	-7.00008
▁गर्न	-7.02631
▁गर्ने	-7.02728
▁she	-7.03299
▁said	-7.03316
▁no	-7.03767
▁You	-7.0428
▁any	-7.04867
▁-	-7.05193
er	-7.06093
ve	-7.06616
▁than	-7.07699
▁This	-7.07963
▁how	-7.08384
▁We	-7.08462
▁गरेको	-7.10315
बाट	-7.12962
▁don	-7.15983
▁make	-7.16923
▁into	-7.17585
▁very	-7.17937
ll	-7.18684
▁भने	-7.18874
▁also	-7.18996
I	-7.19239
▁–	-7.19563
▁In	-7.1977
▁over	-7.20814
▁good	-7.21667
y	-7.22579
▁only	-7.24532
▁If	-7.24875
▁see	-7.24986
▁तथा	-7.25369
▁him	-7.25952
▁us	-7.26636
▁think	-7.27652
▁यो	-7.27779
▁नेपाल	-7.28171
▁way	-7.28905
▁much	-7.28989
;	-7.29051
▁could	-7.29633
▁new	-7.29861
▁now	-7.3156
▁एक	-7.31724
▁work	-7.31958
▁He	-7.32495
▁back	-7.34413
▁may	-7.35391
▁here	-7.36281
न	-7.36834
▁need	-7.387
–	-7.39341
▁And	-7.39493
▁well	-7.3958
▁these	-7.40235
▁first	-7.40587
"	-7.42297
▁should	-7.42848
▁want	-7.42973
▁go	-7.43182
▁really	-7.43326
▁then	-7.43716
▁But	-7.45683
e	-7.46325
▁most	-7.46417
”	-7.46708
▁even	-7.47131
▁थियो	-7.47703
▁many	-7.48428
▁हुने	-7.48567
▁years	-7.48693
▁because	-7.4908
ी	-7.49592
▁am	-7.52013
▁take	-7.53224
).	-7.53955
▁use	-7.54258
▁नेपाली	-7.54497
▁day	-7.55417
▁two	-7.55504
▁right	-7.55874
a	-7.56372
▁going	-7.56491
▁great	-7.57145
▁नै	-7.57941
▁where	-7.58174
▁को	-7.58895
▁year	-7.60922
▁after	-7.60942
▁before	-7.61797
▁?	-7.62521
▁being	-7.6282
▁too	-7.63344
▁those	-7.63525
▁मा	-7.65059
.".	-7.65809
in	-7.66595
▁help	-7.67416
▁through	-7.67554
▁such	-7.67649
▁तर	-7.68206
र	-7.70355
▁did	-7.70363
▁down	-7.70922
▁made	-7.71338
▁its	-7.72293
▁say	-7.73289
▁:	-7.74
▁find	-7.7402
▁life	-7.74196
▁still	-7.74467
▁There	-7.75117
▁So	-7.75303
▁रहेको	-7.75307
S	-7.7562
▁'	-7.76019
▁things	-7.76774
al	-7.76838
▁little	-7.77523
▁What	-7.78318
r	-7.78408
th	-7.78818
▁love	-7.78824
▁look	-7.79025
स	-7.79043
▁something	-7.79229
.”.	-7.79661
▁own	-7.79908
▁काम	-7.80566
n	-7.80748
▁long	-7.80784
▁off	-7.8091
क	-7.82234
▁best	-7.82241
▁last	-7.82387
▁They	-7.82608
े	-7.82948
▁come	-7.83284
▁काठमाडौं	-7.83448
▁गरेका	-7.85048
▁same	-7.86077
▁few	-7.87205
▁त	-7.87255
es	-7.87993
हरु	-7.88236
▁home	-7.88846
▁information	-7.8929
:.	-7.89432
,"	-7.90567
▁never	-7.90663
▁around	-7.90805
▁_	-7.91088
▁म	-7.92164
▁world	-7.93625
▁...	-7.93668
▁got	-7.93678
ल	-7.9393
▁re	-7.9418
▁उनले	-7.94279
▁That	-7.94443
▁sure	-7.94606
▁For	-7.94849
▁lot	-7.95
▁always	-7.95889
or	-7.96274
▁must	-7.96977
▁every	-7.97168
म	-7.97271
▁थिए	-7.97437
▁हुन्छ	-7.97886
▁She	-7.98092
▁i	-7.98216
▁might	-7.98439
▁while	-7.99709
▁गरिएको	-7.99712
▁better	-8.00054
▁place	-8.00444
▁part	-8.00871
▁दिन	-8.00918
▁As	-8.00967
▁used	-8.0101
▁गर्दै	-8.01585
▁१	-8.02447
▁again	-8.0245
▁thing	-8.03438
▁छैन	-8.03495
▁each	-8.03592
com	-8.04684
▁हुन	-8.05243
▁S	-8.05259
▁भन्ने	-8.05921
▁नयाँ	-8.0648
ers	-8.06855
,”	-8.08398
▁आफ्नो	-8.08573
▁दुई	-8.08868
सँग	-8.0912
ा	-8.09138
▁man	-8.09484
▁गरी	-8.09655
▁business	-8.10298
▁does	-8.10324
▁के	-8.10385
▁२	-8.10732
▁हजार	-8.11263
त	-8.11531
▁2	-8.11629
▁give	-8.12123
▁हाम्रो	-8.13619
▁भएका	-8.13645
▁post	-8.1389
▁next	-8.14155
▁To	-8.14946
▁another	-8.15114
▁different	-8.15227
▁found	-8.15391
▁didn	-8.15714
हरू	-8.15833
▁without	-8.16169
▁feel	-8.16749
▁under	-8.16844
▁why	-8.17088
ै	-8.17211
▁When	-8.17527
▁My	-8.17773
▁site	-8.17883
▁केही	-8.18525
▁न	-8.18609
▁end	-8.18773
▁1	-8.1879
▁keep	-8.19045
▁put	-8.19485
o	-8.19882
▁3	-8.20046
▁read	-8.20819
▁सबै	-8.21473
▁अ	-8.22526
▁both	-8.24094
▁धेरै	-8.24529
▁away	-8.24613
▁प्रदेश	-8.24707
▁कुरा	-8.25006
▁.	-8.25163
▁let	-8.2537
b	-8.25865
g	-8.26219
▁अध्यक्ष	-8.26487
▁वा	-8.26546
▁days	-8.26888
i	-8.27942
▁able	-8.28423
▁since	-8.28692
▁looking	-8.28858
▁three	-8.28957
▁between	-8.29035
c	-8.29867
ँ	-8.29876
▁प्रधानमन्त्री	-8.29952
▁un	-8.30059
▁family	-8.30114
▁ever	-8.30367
▁high	-8.31161
▁old	-8.3121
▁यस	-8.31394
▁कुनै	-8.31443
▁thought	-8.31622
ु	-8.31882
▁done	-8.3192
▁वर्ष	-8.31998
▁week	-8.32393
▁course	-8.32491
▁आज	-8.32694
▁person	-8.32818
▁लाख	-8.33355
▁३	-8.33466
▁point	-8.33596
▁start	-8.34158
▁कारण	-8.34162
▁enough	-8.34452
▁जानकारी	-8.35382
▁money	-8.35611
▁हुन्	-8.35696
▁number	-8.3603
▁set	-8.36094
▁५	-8.3624
ता	-8.36688
▁though	-8.36778
▁How	-8.36909
▁blog	-8.37153
▁doing	-8.37483
▁C	-8.37529
प	-8.37568
able	-8.38308
D	-8.38407
▁जिल्ला	-8.38415
A	-8.38815
▁No	-8.38872
▁free	-8.38992
▁राष्ट्रिय	-8.39513
▁important	-8.39574
▁मात्र	-8.40175
▁Do	-8.40198
▁रुपमा	-8.40553
▁गते	-8.40893
▁E	-8.41005
▁having	-8.41325
▁सय	-8.41709
▁doesn	-8.41738
▁पहिलो	-8.41812
—	-8.4191
▁experience	-8.41928
▁5	-8.42125
ला	-8.42214
▁B	-8.42348
▁प्रहरी	-8.42579
▁actually	-8.4273
▁प्रमुख	-8.42731
▁getting	-8.42806
▁मृत्यु	-8.4292
ि	-8.42976
and	-8.43053
▁सरकारले	-8.4306
▁least	-8.43095
▁during	-8.43562
▁!	-8.44049
▁१०	-8.4411
▁making	-8.44134
▁tell	-8.44538
on	-8.44563
▁using	-8.44675
▁विकास	-8.44918
▁far	-8.45069
▁came	-8.45146
▁10	-8.45546
ं	-8.45758
▁निर्माण	-8.46007
▁भए	-8.46013
▁case	-8.46041
▁कार्यक्रम	-8.46126
▁book	-8.46262
▁website	-8.46279
B	-8.46383
▁water	-8.46468
▁hard	-8.46513
▁anything	-8.46651
▁try	-8.46893
▁today	-8.46957
▁change	-8.47015
ट	-8.47076
▁अहिले	-8.47159
▁show	-8.4739
▁care	-8.47567
▁school	-8.476
▁children	-8.47641
▁[	-8.47704
ब	-8.48071
▁P	-8.48156
p	-8.48219
▁जना	-8.48618
to	-8.48757
ज	-8.48777
▁already	-8.48783
▁believe	-8.4906
▁स्थानीय	-8.49414
l	-8.49445
▁working	-8.49694
▁भयो	-8.49748
▁bit	-8.49889
▁until	-8.49893
▁गरे	-8.49957
▁system	-8.50214
▁order	-8.50407
▁service	-8.50541
▁बढी	-8.50555
C	-8.50703
▁अब	-8.51041
▁यस्तो	-8.51082
▁company	-8.51117
]	-8.51589
▁full	-8.51682
▁small	-8.51811
▁hand	-8.51966
कै	-8.52269
▁someone	-8.52335
▁big	-8.52398
▁support	-8.52908
▁४	-8.53101
▁समेत	-8.53349
▁kind	-8.5346
▁car	-8.53467
▁less	-8.53523
्	-8.53589
▁real	-8.53622
▁बताए	-8.54084
▁4	-8.54124
▁name	-8.54258
k	-8.54333
▁गरेर	-8.54356
▁६	-8.54586
▁left	-8.54636
▁mind	-8.54747
▁night	-8.54927
▁fact	-8.55498
ड	-8.55934
▁—	-8.55946
),	-8.56339
▁आएको	-8.56747
▁सार्वजनिक	-8.56953
▁game	-8.57044
▁available	-8.57364
▁job	-8.574
▁once	-8.57514
▁का	-8.57714
▁went	-8.57793
▁God	-8.57945
▁All	-8.58264
T	-8.58575
▁बारेमा	-8.59576
▁अनुसार	-8.59592
▁सेवा	-8.59652
▁per	-8.59657
▁head	-8.59761
▁against	-8.60001
▁says	-8.60347
▁s	-8.60526
▁following	-8.60645
▁गर्नुहोस्	-8.60666
▁times	-8.60673
▁२०	-8.60683
▁team	-8.60766
▁Your	-8.60925
▁समय	-8.61057
▁Thanks	-8.61376
▁त्यो	-8.61415
्ने	-8.61475
▁hope	-8.61702
The	-8.61754
▁New	-8.62247
▁together	-8.62309
▁means	-8.62313
▁side	-8.62397
▁health	-8.62496
▁yet	-8.62665
ity	-8.62757
▁understand	-8.6284
it	-8.62976
▁room	-8.63055
▁possible	-8.63129
▁often	-8.63242
की	-8.63263
P	-8.63369
▁house	-8.63387
▁विभिन्न	-8.63693
▁कि	-8.63777
(	-8.64238
▁पार्टी	-8.64282
द	-8.64369
▁idea	-8.64874
F	-8.64927
▁आ	-8.65036
▁web	-8.6505
▁At	-8.65181
▁call	-8.65215
▁एउटा	-8.65303
▁within	-8.65402
▁play	-8.65704
▁घर	-8.6572
पछि	-8.66061
the	-8.6615
सम्म	-8.66179
▁One	-8.66207
▁won	-8.66237
▁everything	-8.66546
▁process	-8.6674
▁e	-8.66768
▁live	-8.6685
▁provide	-8.67033
▁मन	-8.67209
▁समाचार	-8.67345
▁problem	-8.67347
▁state	-8.67466
▁shall	-8.67677
▁others	-8.67711
▁data	-8.67881
रा	-8.67925
▁तीन	-8.6795
▁public	-8.67977
ic	-8.68026
▁story	-8.68312
▁pay	-8.68402
h	-8.68439
व	-8.68548
▁nothing	-8.68609
▁question	-8.68646
--	-8.68812
▁easy	-8.69063
▁ago	-8.69068
▁top	-8.6916
▁निर्वाचन	-8.69183
▁whole	-8.69228
f	-8.69262
▁D	-8.69344
▁took	-8.69378
▁समस्या	-8.69446
ेर	-8.69647
▁सो	-8.69925
▁open	-8.69936
▁भन्दै	-8.69937
ation	-8.69996
▁including	-8.70005
▁डा	-8.70068
▁seen	-8.70221
देखि	-8.70392
▁trying	-8.70939
▁&	-8.7119
▁T	-8.71241
▁कार्यालय	-8.71399
▁आर्थिक	-8.71453
▁become	-8.71584
▁सरकार	-8.71636
▁quite	-8.71668
▁हामी	-8.71695
▁F	-8.71782
▁Thank	-8.71935
▁७	-8.72496
▁country	-8.72582
▁सुरु	-8.72723
▁pretty	-8.72829
▁गर्दा	-8.7295
▁food	-8.73023
ेको	-8.73216
▁past	-8.73253
▁दिने	-8.73295
▁mean	-8.73508
▁else	-8.73528
▁told	-8.73603
▁friends	-8.73621
▁करोड	-8.73679
▁probably	-8.73899
▁Re	-8.73942
▁de	-8.73992
▁स	-8.74081
▁months	-8.74142
▁6	-8.74263
▁online	-8.7445
▁women	-8.74454
▁matter	-8.74787
▁list	-8.74811
▁भन्दा	-8.74925
u	-8.7509
en	-8.75104
▁area	-8.75377
▁Now	-8.75458
▁please	-8.7559
▁fun	-8.75633
▁asked	-8.75645
▁प्रयोग	-8.75649
▁रहेका	-8.75724
▁वि	-8.75836
▁face	-8.76093
छ	-8.76093
▁everyone	-8.76312
▁नेता	-8.76438
▁men	-8.76544
M	-8.76606
G	-8.76852
य	-8.76874
▁makes	-8.77293
▁काठमाडौँ	-8.77318
▁run	-8.77539
▁services	-8.77602
▁learn	-8.7766
▁सम्पन्न	-8.77918
▁p	-8.78004
▁needs	-8.78089
▁माग	-8.78154
▁निर्णय	-8.78265
▁On	-8.7846
▁स्वास्थ्य	-8.78671
▁body	-8.78842
ness	-8.7885
an	-8.78964
▁hours	-8.78964
▁क्षेत्रमा	-8.79191
▁second	-8.79199
▁सहयोग	-8.79371
▁power	-8.79422
le	-8.79535
▁उनी	-8.79684
▁Here	-8.79723
....	-8.79943
्न	-8.79945
▁प	-8.80025
▁article	-8.80052
▁local	-8.80082
हरुको	-8.80098
ह	-8.80466
▁With	-8.80663
▁नेपालको	-8.80668
w	-8.80875
▁isn	-8.80919
▁started	-8.81091
▁social	-8.81325
▁line	-8.81455
ion	-8.81522
▁wanted	-8.81575
री	-8.81648
▁bad	-8.81656
▁मेरो	-8.81728
▁share	-8.81732
▁अन्य	-8.81912
▁ask	-8.81937
▁group	-8.82009
मै	-8.82162
man	-8.827
▁called	-8.8289
up	-8.83011
यो	-8.83103
▁G	-8.83182
▁seems	-8.83258
▁मन्त्री	-8.83282
▁20	-8.83345
▁future	-8.83383
▁पटक	-8.83578
▁19	-8.83595
▁child	-8.83646
▁उनको	-8.83873
▁नं	-8.84274
▁उक्त	-8.84322
▁yourself	-8.84554
▁taking	-8.84678
▁यी	-8.847
▁कम	-8.84806
x	-8.84874
▁given	-8.84885
▁check	-8.84992
▁reason	-8.85046
▁comes	-8.85388
▁government	-8.854
न्	-8.85511
▁personal	-8.85547
▁plan	-8.85625
▁heart	-8.85633
W	-8.85694
▁गर्नु	-8.85747
▁These	-8.85785
▁देखि	-8.85829
▁However	-8.85971
▁नि	-8.86132
▁soon	-8.86154
▁short	-8.86171
▁page	-8.86186
▁After	-8.86301
▁थप	-8.86466
▁पक्राउ	-8.86483
ment	-8.86683
▁students	-8.86754
▁young	-8.86844
▁several	-8.86898
.”	-8.87066
▁18	-8.87205
▁महिला	-8.87235
▁U	-8.87286
▁along	-8.87346
us	-8.87484
▁nice	-8.87597
▁anyone	-8.87885
▁later	-8.88172
▁R	-8.88177
▁8	-8.88201
▁example	-8.88505
▁happy	-8.88528
▁large	-8.88572
▁writing	-8.88661
ग	-8.88693
▁Not	-8.88721
▁अघि	-8.89305
ne	-8.89427
▁7	-8.89726
▁सूचना	-8.89843
It	-8.90636
▁whether	-8.90661
You	-8.90683
▁व्यवस्था	-8.907
▁almost	-8.90829
ting	-8.91007
▁भनेर	-8.91133
▁आयोजना	-8.91286
▁market	-8.91471
▁reading	-8.91591
▁खेल	-8.91646
▁coming	-8.91873
▁across	-8.91962
▁नेपालमा	-8.92012
▁O	-8.92021
co	-8.92161
ली	-8.92387
ar	-8.92423
▁content	-8.92544
▁12	-8.92823
▁प्रतिशत	-8.93088
▁words	-8.93296
▁project	-8.93367
▁either	-8.93395
▁community	-8.93621
▁above	-8.93677
▁insurance	-8.93849
▁offer	-8.93865
://	-8.94237
▁क्षेत्र	-8.94252
▁minutes	-8.94295
▁rather	-8.94355
▁myself	-8.94557
▁१५	-8.94589
▁क	-8.94614
▁research	-8.94801
▁level	-8.94864
▁questions	-8.95143
."	-8.95323
▁Well	-8.95324
▁talk	-8.95574
▁८	-8.95584
L	-8.9574
ro	-8.96024
▁hear	-8.96047
▁Just	-8.9605
▁K	-8.96201
▁Our	-8.96451
▁form	-8.96465
We	-8.96536
▁W	-8.97034
▁१२	-8.97044
ना	-8.9709
ो	-8.97155
▁leave	-8.97164
▁rest	-8.97271
▁stay	-8.97462
▁taken	-8.97519
N	-8.97743
िक	-8.98417
▁--	-8.98454
▁million	-8.98593
▁moment	-8.98699
▁create	-8.98758
वि	-8.9879
▁forward	-8.98841
▁eyes	-8.98868
▁true	-8.99127
▁११	-8.99215
▁An	-8.99336
▁however	-8.99377
el	-8.99396
सहित	-8.99502
▁९	-8.99513
▁बि	-8.99582
▁remember	-8.99608
▁four	-8.99904
▁month	-8.99941
▁cost	-9.00066
▁सदस्य	-9.00141
▁upon	-9.00218
ित	-9.0027
▁ग	-9.0034
▁law	-9.00399
▁friend	-9.00484
▁program	-9.00626
भन्दा	-9.00671
▁visit	-9.00722
▁light	-9.00779
▁email	-9.00842
▁होइन	-9.00871
▁M	-9.01149
▁half	-9.01249
▁दिएको	-9.01268
▁access	-9.01414
▁issues	-9.01587
ist	-9.01688
▁मैले	-9.01798
▁issue	-9.01927
▁simply	-9.02225
▁clear	-9.02305
▁देश	-9.02351
▁close	-9.02454
▁early	-9.02737
de	-9.02743
▁quality	-9.02975
▁यहाँ	-9.03094
▁ब	-9.03175
2	-9.03214
▁नाम	-9.03238
▁२०७५	-9.03293
▁couple	-9.03362
▁based	-9.03382
▁सहित	-9.03667
▁जनाएको	-9.03686
सी	-9.03735
▁प्राप्त	-9.03769
▁Can	-9.03864
हरुले	-9.03866
rs	-9.03941
▁special	-9.04
▁2018	-9.04045
ies	-9.04379
▁morning	-9.04428
स्	-9.04473
ख	-9.04643
ty	-9.0466
▁भिडियो	-9.04675
▁saw	-9.04776
at	-9.04963
▁सि	-9.04976
▁प्रतिक्रिया	-9.04982
▁कसरी	-9.05008
▁शेयर	-9.05087
▁especially	-9.05213
K	-9.05326
▁buy	-9.05407
▁रु	-9.05487
▁पूर्व	-9.05667
▁Some	-9.05707
as	-9.05751
▁video	-9.05787
▁heard	-9.0582
▁Don	-9.05821
▁योजना	-9.05903
▁deal	-9.06043
‍	-9.06061
▁looks	-9.06309
▁stop	-9.06361
?".	-9.06447
ry	-9.06559
R	-9.06573
▁wrong	-9.06576
▁पर्ने	-9.06628
▁city	-9.06646
st	-9.06647
▁वटा	-9.06724
▁contact	-9.06852
▁सन्	-9.06889
▁below	-9.06928
na	-9.06937
▁price	-9.06945
▁write	-9.07272
▁bring	-9.07365
▁रूपमा	-9.07378
▁wasn	-9.07465
वा	-9.07485
▁human	-9.07633
▁N	-9.07639
▁products	-9.07697
ौ	-9.07699
▁दिए	-9.07701
▁likely	-9.07877
▁move	-9.07906
▁किन	-9.07975
भ	-9.08004
▁non	-9.08005
E	-9.08127
▁sense	-9.08227
बीच	-9.08227
श	-9.08283
▁looked	-9.0851
lo	-9.08536
▁turn	-9.08544
▁9	-9.08841
▁certain	-9.08927
▁value	-9.08955
_	-9.09007
▁media	-9.09132
▁Please	-9.09156
age	-9.09171
▁सु	-9.09189
▁enjoy	-9.09229
▁seem	-9.0932
▁kids	-9.09325
▁stuff	-9.09431
▁age	-9.09473
▁रुपैयाँ	-9.09542
▁राम्रो	-9.09645
▁अवस्था	-9.09711
▁add	-9.09804
▁members	-9.10017
▁बनाउन	-9.10051
▁सामाजिक	-9.1007
▁control	-9.1013
ling	-9.10237
is	-9.10336
▁१९	-9.10413
▁ठूलो	-9.10428
▁beautiful	-9.10639
▁पाँच	-9.10721
▁self	-9.11112
▁cannot	-9.11204
▁due	-9.1128
▁five	-9.11429
▁नगरपालिका	-9.1144
▁Then	-9.11517
▁simple	-9.11556
▁कार्य	-9.11666
▁needed	-9.1176
▁event	-9.1179
ः	-9.11802
▁एमाले	-9.11847
▁हुनेछ	-9.11951
▁माओवादी	-9.11955
▁H	-9.11956
▁15	-9.1213
▁amount	-9.12222
▁subject	-9.12266
▁word	-9.12355
am	-9.12419
▁etc	-9.12621
▁type	-9.12722
▁view	-9.12732
▁संविधान	-9.12819
▁woman	-9.12983
▁living	-9.13008
िङ	-9.13213
▁चार	-9.13215
▁wait	-9.13221
▁ले	-9.1336
H	-9.13375
नी	-9.13381
▁pre	-9.13453
▁single	-9.13482
▁front	-9.13523
▁product	-9.13573
▁include	-9.13619
▁प्र	-9.13654
▁development	-9.13657
▁known	-9.13848
▁problems	-9.13893
▁जारी	-9.13909
ive	-9.13918
▁perfect	-9.1419
3	-9.14204
▁गीत	-9.1421
ने	-9.1422
▁शिक्षा	-9.14223
▁weeks	-9.14284
te	-9.146
▁thinking	-9.14645
▁account	-9.14668
▁Be	-9.1478
▁design	-9.14784
▁season	-9.14917
▁space	-9.14969
▁knew	-9.14979
ie	-9.15002
▁राजनीतिक	-9.1513
▁saying	-9.15317
▁कार्यक्रममा	-9.15413
▁सम्पर्क	-9.15453
▁low	-9.15467
▁दोस्रो	-9.15488
▁wish	-9.15515
▁longer	-9.15591
▁interesting	-9.15767
▁L	-9.15784
▁घोषणा	-9.15899
▁answer	-9.15996
▁तयारी	-9.16133
▁report	-9.16145
▁office	-9.16417
▁लागेको	-9.16479
▁door	-9.16617
▁बस	-9.16621
▁आवश्यक	-9.16755
▁अर्को	-9.16969
▁मात्रै	-9.16971
▁बनाउने	-9.17016
▁co	-9.17186
▁current	-9.17321
▁/	-9.17427
▁पछि	-9.17575
▁interest	-9.17749
माथि	-9.17917
la	-9.17994
▁present	-9.18128
▁सडक	-9.18184
▁building	-9.18305
▁छु	-9.18349
च	-9.18367
▁मलाई	-9.18441
ary	-9.18464
▁२०७४	-9.18685
इ	-9.18779
▁behind	-9.18835
▁news	-9.18854
▁phone	-9.18935
▁Why	-9.18942
▁खर्च	-9.19237
▁worth	-9.19283
पा	-9.19309
▁ready	-9.19706
ाउने	-9.19733
▁air	-9.19757
▁सक्छ	-9.19772
लि	-9.19776
▁साथ	-9.19859
▁chance	-9.19865
▁मत	-9.20032
▁क्रममा	-9.20357
▁meet	-9.20426
▁२५	-9.20701
िएको	-9.2073
▁ways	-9.20751
▁ए	-9.2094
▁विषयमा	-9.21042
▁इ	-9.21159
▁amazing	-9.21195
!!	-9.21205
▁dis	-9.21301
▁Mr	-9.21304
▁अगाडि	-9.21312
U	-9.21444
est	-9.21498
▁risk	-9.21536
ू	-9.21613
▁बन्द	-9.21614
▁वडा	-9.21617
ia	-9.21721
▁Of	-9.21827
▁Let	-9.21831
▁सञ्चालन	-9.21877
v	-9.22026
▁further	-9.2224
▁His	-9.22323
V	-9.22397
ra	-9.22499
il	-9.2256
▁music	-9.22655
▁सुन	-9.22677
▁रकम	-9.22708
▁result	-9.22748
▁companies	-9.22851
▁आएका	-9.22852
▁continue	-9.2295
▁follow	-9.2318
un	-9.23345
हरुलाई	-9.23384
ण	-9.2346
▁study	-9.23692
;.	-9.23776
no	-9.23854
▁himself	-9.23882
▁30	-9.24026
▁उत्पादन	-9.24265
▁felt	-9.24334
▁भारतीय	-9.24366
▁training	-9.24481
▁mother	-9.24803
▁*	-9.24847
ाउन	-9.24965
▁While	-9.24976
▁results	-9.25028
▁पूरा	-9.25031
▁outside	-9.25316
▁required	-9.2534
▁राष्ट्र	-9.25343
O	-9.25399
▁party	-9.25492
▁common	-9.25617
१	-9.25704
4	-9.25706
ाई	-9.25821
".	-9.25861
▁Yes	-9.25943
▁राष्ट्रपति	-9.25962
▁hands	-9.25971
5	-9.26124
▁बाट	-9.2633
राज	-9.26358
▁maybe	-9.26436
less	-9.26439
▁Or	-9.26474
▁happen	-9.26583
▁बेला	-9.26604
▁नेकपा	-9.26738
ine	-9.26795
▁हुँदा	-9.26821
ए	-9.27153
ful	-9.27212
▁ह	-9.27222
सा	-9.27228
▁war	-9.27258
▁usually	-9.27296
ेका	-9.27305
▁ओली	-9.27331
▁history	-9.2734
बारे	-9.27342
▁definitely	-9.27349
▁De	-9.27375
▁works	-9.27497
▁running	-9.27551
▁United	-9.27563
▁चलचित्र	-9.27732
▁उहाँले	-9.27813
▁energy	-9.2796
▁lost	-9.28062
▁death	-9.28092
▁अर्ब	-9.28106
▁turned	-9.28153
▁consider	-9.28215
▁गएको	-9.28373
▁तयार	-9.28479
▁period	-9.285
▁प्रहरीले	-9.28522
▁हुँदै	-9.28736
▁staff	-9.28772
et	-9.28883
▁दर्ता	-9.28992
या	-9.29058
▁विश्व	-9.2916
बहादुर	-9.29181
▁आउने	-9.29188
▁general	-9.29258
▁Even	-9.29317
▁industry	-9.29426
▁themselves	-9.2952
▁11	-9.29565
▁talking	-9.29675
▁wonderful	-9.29785
▁date	-9.29794
▁May	-9.30124
▁cause	-9.30184
ism	-9.3045
▁जनाको	-9.30499
▁American	-9.30617
▁added	-9.30654
उ	-9.30669
ter	-9.30734
▁financial	-9.30771
▁Hi	-9.30791
▁class	-9.30802
▁couldn	-9.30841
▁सरकारको	-9.30864
▁thank	-9.3128
▁position	-9.31309
▁goes	-9.31346
▁difficult	-9.31367
▁By	-9.31412
▁girl	-9.31441
▁छलफल	-9.31654
▁white	-9.31713
time	-9.31767
▁written	-9.31935
▁complete	-9.3198
▁गत	-9.32041
▁father	-9.32126
▁send	-9.32126
▁haven	-9.32155
▁similar	-9.32156
▁certainly	-9.32281
one	-9.32342
▁wouldn	-9.32389
▁agree	-9.32548
▁opportunity	-9.32605
▁पत्रकार	-9.32734
▁१३	-9.32828
भिडियो	-9.32866
▁मुख्य	-9.32888
1	-9.32916
▁THE	-9.33272
▁भएर	-9.3341
ha	-9.33497
स्थित	-9.33633
▁major	-9.33635
▁नीति	-9.33663
mo	-9.33736
▁step	-9.33932
▁समिति	-9.33932
सँगै	-9.33939
िन	-9.34019
▁fire	-9.34046
▁key	-9.3418
▁tried	-9.34262
▁केन्द्र	-9.34302
▁बा	-9.34376
▁action	-9.34385
be	-9.34394
▁जाने	-9.34425
me	-9.34437
▁कृषि	-9.34453
▁gave	-9.34461
▁instead	-9.34519
▁कति	-9.34542
▁sort	-9.34582
▁भारत	-9.34583
▁fine	-9.34664
▁attention	-9.34869
▁बैंक	-9.34911
▁choose	-9.34965
▁अनि	-9.34992
ta	-9.35046
ted	-9.3537
▁thanks	-9.35393
▁lives	-9.35437
ton	-9.35463
▁parents	-9.355
▁प्रति	-9.35541
▁फिल्म	-9.35562
▁build	-9.3565
?"	-9.35699
z	-9.35772
▁US	-9.35787
▁policy	-9.35856
Y	-9.35867
ate	-9.35881
▁main	-9.35914
▁नम्बर	-9.35995
▁अन्तर्राष्ट्रिय	-9.36097
▁साथै	-9.36193
▁सबैभन्दा	-9.36226
▁५०	-9.36246
▁property	-9.36347
▁हामीले	-9.36419
▁१८	-9.36491
▁घाइते	-9.36534
▁strong	-9.36589
▁लगानी	-9.36598
▁feeling	-9.36639
▁among	-9.36648
▁guess	-9.36718
year	-9.36736
▁return	-9.36742
▁सुरक्षा	-9.36843
▁अवस्थामा	-9.36855
▁books	-9.36902
▁late	-9.36979
▁बैठक	-9.36992
्यो	-9.37054
▁३०	-9.37104
▁exactly	-9.37111
▁specific	-9.37112
जी	-9.37162
▁watch	-9.37173
ियो	-9.37238
्य	-9.37542
▁search	-9.37543
▁परेको	-9.37625
हरूको	-9.37725
▁necessary	-9.37846
▁News	-9.37914
▁बताएका	-9.38151
▁हत्या	-9.38205
▁happened	-9.38264
▁१४	-9.3829
▁range	-9.38315
▁success	-9.38373
▁near	-9.38397
line	-9.38405
▁card	-9.38459
▁ideas	-9.38488
अ	-9.38557
▁यसको	-9.38661
▁particular	-9.38669
ur	-9.38722
▁con	-9.38809
▁J	-9.3886
▁professional	-9.38925
▁ensure	-9.39117
▁takes	-9.39122
हा	-9.39235
▁customers	-9.39242
▁provided	-9.39284
▁विशेष	-9.39321
▁१६	-9.39381
▁knowledge	-9.39388
नि	-9.39393
▁details	-9.39441
▁situation	-9.39493
▁entire	-9.39503
बि	-9.39524
▁decided	-9.39556
▁comment	-9.39595
▁#	-9.39655
▁sound	-9.397
िने	-9.39763
▁cut	-9.39791
▁interested	-9.39801
▁black	-9.39807
▁education	-9.39844
▁States	-9.39861
▁सकिन्छ	-9.39907
▁test	-9.39965
्दै	-9.40289
▁favorite	-9.40307
▁individual	-9.4038
▁changes	-9.40605
▁भइरहेको	-9.4065
ance	-9.40793
▁voice	-9.40794
▁receive	-9.40799
▁quickly	-9.40807
▁भएपछि	-9.40998
▁hold	-9.41124
▁उद्योग	-9.41143
ाइ	-9.41165
ce	-9.41271
▁ल	-9.41278
▁अधिकार	-9.4129
▁save	-9.41313
▁increase	-9.41338
▁Me	-9.41415
▁inside	-9.41572
▁learning	-9.41652
▁link	-9.41659
जा	-9.41713
ङ	-9.41742
▁win	-9.41743
▁spend	-9.41825
▁एकता	-9.41832
▁युवा	-9.42
▁hour	-9.42137
▁More	-9.42141
▁Oh	-9.42148
२	-9.42229
▁glad	-9.42286
▁होला	-9.42441
▁allow	-9.42535
▁सफल	-9.42535
▁points	-9.42616
▁Are	-9.42637
▁निकै	-9.42687
▁थाहा	-9.42726
ch	-9.42733
▁various	-9.42742
?”.	-9.4277
ई	-9.42921
ir	-9.43006
▁pro	-9.4304
▁held	-9.43081
▁games	-9.43118
▁percent	-9.43167
▁भ	-9.43191
▁section	-9.43201
▁मूल्य	-9.43277
▁areas	-9.43314
▁hit	-9.43316
▁rate	-9.43434
old	-9.43467
▁Home	-9.43482
▁अन्तिम	-9.43617
▁दुर्घटना	-9.43647
समेत	-9.43762
▁Read	-9.43828
▁gone	-9.43831
▁ती	-9.44091
▁extra	-9.44196
▁अध्ययन	-9.44196
▁उ	-9.44378
ol	-9.44393
▁लिन	-9.44524
▁credit	-9.44553
▁जीवन	-9.44618
▁walk	-9.44638
▁giving	-9.4474
▁pick	-9.44757
▁completely	-9.44869
▁received	-9.44921
▁management	-9.44968
▁St	-9.45536
▁Have	-9.45638
दा	-9.45648
out	-9.45683
▁Also	-9.4569
▁safe	-9.45693
▁sometimes	-9.45752
▁व्यवस्थापन	-9.45796
▁सरकारी	-9.45797
▁decision	-9.45804
▁समयमा	-9.45891
%	-9.45938
do	-9.45941
र्	-9.45997
▁ज	-9.46091
▁सक्ने	-9.46097
▁security	-9.46141
▁b	-9.46184
▁pain	-9.46245
अनुसार	-9.46271
ति	-9.46325
▁hair	-9.46344
▁शर्मा	-9.4638
▁series	-9.46427
▁पोखरा	-9.46467
▁address	-9.46479
▁lead	-9.46517
▁tax	-9.46538
▁review	-9.46609
ating	-9.46641
▁परिवर्तन	-9.46694
▁eat	-9.46733
▁road	-9.46765
ous	-9.46782
▁कांग्रेस	-9.46856
▁गरिने	-9.46876
▁focus	-9.4694
▁meeting	-9.46968
▁practice	-9.46985
▁•	-9.47017
▁aren	-9.47017
प्र	-9.4702
▁marketing	-9.47057
▁पर्यटन	-9.47073
ad	-9.47208
”.	-9.47271
▁private	-9.47438
ent	-9.4748
▁third	-9.47504
▁जुन	-9.47568
▁सहमति	-9.47759
▁थापा	-9.47768
▁expect	-9.47822
▁break	-9.47847
▁guys	-9.48078
▁alone	-9.48094
▁travel	-9.48121
▁technology	-9.48211
▁field	-9.48236
▁http	-9.48279
id	-9.48347
▁Co	-9.48353
हरूले	-9.48464
लो	-9.48481
▁guy	-9.48537
▁उल्लेख	-9.48689
▁six	-9.48743
nd	-9.48792
▁खबर	-9.48805
▁final	-9.48815
▁paper	-9.4882
▁table	-9.48867
ian	-9.48871
▁terms	-9.48903
▁१७	-9.48914
▁16	-9.48954
▁कर	-9.49196
▁huge	-9.493
▁town	-9.49306
▁सम्म	-9.49345
▁medical	-9.49479
▁fast	-9.49484
▁लेख	-9.49627
▁worked	-9.49659
ीय	-9.49667
▁events	-9.49706
um	-9.49752
▁आजको	-9.49846
▁ख	-9.49852
▁विषय	-9.49923
0	-9.4993
▁cool	-9.49959
▁केन्द्रीय	-9.49964
▁sharing	-9.49973
▁नेपालले	-9.50006
▁weight	-9.50029
▁प्रस्ताव	-9.50067
▁natural	-9.50128
▁internet	-9.50151
▁अनुसन्धान	-9.50174
he	-9.50234
▁involved	-9.50254
▁सा	-9.50482
se	-9.50494
▁choice	-9.50549
▁गरि	-9.50551
▁स्थापना	-9.50552
▁piece	-9.50621
▁store	-9.50632
ul	-9.50728
▁skills	-9.50754
्दा	-9.50785
▁Most	-9.50851
▁wife	-9.50859
ally	-9.50927
▁शुरु	-9.50954
▁यसरी	-9.50965
▁साउन	-9.5098
डा	-9.5099
डी	-9.5103
ma	-9.51086
▁oil	-9.51127
▁प्रविधि	-9.51144
▁stand	-9.51195
What	-9.5129
ated	-9.51298
▁ground	-9.513
▁सहभागी	-9.51381
▁सम्झौता	-9.51505
▁Good	-9.51623
▁fall	-9.51768
@	-9.51824
के	-9.5193
▁Google	-9.52109
▁घटना	-9.5214
▁cover	-9.52197
▁picture	-9.52212
▁according	-9.52245
▁कर्मचारी	-9.52281
▁higher	-9.52362
▁finally	-9.52423
▁excellent	-9.52477
▁From	-9.52555
▁1.	-9.5259
▁13	-9.52622
▁sent	-9.52663
रो	-9.52709
▁उपलब्ध	-9.52713
▁बजेट	-9.52753
▁art	-9.52773
▁जन	-9.52918
▁माघ	-9.53005
▁आगामी	-9.53039
▁itself	-9.53098
▁recent	-9.53177
▁drive	-9.53215
म्	-9.53235
▁हुनु	-9.53254
भित्र	-9.53307
▁17	-9.53346
▁गर्नुपर्ने	-9.53363
▁summer	-9.53424
▁च	-9.53536
▁लिएर	-9.53537
▁बारे	-9.53652
▁addition	-9.53687
▁sign	-9.53723
▁नागरिक	-9.53788
▁click	-9.53874
▁performance	-9.53903
ant	-9.53955
▁नगर	-9.53962
▁दिएका	-9.53977
▁उच्च	-9.54003
▁14	-9.54104
▁total	-9.54121
▁size	-9.54151
▁message	-9.54275
day	-9.54383
▁potential	-9.54406
ध	-9.54419
▁Many	-9.54426
▁easily	-9.54456
▁यस्ता	-9.54483
ौं	-9.54607
फ	-9.54637
▁एवं	-9.54718
▁हरेक	-9.54721
▁son	-9.54744
▁York	-9.54854
▁जान	-9.54862
▁paid	-9.54919
▁environment	-9.5492
▁भएकाले	-9.54931
▁land	-9.54975
▁playing	-9.55157
▁असार	-9.55186
▁treatment	-9.5523
▁comments	-9.55288
▁eye	-9.55378
▁पानी	-9.55393
▁customer	-9.55455
▁Go	-9.55479
▁t	-9.55622
▁जस्तो	-9.5563
▁यही	-9.55634
▁brought	-9.55641
▁२१	-9.55669
▁हाल	-9.55671
?”	-9.55689
▁trip	-9.55747
▁पछिल्लो	-9.5575
▁truth	-9.55758
▁activities	-9.55807
▁दुवै	-9.55825
▁लामो	-9.55826
pe	-9.55923
▁computer	-9.56118
J	-9.56182
▁sleep	-9.56348
▁recommend	-9.56388
▁related	-9.56407
▁ability	-9.56491
▁quick	-9.56526
▁जेठ	-9.5655
▁version	-9.56618
▁shows	-9.56722
▁गाउँपालिका	-9.56752
▁First	-9.56845
▁तपाईको	-9.56853
▁advice	-9.56868
▁बताउनुभयो	-9.56878
ke	-9.56953
▁असोज	-9.56994
▁police	-9.57
of	-9.57041
▁role	-9.57129
▁effect	-9.57138
▁member	-9.57142
▁तपाईं	-9.57272
▁»	-9.57325
▁legal	-9.57334
▁red	-9.57338
▁began	-9.57383
▁blood	-9.57488
`	-9.57489
▁व	-9.57492
▁त्यस	-9.57539
▁useful	-9.57545
▁en	-9.57557
▁clean	-9.57572
▁feet	-9.57637
▁recently	-9.57657
प्रति	-9.57705
li	-9.57708
son	-9.5771
▁difference	-9.57739
सि	-9.57748
रि	-9.57826
▁application	-9.57833
▁national	-9.57852
▁प्रदान	-9.57867
▁25	-9.57959
▁truly	-9.58051
▁अझै	-9.58069
▁द	-9.58134
▁evidence	-9.58145
▁मंसिर	-9.58256
▁Great	-9.58355
▁loved	-9.5837
▁term	-9.58375
▁गठन	-9.58492
▁weekend	-9.58547
land	-9.58576
we	-9.58593
▁improve	-9.58736
▁options	-9.58742
▁बजार	-9.58779
▁John	-9.58799
▁वर्षको	-9.58882
▁bed	-9.59
▁impact	-9.59043
थ	-9.59049
ङ्ग	-9.59064
▁hot	-9.59075
▁गर्छ	-9.59079
▁World	-9.59085
▁सम्बन्धित	-9.59111
▁starting	-9.59165
्या	-9.59175
▁record	-9.59179
▁speak	-9.59184
▁husband	-9.59256
▁पाउने	-9.59285
▁अधिकारी	-9.59518
ish	-9.59623
▁करिब	-9.59709
6	-9.59711
▁spent	-9.59744
तर्फ	-9.59751
▁board	-9.59773
▁info	-9.59821
▁topic	-9.60026
▁संघ	-9.60068
▁दल	-9.60071
्नु	-9.60185
▁posts	-9.60206
▁Day	-9.60215
▁विश्वास	-9.60282
▁State	-9.60348
▁खेलमा	-9.60411
▁doubt	-9.60527
▁countries	-9.6061
▁America	-9.60646
▁महिना	-9.60669
va	-9.60729
▁cases	-9.60923
▁V	-9.60978
▁costs	-9.61177
▁seemed	-9.61257
▁लि	-9.61263
▁पर्छ	-9.61264
▁सभा	-9.61322
▁note	-9.61398
द्वारा	-9.61423
▁जोड	-9.61432
▁effective	-9.61443
▁संयुक्त	-9.61482
▁परेका	-9.61485
per	-9.61594
▁भित्र	-9.61658
▁sales	-9.61759
▁created	-9.61796
▁पैसा	-9.61858
▁political	-9.61907
▁उपचार	-9.62046
▁grow	-9.62095
▁२४	-9.62226
▁approach	-9.62277
000	-9.62344
▁निर्देशन	-9.62464
No	-9.62518
▁त्यसैले	-9.62681
ex	-9.62692
▁text	-9.62731
▁आग्रह	-9.62748
▁original	-9.62953
▁unique	-9.6298
▁उत्तर	-9.63026
▁loss	-9.63027
▁relationship	-9.63045
▁wonder	-9.63135
▁round	-9.63226
▁baby	-9.63303
▁सम्बन्ध	-9.6358
▁student	-9.63645
▁ones	-9.63655
टी	-9.6372
&	-9.63746
▁केपी	-9.63839
▁option	-9.63919
▁जित	-9.6395
▁respect	-9.64041
by	-9.64082
▁पुगेको	-9.64108
▁lower	-9.64148
▁f	-9.64194
▁perhaps	-9.64232
▁film	-9.64312
▁बाहिर	-9.64476
▁career	-9.64677
▁नेपालका	-9.6469
रे	-9.64743
▁अर्थ	-9.64844
▁fear	-9.64883
▁items	-9.64902
▁24	-9.64989
▁बुधबार	-9.65025
▁conditions	-9.65029
▁considered	-9.65034
www	-9.65045
▁towards	-9.65102
▁प्रक्रिया	-9.65213
▁serious	-9.65313
▁beginning	-9.65467
▁purpose	-9.65469
▁सोमबार	-9.65536
▁economic	-9.65585
▁seeing	-9.65833
▁ऐन	-9.65919
▁आफ्नै	-9.65965
▁gets	-9.65972
op	-9.66014
▁2.	-9.66023
▁court	-9.66105
▁Dr	-9.66212
▁भनेको	-9.66236
▁expected	-9.66252
▁bar	-9.6632
ized	-9.66397
▁nature	-9.66569
▁प्रा	-9.666
३	-9.6662
▁प्रेम	-9.66782
▁50	-9.66841
▁Christmas	-9.6692
▁code	-9.66925
▁Because	-9.66945
▁२८	-9.66968
ती	-9.67044
ंग	-9.67047
▁Con	-9.67092
▁हुँदैन	-9.671
▁positive	-9.6722
▁भन्छन्	-9.67248
▁बिहान	-9.67286
▁बाँकी	-9.673
▁brand	-9.67325
▁प्रवेश	-9.67551
▁effort	-9.67598
▁g	-9.67602
▁बजारमा	-9.67621
▁poor	-9.67626
▁Once	-9.67636
▁Man	-9.67737
▁offers	-9.67758
ence	-9.67762
▁wide	-9.67786
▁benefits	-9.67873
हरुमा	-9.67935
▁जो	-9.67952
▁skin	-9.67952
▁२२	-9.68115
▁Ro	-9.68131
▁model	-9.68225
▁additional	-9.68283
▁बनेको	-9.68298
▁सांसद	-9.68332
▁act	-9.68467
पी	-9.68587
ning	-9.6862
▁स्थानमा	-9.68627
but	-9.68665
▁benefit	-9.68796
▁Pro	-9.68798
▁currently	-9.68841
▁box	-9.68929
िएका	-9.69077
▁Facebook	-9.69091
▁नेतृत्व	-9.69095
▁ten	-9.69148
▁notice	-9.69169
▁@	-9.69182
▁समाज	-9.69297
for	-9.69403
▁जे	-9.69481
▁average	-9.69499
▁planning	-9.69574
▁source	-9.69601
▁अभियान	-9.69611
▁yes	-9.69621
▁helpful	-9.69648
▁material	-9.69661
▁reasons	-9.69743
▁character	-9.6978
▁reach	-9.6981
िया	-9.69848
▁विचार	-9.69899
▁देखिएको	-9.69931
▁wants	-9.70035
▁Q	-9.70111
▁चुनाव	-9.7016
▁met	-9.70209
▁उनलाई	-9.7031
▁Who	-9.70533
nt	-9.70551
▁प्रश्न	-9.70589
ster	-9.70593
[	-9.707
▁waiting	-9.7071
▁o	-9.70729
आ	-9.70744
▁dog	-9.70746
▁features	-9.70779
▁उम्मेदवार	-9.70795
7	-9.70836
▁गाउँ	-9.70959
▁sub	-9.70964
▁file	-9.70975
▁जनता	-9.70982
▁मिडिया	-9.71024
▁cold	-9.71252
▁app	-9.71257
▁War	-9.7129
▁response	-9.71353
▁Her	-9.71363
▁apply	-9.71373
▁d	-9.71398
▁वितरण	-9.71436
▁whatever	-9.71466
▁Le	-9.71472
▁सं	-9.71506
▁growth	-9.71516
▁stories	-9.71518
▁जन्म	-9.7156
if	-9.71615
▁goal	-9.71622
▁purchase	-9.71821
▁users	-9.71911
▁Maybe	-9.71993
▁प्रयास	-9.71996
मान	-9.72073
▁City	-9.72076
▁President	-9.721
▁अस्पताल	-9.72146
▁फेरि	-9.72172
▁individuals	-9.72238
ल्	-9.72282
▁फागुन	-9.72282
▁भाग	-9.72287
▁Make	-9.72293
▁changed	-9.72397
्र	-9.72409
▁style	-9.72442
ga	-9.72466
०	-9.72489
8	-9.72492
▁Mo	-9.72497
▁शुक्रबार	-9.72531
▁resources	-9.72625
].	-9.72637
▁college	-9.72664
▁fit	-9.72691
▁avoid	-9.72718
्छ	-9.72763
▁throughout	-9.7284
our	-9.7286
▁शक्ति	-9.72864
▁आधारमा	-9.73005
▁software	-9.73027
▁became	-9.73054
▁daily	-9.7312
▁clients	-9.7312
▁begin	-9.73158
go	-9.73178
▁बजे	-9.73211
ण्ड	-9.73234
▁popular	-9.73269
sh	-9.73443
▁wrote	-9.7346
▁easier	-9.73514
▁त्यसको	-9.7356
▁figure	-9.73561
▁2017	-9.73586
▁track	-9.73631
▁boy	-9.73652
मध्ये	-9.73693
▁places	-9.73714
▁२७	-9.73765
▁गोल	-9.73817
▁National	-9.73818
▁त्यस्तै	-9.73844
▁dark	-9.73877
ah	-9.73977
▁anti	-9.74078
▁नभएको	-9.74085
▁संख्या	-9.74099
▁understanding	-9.74153
▁प्रकाशित	-9.74175
▁dead	-9.74216
▁लक्ष्य	-9.74216
▁कुन	-9.74349
▁बर्ष	-9.74398
▁trust	-9.74451
▁Love	-9.74481
▁plans	-9.74516
▁nearly	-9.74559
▁c	-9.74603
▁user	-9.74617
▁X	-9.74624
▁लाई	-9.74633
▁आफ्ना	-9.74639
▁designed	-9.74697
ner	-9.74752
▁forget	-9.74755
▁screen	-9.74768
▁पा	-9.74773
▁व्यक्ति	-9.7481
led	-9.74839
▁movie	-9.74927
▁kept	-9.74932
▁March	-9.74956
▁दैनिक	-9.74963
पुर	-9.74975
▁सात	-9.75046
con	-9.75072
▁physical	-9.75072
9	-9.75076
▁safety	-9.75077
▁deep	-9.75112
▁शाखा	-9.7516
▁trade	-9.75242
▁विद्यालय	-9.75253
▁systems	-9.75285
▁sell	-9.7538
▁House	-9.75422
X	-9.75517
▁fight	-9.75599
▁although	-9.7563
से	-9.75676
▁floor	-9.7573
▁projects	-9.75744
▁Act	-9.75749
ओ	-9.75827
em	-9.75903
▁Since	-9.75938
रु	-9.76015
▁People	-9.76081
▁trouble	-9.76094
▁यस्तै	-9.76114
▁ओलीले	-9.76172
▁fresh	-9.76179
!"	-9.76194
▁lots	-9.76211
▁100	-9.76248
ut	-9.76266
▁language	-9.76338
30	-9.76383
▁संघीय	-9.76429
ca	-9.76508
▁daughter	-9.7662
He	-9.76649
सं	-9.76654
▁via	-9.76661
▁श्रेष्ठ	-9.76692
▁Will	-9.76696
▁पहिले	-9.76709
­	-9.76763
▁tips	-9.7695
▁University	-9.7698
▁moving	-9.76988
im	-9.76994
▁develop	-9.77011
▁La	-9.77021
ber	-9.77143
▁ahead	-9.7716
▁ex	-9.77206
▁कानुन	-9.77212
▁lose	-9.77214
▁charge	-9.7723
▁June	-9.77231
टा	-9.77256
▁opinion	-9.77297
▁provides	-9.77305
▁brain	-9.77364
▁photos	-9.77374
▁अमेरिकी	-9.77411
ौँ	-9.77419
▁यसले	-9.77424
▁आफू	-9.77439
▁छौं	-9.77502
▁happens	-9.77503
▁learned	-9.77516
ni	-9.77518
्स	-9.77591
red	-9.77624
▁image	-9.77822
▁groups	-9.7786
▁built	-9.77908
ri	-9.77948
▁location	-9.77948
▁TV	-9.78015
▁April	-9.7802
▁rights	-9.78074
▁हात	-9.7815
▁healthy	-9.78175
▁basis	-9.7835
▁आरोप	-9.78366
▁२९	-9.78444
▁Al	-9.78445
▁मिति	-9.78533
ck	-9.78605
▁कु	-9.78708
▁फोन	-9.78767
▁gives	-9.78779
▁levels	-9.78802
▁previous	-9.78843
▁regular	-9.78896
▁राज्य	-9.78911
▁September	-9.7895
▁सम्मान	-9.79015
tion	-9.79051
▁क्रिकेट	-9.79063
▁South	-9.79089
▁lack	-9.79171
▁२३	-9.79219
▁allowed	-9.79335
▁पोष्ट	-9.79404
▁require	-9.79437
▁December	-9.79468
▁>	-9.79479
▁pictures	-9.79516
▁आइ	-9.7959
!!!	-9.79595
▁claim	-9.79676
▁thoughts	-9.79708
▁pass	-9.79728
▁mine	-9.79765
▁$1	-9.79802
▁शान्ति	-9.79928
▁बढेको	-9.80024
▁Ra	-9.80032
▁January	-9.80187
▁directly	-9.80247
▁sun	-9.80354
▁विद्यार्थी	-9.8045
▁successful	-9.80479
▁solution	-9.8054
▁जिल्लामा	-9.80657
▁श	-9.80668
▁letter	-9.80759
▁तेस्रो	-9.80818
▁absolutely	-9.80859
▁beyond	-9.80883
▁organization	-9.80917
▁विवरण	-9.80929
▁sweet	-9.80934
▁global	-9.81004
▁middle	-9.81013
▁यसमा	-9.81028
▁२६	-9.81102
▁सम्बन्धी	-9.81175
▁limited	-9.81243
If	-9.81266
बी	-9.8138
▁international	-9.81468
▁English	-9.81729
▁सचिव	-9.81821
▁photo	-9.8186
▁November	-9.81918
▁doctor	-9.82007
▁speed	-9.82072
▁highly	-9.82096
ac	-9.82102
▁भदौ	-9.82167
▁3.	-9.82202
िय	-9.82202
And	-9.8223
▁parts	-9.82242
▁aware	-9.82404
▁प्रदर्शन	-9.82431
▁color	-9.82481
▁सुधार	-9.82522
ise	-9.8254
▁संस्था	-9.82574
▁[...]	-9.82615
▁आउन	-9.82661
▁)	-9.82684
▁awesome	-9.82759
▁मन्त्रालय	-9.82775
▁सुझाव	-9.82818
▁science	-9.82835
▁touch	-9.82856
▁condition	-9.82884
▁super	-9.82909
This	-9.82927
लगायत	-9.82959
▁राजधानी	-9.82959
▁प्रस्तुत	-9.82973
प्रसाद	-9.82991
▁immediately	-9.83001
▁अधिकृत	-9.83014
▁आइतबार	-9.83094
▁ठाउँमा	-9.83157
▁rules	-9.8316
▁दक्षिण	-9.83187
▁दिनुहोस्	-9.83187
ship	-9.83248
▁appreciate	-9.83251
▁decide	-9.833
▁force	-9.83343
▁तपाईंको	-9.83373
▁programs	-9.83376
▁sites	-9.83416
▁variety	-9.83478
▁significant	-9.83505
▁Mar	-9.83531
▁ज्यान	-9.83565
▁यौन	-9.83567
▁सवारी	-9.83619
▁Jesus	-9.83645
▁particularly	-9.83687
▁त्यही	-9.837
▁fully	-9.83713
▁Car	-9.83737
▁correct	-9.83835
▁sorry	-9.83841
▁growing	-9.8386
सु	-9.83867
▁join	-9.83872
ाउ	-9.83914
▁मुद्दा	-9.83947
▁40	-9.84014
▁फुटबल	-9.84054
▁अवसर	-9.84055
▁budget	-9.84087
▁mention	-9.84095
▁standard	-9.84174
जन	-9.84191
▁types	-9.84193
▁passed	-9.84315
▁Where	-9.84385
▁साहित्य	-9.84425
▁steps	-9.84469
४	-9.84568
▁players	-9.84571
▁21	-9.84573
मन्त्री	-9.84576
▁शनिबार	-9.84593
▁संशोधन	-9.84637
▁व्यक्त	-9.84678
▁protect	-9.84833
▁included	-9.84853
▁shot	-9.84904
▁कथा	-9.84914
▁कस्तो	-9.84964
ring	-9.85014
ठ	-9.85051
▁prevent	-9.85053
▁extremely	-9.85134
▁औं	-9.85149
▁request	-9.85243
▁income	-9.85359
▁sit	-9.85441
▁भनाइ	-9.85469
▁employees	-9.85527
▁Take	-9.85618
▁यात्रा	-9.85631
▁latest	-9.85672
▁छैनन्	-9.85675
ley	-9.85699
▁घरमा	-9.85748
▁July	-9.85788
▁October	-9.8579
▁patients	-9.85901
▁लाग्छ	-9.85948
▁mentioned	-9.85978
▁अफ	-9.86123
50	-9.86141
▁ओ	-9.86181
▁evening	-9.86216
▁कम्पनी	-9.86256
▁TO	-9.8629
▁earlier	-9.86331
lu	-9.86356
▁normal	-9.86371
▁families	-9.86396
▁unless	-9.86424
▁बस्ने	-9.86426
▁fair	-9.86437
▁Any	-9.86471
▁helped	-9.86507
▁sounds	-9.86524
▁अरु	-9.8653
▁providing	-9.86643
▁पु	-9.86868
▁gift	-9.87002
tro	-9.87003
झ	-9.87015
▁विस्तार	-9.8712
ci	-9.87234
=	-9.87243
▁copy	-9.87244
▁देखिन्छ	-9.8728
▁watching	-9.873
▁includes	-9.87338
▁pressure	-9.87366
▁समूह	-9.87394
▁dream	-9.87394
▁बाटो	-9.87431
ping	-9.87471
▁अमेरिका	-9.87523
▁green	-9.8761
But	-9.87625
ष	-9.87729
org	-9.87733
▁सम्भावना	-9.87823
▁ध्यान	-9.87864
▁पूर्ण	-9.87875
▁मुख्यमन्त्री	-9.87894
५	-9.87947
▁बन्न	-9.88012
▁पुस	-9.88031
▁statement	-9.88079
▁See	-9.88083
▁knows	-9.88124
▁चीन	-9.88239
ig	-9.88263
▁finding	-9.88316
▁सामान्य	-9.88325
▁author	-9.88381
▁गरिरहेको	-9.88486
ष्ट	-9.88491
▁hotel	-9.88496
▁Get	-9.88583
▁नहुने	-9.88586
▁Today	-9.88689
▁खान	-9.8875
▁shop	-9.88758
>	-9.8876
▁realize	-9.88875
ard	-9.88896
os	-9.88956
ाएर	-9.88996
▁North	-9.88998
ee	-9.89038
▁sea	-9.89234
▁production	-9.89241
▁सुविधा	-9.89262
▁हेर्न	-9.89299
In	-9.89319
▁moved	-9.89347
!".	-9.89376
▁release	-9.89447
▁method	-9.8945
▁tools	-9.89462
▁वैशाख	-9.89526
ite	-9.89567
▁भ्रमण	-9.89581
▁appropriate	-9.89596
▁base	-9.89632
▁network	-9.8968
मी	-9.89859
▁रोग	-9.89879
▁fan	-9.89906
ial	-9.89949
ities	-9.89957
▁straight	-9.90098
▁girls	-9.90103
ten	-9.90154
▁उप	-9.90217
▁भूमिका	-9.90237
▁Friday	-9.90261
▁sex	-9.90318
स्ट	-9.90361
▁भाषा	-9.90379
▁व्यापार	-9.90381
▁August	-9.90469
▁दु	-9.90477
▁पत्र	-9.90495
▁church	-9.90499
▁requirements	-9.90522
▁भवन	-9.90536
▁फरक	-9.90598
j	-9.90628
term	-9.90685
▁सकिने	-9.90778
▁stage	-9.90866
▁damage	-9.90873
ize	-9.90899
हि	-9.90912
▁भन्नुभयो	-9.90957
▁race	-9.90971
▁smile	-9.90995
▁played	-9.91018
off	-9.91059
.).	-9.9108
छन्	-9.91129
▁enjoyed	-9.91135
ative	-9.91166
▁अवसरमा	-9.9124
▁Lord	-9.91248
ाएको	-9.91293
▁direct	-9.91312
That	-9.91412
▁weather	-9.91413
ak	-9.91578
▁appear	-9.91632
▁challenge	-9.91652
ious	-9.91655
you	-9.91752
▁आमा	-9.91763
खा	-9.91766
▁वर्षमा	-9.91766
▁Like	-9.91773
▁खरिद	-9.91786
▁reduce	-9.91833
▁जि	-9.9184
▁दुर्घटनामा	-9.91866
▁यसअघि	-9.91914
▁stock	-9.9193
so	-9.91971
men	-9.92043
ward	-9.92153
जि	-9.92187
▁गर	-9.92211
▁त्यसपछि	-9.92295
▁बे	-9.92355
▁bank	-9.9241
▁dinner	-9.92575
▁cash	-9.92579
▁डि	-9.92609
▁मंगलबार	-9.92625
▁society	-9.92666
▁warm	-9.92728
▁path	-9.92741
हरूलाई	-9.92848
▁listen	-9.92881
▁देशको	-9.929
▁अनलाइन	-9.92902
▁reality	-9.92957
▁कार्यान्वयन	-9.92997
▁blue	-9.93032
▁contract	-9.93041
▁enter	-9.93046
▁modern	-9.93073
▁बैंकले	-9.93073
क्ष	-9.931
▁विवाह	-9.93113
▁माथि	-9.9313
▁creating	-9.93169
मार्फत	-9.93169
▁goals	-9.93188
▁die	-9.93192
▁Although	-9.93325
▁died	-9.93384
▁भूकम्प	-9.93427
▁लिने	-9.93431
▁whose	-9.93464
▁audience	-9.9347
▁UK	-9.93528
▁ध	-9.93643
▁मु	-9.93704
▁billion	-9.93721
▁।”	-9.93729
▁Na	-9.93756
▁businesses	-9.93782
▁हामीलाई	-9.93785
▁Sunday	-9.93802
▁गाडी	-9.93925
based	-9.9399
▁राम	-9.94002
▁numbers	-9.94026
र्स	-9.94056
ुपर्छ	-9.94099
तिर	-9.94169
▁song	-9.94196
▁गराउन	-9.94274
▁activity	-9.94285
▁हुन्छन्	-9.94368
mail	-9.94447
tic	-9.94553
▁worse	-9.94569
▁टोली	-9.94773
▁asking	-9.94791
▁४०	-9.94793
▁drop	-9.94827
▁लग	-9.94902
▁basic	-9.94921
▁महत्वपूर्ण	-9.94946
▁m	-9.9496
▁miles	-9.95023
▁धर्म	-9.95148
▁investment	-9.95174
▁carry	-9.95189
ud	-9.9522
da	-9.95367
▁फ	-9.95377
गत	-9.95434
ron	-9.95502
▁collection	-9.95503
▁equipment	-9.95609
▁bottom	-9.95635
dy	-9.95778
ors	-9.95806
▁former	-9.95824
Well	-9.95824
▁मतदान	-9.95889
▁फोटो	-9.95951
▁population	-9.95972
▁School	-9.9605
पि	-9.96069
Oh	-9.96095
▁फेसबुक	-9.96137
▁effects	-9.96194
▁त्यहाँ	-9.96208
▁worry	-9.96242
▁except	-9.96257
der	-9.9627
▁ई	-9.9635
▁disease	-9.96389
▁चितवन	-9.96423
▁multiple	-9.96456
▁लाग्ने	-9.96461
▁helps	-9.96472
▁clearly	-9.9648
my	-9.96561
▁Bo	-9.96615
▁brother	-9.96627
▁totally	-9.96668
▁हुनुहुन्छ	-9.96705
२०	-9.96708
▁wear	-9.96737
▁ला	-9.9678
ual	-9.96819
▁भन्न	-9.96847
▁campaign	-9.96904
कार	-9.96919
▁Li	-9.96966
▁window	-9.97031
▁पुरा	-9.97048
way	-9.97051
ization	-9.97055
▁published	-9.97146
▁मान्छे	-9.97198
▁वातावरण	-9.97207
di	-9.97271
▁center	-9.97288
▁progress	-9.97417
▁निर्वाचनमा	-9.97431
▁greater	-9.97453
▁powerful	-9.97516
▁स्थान	-9.9753
▁therefore	-9.97536
▁opportunities	-9.9756
po	-9.97613
▁slow	-9.97659
▁राख्न	-9.97736
▁keeping	-9.97749
▁निजी	-9.97845
side	-9.97861
▁वृद्धि	-9.9789
▁sat	-9.97908
▁4.	-9.97924
▁पि	-9.97929
▁गम्भीर	-9.97935
र्क	-9.97947
▁attack	-9.97997
▁vehicle	-9.98015
que	-9.98028
▁विश्वकप	-9.98087
▁explain	-9.98123
▁manage	-9.98136
▁Every	-9.98248
▁shown	-9.98261
▁बिहीबार	-9.9827
▁meant	-9.98333
▁:).	-9.98363
▁responsible	-9.98384
▁wind	-9.98457
▁rates	-9.98478
मे	-9.98485
▁गर्	-9.98496
नु	-9.98514
▁सेयर	-9.98578
▁miss	-9.98597
vi	-9.98643
बा	-9.98814
▁comfortable	-9.98824
▁allows	-9.98865
▁सम्बन्धमा	-9.98873
▁जनताको	-9.98898
▁guide	-9.98955
▁excited	-9.99011
▁actual	-9.99105
▁निर्देशक	-9.99106
*	-9.99115
▁OF	-9.99148
कुमार	-9.99159
ler	-9.99165
▁schools	-9.99171
▁stick	-9.99175
lin	-9.99246
▁accept	-9.99348
▁offered	-9.9935
▁older	-9.99353
कर	-9.99401
▁finished	-9.99424
▁sitting	-9.99454
▁gas	-9.99504
▁putting	-9.99523
▁appears	-9.99613
सम्बन्धी	-9.99685
▁whom	-9.99768
▁articles	-9.99856
िए	-9.99909
▁बिक्री	-9.99921
▁सोच	-9.99949
गा	-10.0002
lic	-10.0003
▁culture	-10.0007
▁बन्ने	-10.0011
▁serve	-10.002
▁minute	-10.0023
▁पुरुष	-10.0024
▁finish	-10.0025
▁Internet	-10.003
▁पुन	-10.0033
▁cancer	-10.0033
▁दिवस	-10.0039
▁driving	-10.0043
पत्र	-10.0044
▁welcome	-10.0045
▁imagine	-10.0052
▁helping	-10.0056
▁समितिको	-10.0066
▁जस्तै	-10.0067
+	-10.0068
▁कारोबार	-10.0068
▁spot	-10.0073
▁otherwise	-10.0074
▁located	-10.01
▁manner	-10.0108
▁produce	-10.011
▁exercise	-10.0114
▁वन	-10.0119
▁bought	-10.0125
▁prices	-10.0126
▁interview	-10.0131
▁mobile	-10.0133
▁भेट	-10.0133
▁क्षेत्रको	-10.0137
▁या	-10.0138
▁regarding	-10.014
▁di	-10.0143
▁गर्नुभएको	-10.0145
▁remain	-10.0148
▁busy	-10.0149
▁सहज	-10.0151
mon	-10.0151
▁जसले	-10.0151
▁दिनुभयो	-10.0154
▁anyway	-10.0155
▁Ma	-10.016
▁पढ्नुहोस्	-10.0161
not	-10.0162
▁उनका	-10.0164
▁host	-10.0168
▁यसलाई	-10.0168
्यु	-10.0168
▁military	-10.017
▁Lo	-10.017
▁setting	-10.0175
▁lovely	-10.018
▁से	-10.0182
▁थिएन	-10.019
▁आन्दोलन	-10.0196
au	-10.0198
min	-10.022
▁गर्नुपर्छ	-10.022
▁Health	-10.0222
▁गराउने	-10.0227
▁Keep	-10.0229
▁journey	-10.0233
ap	-10.0236
▁patient	-10.0236
▁followed	-10.0248
▁states	-10.0253
▁रहने	-10.026
▁bill	-10.0266
▁born	-10.0267
▁गरेपछि	-10.0269
ti	-10.0271
▁कायम	-10.0272
▁coffee	-10.028
¥	-10.0281
▁बैठकमा	-10.0284
▁न्याय	-10.0292
There	-10.0293
▁Saturday	-10.0295
▁पो	-10.0296
▁सम्पूर्ण	-10.0297
▁चि	-10.0299
▁San	-10.03
▁वर्षीय	-10.03
▁leading	-10.0301
▁advantage	-10.0302
▁ride	-10.0311
▁तह	-10.0314
▁plenty	-10.0316
▁कहिले	-10.0316
▁wall	-10.0319
▁train	-10.0319
▁साल	-10.0319
▁छन	-10.0325
les	-10.0326
▁सम्बोधन	-10.033
▁संरक्षण	-10.0331
▁क्लब	-10.0334
लाइ	-10.0334
क्स	-10.0335
▁kitchen	-10.0337
▁match	-10.0339
▁sale	-10.0341
▁mouth	-10.0349
▁दाहाल	-10.0354
▁shared	-10.0356
▁घण्टा	-10.0362
▁2016	-10.0362
▁विदेशी	-10.0363
▁posted	-10.0365
पनि	-10.0369
▁drink	-10.037
▁जग्गा	-10.0372
▁digital	-10.0374
मो	-10.0377
▁Po	-10.0386
ुवा	-10.0387
▁चैत	-10.0391
▁hearing	-10.0396
डि	-10.0397
▁discovered	-10.0404
▁fantastic	-10.0404
ile	-10.0406
▁सकेको	-10.0407
▁सामग्री	-10.041
▁ना	-10.0414
▁conversation	-10.0415
▁generally	-10.0427
▁प्रचण्ड	-10.043
back	-10.0434
sion	-10.0442
▁meaning	-10.0444
▁peace	-10.0446
▁street	-10.0447
▁Pre	-10.0453
▁Department	-10.0461
ists	-10.0464
▁Next	-10.0464
▁kill	-10.0466
rd	-10.0468
▁vote	-10.0473
▁Ha	-10.0473
▁jobs	-10.048
ability	-10.0493
टर	-10.0495
▁degree	-10.0497
▁Christ	-10.0499
▁पराजित	-10.0503
▁led	-10.0504
▁भारतको	-10.0516
▁लिएको	-10.0521
▁सुरक्षित	-10.0527
▁hate	-10.0535
▁payment	-10.054
▁सम्मेलन	-10.0541
▁व्यवसायी	-10.0548
▁कलाकार	-10.0552
▁0	-10.0553
▁cr	-10.0559
▁earth	-10.0565
hi	-10.0566
▁China	-10.0567
▁यातायात	-10.0568
▁heat	-10.0569
▁released	-10.057
▁भई	-10.0574
▁continued	-10.0574
▁leaving	-10.0594
ow	-10.0598
▁multi	-10.06
▁शब्द	-10.0607
▁player	-10.0612
▁ऋण	-10.0629
ge	-10.0635
ुभएको	-10.064
▁eating	-10.0641
▁प्रतियोगिता	-10.0651
▁discussion	-10.0654
om	-10.0656
▁प्रतिवेदन	-10.0659
ions	-10.066
that	-10.0662
▁गरिरहेका	-10.0665
▁supposed	-10.0666
▁client	-10.0669
▁direction	-10.0671
▁fix	-10.0674
▁hurt	-10.0683
10	-10.0693
den	-10.0697
▁जवाफ	-10.07
▁दाबी	-10.0702
▁supply	-10.071
▁mission	-10.0712
▁सभापति	-10.0713
न्द	-10.0725
▁Nepal	-10.0726
▁नियन्त्रण	-10.0731
▁पर	-10.0733
▁capital	-10.0737
▁प्रशासन	-10.0737
▁efforts	-10.0743
▁maintain	-10.0743
▁mom	-10.0745
▁debt	-10.075
▁Monday	-10.0754
▁prior	-10.0758
▁covered	-10.0764
▁माया	-10.0768
राम	-10.0768
▁corner	-10.0773
▁economy	-10.0776
▁Ga	-10.0776
▁मानव	-10.0781
▁tool	-10.0782
bo	-10.0783
▁बैठकले	-10.0785
▁creative	-10.0786
▁Trump	-10.0786
ING	-10.079
▁Which	-10.0795
▁strength	-10.0801
▁सर्वोच्च	-10.0802
▁foot	-10.0804
▁cross	-10.0811
▁willing	-10.0811
▁strategy	-10.0812
let	-10.0828
▁balance	-10.0832
्छन्	-10.0843
▁device	-10.0843
▁machine	-10.0858
▁Use	-10.0859
▁यति	-10.0862
▁यसै	-10.0865
▁पार्टीको	-10.0867
▁handle	-10.087
ier	-10.0871
▁luck	-10.0884
▁complex	-10.0885
▁February	-10.0889
▁title	-10.0895
▁achieve	-10.0898
▁देशमा	-10.0899
▁अन्तर्गत	-10.0901
▁मे	-10.0903
वादी	-10.092
▁क्षमता	-10.0921
▁opened	-10.0921
▁active	-10.0925
▁pages	-10.0925
▁dry	-10.0929
▁केहि	-10.093
▁catch	-10.093
pm	-10.0935
sa	-10.0935
use	-10.0937
▁समाधान	-10.0941
▁$	-10.0946
▁prepared	-10.0947
▁reported	-10.095
▁double	-10.0951
▁परिवार	-10.0952
▁seek	-10.0953
▁toward	-10.0956
▁पक्ष	-10.0956
▁बनाएको	-10.0956
mer	-10.0962
▁गर्छन्	-10.0967
९	-10.0969
▁नाममा	-10.0978
▁workers	-10.0982
▁partner	-10.0985
▁kid	-10.0997
▁जा	-10.1001
▁stress	-10.1004
▁star	-10.1006
▁तहको	-10.1006
▁treat	-10.1007
all	-10.1008
▁spending	-10.1017
ीको	-10.1017
mp	-10.1023
▁essential	-10.1028
▁कात्तिक	-10.1029
▁garden	-10.1031
▁ठाउँ	-10.1036
over	-10.1041
यर	-10.1043
▁सपना	-10.1047
▁Life	-10.1056
▁रोक	-10.1062
▁बन	-10.1067
▁telling	-10.1067
▁walking	-10.1071
▁rich	-10.1072
▁inter	-10.1078
▁AND	-10.1086
▁friendly	-10.109
▁download	-10.1091
ही	-10.1107
▁पद	-10.111
▁l	-10.1111
▁सहकारी	-10.1114
▁developed	-10.1114
▁उत्कृष्ट	-10.1115
▁आठ	-10.1121
▁herself	-10.1124
▁killed	-10.1124
▁कारबाही	-10.1127
पु	-10.113
▁कम्पनीले	-10.1131
▁materials	-10.1135
▁holiday	-10.1137
▁बल	-10.1139
25	-10.114
Yes	-10.1142
▁suggest	-10.1145
काे	-10.1145
end	-10.1149
▁experienced	-10.1156
mm	-10.1159
▁discuss	-10.1163
▁संकलन	-10.1166
▁आवश्यकता	-10.1171
▁Sa	-10.1171
▁stopped	-10.1175
ba	-10.1177
शा	-10.1182
cing	-10.1184
▁feature	-10.1185
king	-10.1202
▁Did	-10.1208
▁tend	-10.1208
▁increased	-10.1208
▁traffic	-10.1211
▁offering	-10.1217
▁wedding	-10.1218
▁Y	-10.1219
▁राख्ने	-10.1223
▁fill	-10.1225
न्ड	-10.1225
▁hospital	-10.1228
▁पौडेल	-10.1237
▁Pi	-10.1246
▁22	-10.1247
▁images	-10.1251
एस	-10.1252
▁display	-10.1253
▁विजयी	-10.1254
▁eight	-10.1254
▁दिनमा	-10.1263
त्	-10.127
▁lines	-10.1271
भा	-10.1272
▁parties	-10.128
▁teaching	-10.1282
▁पुर्	-10.1286
▁थालेको	-10.1289
▁reports	-10.1292
▁लिग	-10.1303
▁commercial	-10.1304
▁auto	-10.1304
▁la	-10.1305
▁afraid	-10.1309
▁३१	-10.1311
▁rule	-10.1316
▁seven	-10.1322
▁relevant	-10.1323
▁waste	-10.1328
▁fish	-10.133
▁ran	-10.1337
▁गर्नुभयो	-10.1339
▁band	-10.1343
▁फिर्ता	-10.1344
▁प्रतिनिधि	-10.1348
▁निर्वाचित	-10.135
▁protection	-10.1354
▁diet	-10.1359
▁रन	-10.136
▁ended	-10.136
▁लगायतका	-10.1365
▁Over	-10.1367
▁schedule	-10.1371
▁Click	-10.1385
त्र	-10.1385
▁traditional	-10.1388
▁मोबाइल	-10.1389
▁क्षति	-10.1393
▁कविता	-10.1395
▁बढ	-10.1397
▁foreign	-10.1401
▁Each	-10.1401
▁बाल	-10.1406
▁रहेछ	-10.1408
▁master	-10.1412
▁cards	-10.1414
▁According	-10.1421
▁faith	-10.1421
read	-10.1422
▁mental	-10.1425
▁अहिलेसम्म	-10.1429
▁indeed	-10.143
▁Europe	-10.1433
▁buying	-10.1438
▁पुरस्कार	-10.1438
▁पाउन	-10.1441
▁attempt	-10.1443
▁London	-10.1443
▁folks	-10.1444
▁overall	-10.1446
▁ड	-10.1447
▁Those	-10.1448
▁president	-10.1453
▁विधेयक	-10.1453
▁बसेको	-10.1461
▁श्री	-10.1464
▁determine	-10.1469
▁Court	-10.1474
▁जिम्मेवारी	-10.1476
▁yesterday	-10.1479
▁surprised	-10.1479
▁winter	-10.1481
▁perform	-10.1483
संग	-10.1484
▁जस्ता	-10.1486
▁links	-10.15
▁राजनीति	-10.15
▁पुस्तक	-10.1509
▁x	-10.151
▁Last	-10.1513
▁ball	-10.1522
▁मुलुक	-10.1523
▁tomorrow	-10.153
▁अन्त्य	-10.1531
▁caused	-10.1531
▁update	-10.1543
▁biggest	-10.1548
▁चर्चा	-10.155
▁West	-10.1552
▁टिम	-10.1554
▁standing	-10.1556
स्त	-10.1559
८	-10.1566
▁खेलाडी	-10.1567
▁Ho	-10.1567
▁2011	-10.1571
▁camera	-10.1576
▁views	-10.1576
▁मान	-10.1579
▁High	-10.1582
▁press	-10.1583
▁raise	-10.1588
▁secret	-10.1591
▁respond	-10.1593
▁lunch	-10.1594
▁connection	-10.1601
▁६०	-10.1602
ped	-10.1604
▁ideal	-10.1604
▁caught	-10.1609
▁Sha	-10.1618
like	-10.1623
▁ल्याउन	-10.1624
▁विदेश	-10.1626
▁तत्काल	-10.1627
▁opening	-10.1627
▁battle	-10.1629
vo	-10.1634
▁प्रतिनिधिसभा	-10.164
▁taste	-10.1641
▁reached	-10.1642
▁rain	-10.1644
७	-10.1646
▁राई	-10.1648
▁possibly	-10.1648
▁खेलकुद	-10.1649
her	-10.1653
▁Ta	-10.1657
६	-10.1665
▁अंक	-10.1668
▁federal	-10.167
▁firm	-10.1673
▁दि	-10.1676
▁function	-10.1677
▁Council	-10.1678
pro	-10.1678
▁characters	-10.1678
▁lived	-10.1685
▁influence	-10.1691
▁विवाद	-10.1692
िन्	-10.1695
ction	-10.17
▁pool	-10.1703
▁King	-10.1704
▁आयो	-10.1707
IN	-10.171
▁scene	-10.1711
▁प्रदेशसभा	-10.1717
▁छोरा	-10.1718
▁background	-10.1719
▁communication	-10.1725
▁deliver	-10.1726
▁Check	-10.1732
▁expensive	-10.1735
▁sold	-10.1744
▁Yeah	-10.1749
▁Another	-10.175
▁विभाग	-10.1751
▁fat	-10.1751
▁dear	-10.1751
▁शिक्षक	-10.1752
▁distance	-10.1754
▁60	-10.1755
▁El	-10.1758
▁कक्षा	-10.1758
▁camp	-10.1761
▁राज	-10.1761
▁official	-10.1762
▁sister	-10.177
▁draw	-10.1772
▁एकै	-10.1776
कि	-10.1779
▁भएन	-10.178
▁pull	-10.1784
▁सम	-10.1787
▁prefer	-10.1796
▁प्रभावित	-10.1799
▁ourselves	-10.1803
▁managed	-10.1804
▁surprise	-10.1804
▁memory	-10.1807
▁critical	-10.1816
▁मार्फत	-10.1821
▁पाएको	-10.1823
िरहेका	-10.1825
ेन	-10.1825
▁rock	-10.1825
▁अनुभव	-10.1826
▁nation	-10.1836
िरहेको	-10.1839
▁owner	-10.1849
▁आदेश	-10.185
▁आयोजित	-10.185
mb	-10.1851
▁कम्युनिष्ट	-10.1851
▁प्रतिकृया	-10.1851
▁command	-10.1852
pa	-10.1853
▁Government	-10.1857
▁European	-10.1867
tter	-10.187
▁thus	-10.1872
AL	-10.1884
ka	-10.1885
▁h	-10.1886
▁चरणमा	-10.1888
▁nor	-10.1897
▁mid	-10.1902
▁समन्वय	-10.1902
ey	-10.1906
ot	-10.1915
▁pieces	-10.1916
▁becoming	-10.1916
वाद	-10.1918
▁drug	-10.1921
▁negative	-10.1924
▁encourage	-10.1924
▁se	-10.1925
▁existing	-10.1927
▁majority	-10.1928
▁analysis	-10.1932
▁arm	-10.1939
▁आयोगले	-10.1939
▁यदि	-10.1941
▁gain	-10.1944
▁संग	-10.1952
izing	-10.1952
▁Center	-10.1961
▁अस्पतालमा	-10.1962
▁२०७३	-10.1962
▁जब	-10.1963
▁दर	-10.1966
▁laws	-10.1966
कु	-10.1972
पूर्ण	-10.1972
▁नतिजा	-10.1976
▁फोरम	-10.1977
▁मन्त्रालयले	-10.1977
▁पहिचान	-10.1977
▁conference	-10.1983
▁2010	-10.1989
▁कुल	-10.1989
▁Di	-10.1994
▁सोही	-10.1995
▁bag	-10.1996
▁tree	-10.2
ical	-10.2005
▁boys	-10.2006
जु	-10.2009
▁club	-10.2013
ina	-10.2013
▁annual	-10.2013
▁happening	-10.202
▁knowing	-10.2028
▁marriage	-10.2029
नो	-10.2034
▁बलात्कार	-10.2038
▁heavy	-10.2041
▁लागू	-10.2048
▁कला	-10.2051
लु	-10.2056
▁जति	-10.2056
▁इतिहास	-10.2057
▁सीमा	-10.2061
▁closed	-10.2066
ृ	-10.2067
ेज	-10.207
▁लोक	-10.207
▁onto	-10.2071
▁आम	-10.2075
▁Obama	-10.2076
▁ने	-10.2076
▁समितिले	-10.2078
▁Before	-10.2079
ned	-10.2079
▁संस्कृति	-10.2082
▁proper	-10.2086
▁ice	-10.2087
▁उपाध्यक्ष	-10.2089
▁डे	-10.209
▁Very	-10.2091
mi	-10.2091
▁छिन्	-10.2095
▁showing	-10.2095
ice	-10.2096
▁studies	-10.2097
▁विमान	-10.2098
▁bright	-10.21
work	-10.21
जे	-10.2101
▁www	-10.2101
▁snow	-10.2101
▁चिनियाँ	-10.2108
▁plus	-10.2109
द्ध	-10.212
धि	-10.2125
▁returned	-10.2128
▁आफूले	-10.2131
▁स्वागत	-10.2135
▁married	-10.2136
▁holding	-10.2136
▁solutions	-10.2145
विरुद्ध	-10.2146
▁गा	-10.2148
port	-10.2149
▁Time	-10.2151
▁proud	-10.2156
▁pair	-10.2161
▁२०१८	-10.2163
▁feels	-10.2163
▁अभाव	-10.2167
act	-10.2167
▁platform	-10.2172
▁readers	-10.2177
▁संयोजक	-10.2178
▁tea	-10.218
▁संगठन	-10.2183
book	-10.2186
▁साता	-10.2187
▁w	-10.2188
▁thousands	-10.2189
▁demand	-10.2198
▁rise	-10.2202
▁स्पष्ट	-10.221
▁fell	-10.2214
▁उसले	-10.2215
▁मानिस	-10.2216
▁बैंकको	-10.222
▁तहमा	-10.2228
▁plant	-10.2229
▁concerned	-10.2231
▁साधन	-10.2232
▁century	-10.2241
▁claims	-10.2252
▁exchange	-10.2253
ever	-10.2261
▁23	-10.2261
रण	-10.2262
So	-10.2264
qui	-10.2265
▁छुट	-10.2265
▁sight	-10.2271
▁funny	-10.2277
▁बनाएर	-10.2284
▁विरोध	-10.2287
▁accident	-10.2288
▁(1)	-10.229
मु	-10.2291
▁जिल्लाको	-10.2293
▁transfer	-10.2301
▁placed	-10.2307
ang	-10.2308
ुपर्ने	-10.2309
▁exciting	-10.2311
▁tough	-10.2313
▁recipe	-10.2315
▁remove	-10.2316
▁पार्टीका	-10.2317
io	-10.2319
▁dollars	-10.2324
िज	-10.2324
▁International	-10.2326
▁associated	-10.2335
▁behavior	-10.2339
▁wine	-10.2339
which	-10.234
room	-10.2344
tra	-10.2345
▁ra	-10.2346
मि	-10.2347
▁सर	-10.235
▁कसैले	-10.2351
▁Vi	-10.2353
▁Only	-10.2354
▁गर्दछ	-10.2355
टि	-10.236
▁noticed	-10.2361
▁task	-10.2362
▁described	-10.2364
▁नियम	-10.2366
▁त्यस्तो	-10.2368
ED	-10.2369
▁पर्यटक	-10.2369
“	-10.2377
▁भण्डारी	-10.238
▁मह	-10.2382
ear	-10.2384
▁desire	-10.2384
▁adding	-10.2384
चार	-10.2386
▁raised	-10.239
▁भइसकेको	-10.2396
▁names	-10.2397
▁paying	-10.2397
▁कहाँ	-10.2398
▁प्रत्येक	-10.2405
▁तल	-10.2409
▁seat	-10.2414
ible	-10.2417
▁actions	-10.2421
ries	-10.2422
▁Best	-10.2424
▁session	-10.243
▁teacher	-10.2431
▁2015	-10.2438
▁coverage	-10.244
▁थापाले	-10.2442
▁राजा	-10.2444
दिन	-10.2448
बाटै	-10.2452
▁प्रभाव	-10.2452
▁एन	-10.2455
▁गायक	-10.2457
▁honest	-10.2458
▁प्राविधिक	-10.2459
▁completed	-10.2462
▁walked	-10.2463
▁filled	-10.2466
▁बताइएको	-10.2467
▁construction	-10.2468
▁block	-10.2472
▁decisions	-10.2474
▁agreement	-10.2478
Do	-10.2484
fi	-10.2485
▁advance	-10.2492
▁hoping	-10.2495
▁methods	-10.2497
gu	-10.25
▁speaking	-10.2501
▁£	-10.2506
▁leaders	-10.2507
▁प्रणाली	-10.2508
▁पुगेका	-10.2509
▁assist	-10.2509
▁calls	-10.251
▁afternoon	-10.2513
▁status	-10.2515
▁भर	-10.2521
▁लागी	-10.2522
▁gun	-10.2523
▁आधार	-10.2523
▁राखेर	-10.2525
▁गुरुङ	-10.2526
▁stood	-10.253
▁ship	-10.2532
▁larger	-10.2537
ably	-10.2538
▁print	-10.2542
▁changing	-10.2546
▁पूर्वाधार	-10.2553
▁Business	-10.2562
▁Two	-10.2566
▁compared	-10.2574
▁movement	-10.2575
▁concept	-10.2576
▁none	-10.2578
▁भइ	-10.2579
▁Paul	-10.2582
▁Canada	-10.2584
▁factors	-10.2589
▁hundred	-10.2592
▁policies	-10.2594
▁ठूला	-10.2596
▁anywhere	-10.2601
▁हुनुपर्छ	-10.2603
▁लगायत	-10.2603
▁During	-10.2603
ure	-10.2607
▁Ar	-10.2609
▁birthday	-10.2609
▁surface	-10.261
ations	-10.2614
▁Un	-10.2614
▁तामाङ	-10.2614
▁कान्तिपुर	-10.2615
20	-10.2617
▁NOT	-10.2618
▁usual	-10.262
▁requires	-10.2624
bi	-10.2634
▁arms	-10.2637
▁Would	-10.2637
▁discover	-10.2641
▁button	-10.2641
▁Park	-10.2644
▁<	-10.2644
right	-10.2645
▁क्लिक	-10.2646
▁2013	-10.265
light	-10.265
नन्	-10.2654
▁प्रकाश	-10.2655
▁station	-10.2657
▁impossible	-10.2663
▁हेर्नुहोस्	-10.2672
▁answered	-10.2672
▁उमेर	-10.2673
▁mostly	-10.2675
ised	-10.2685
▁पक्षमा	-10.269
▁replied	-10.269
▁आयोग	-10.2693
▁क्षेत्रका	-10.2694
▁California	-10.2695
▁sad	-10.2701
net	-10.2704
▁आफूलाई	-10.271
▁कप	-10.2712
▁prove	-10.2713
▁संरचना	-10.2713
ाउँदै	-10.2716
▁वार्ता	-10.2719
▁throw	-10.2719
ER	-10.272
नै	-10.2721
▁competition	-10.2721
▁birth	-10.2721
हरूमा	-10.2725
▁गु	-10.273
che	-10.2731
▁minimum	-10.2732
▁served	-10.2734
▁🙂.	-10.2738
▁IN	-10.2741
▁साँझ	-10.2747
म्प	-10.2749
ding	-10.2753
▁detail	-10.2755
▁net	-10.2756
▁crazy	-10.276
▁5.	-10.2762
▁महा	-10.2763
सो	-10.2764
▁flow	-10.2765
दै	-10.2765
▁seriously	-10.2767
uff	-10.2768
▁r	-10.2769
▁निर्मला	-10.2773
▁driver	-10.2773
▁स्रोत	-10.2774
▁technical	-10.2779
▁animals	-10.2779
▁प्रवक्ता	-10.2779
▁cell	-10.2782
▁unit	-10.2785
ft	-10.2785
▁ho	-10.2785
▁glass	-10.2789
▁shopping	-10.279
▁spring	-10.2794
▁established	-10.2794
▁missing	-10.2803
ेपछि	-10.2806
▁responsibility	-10.2807
▁cars	-10.281
▁औषधि	-10.2811
नाथ	-10.2814
▁कतिपय	-10.2816
▁Ex	-10.2816
▁घ	-10.282
▁शुभकामना	-10.2822
▁aid	-10.2828
▁गो	-10.2829
▁थ	-10.2829
▁survey	-10.283
▁calling	-10.2839
▁ट	-10.284
▁thread	-10.2843
▁कार्यकारी	-10.2845
ho	-10.2848
▁target	-10.285
▁experiences	-10.2858
ph	-10.2859
▁Work	-10.2859
िका	-10.286
well	-10.286
fe	-10.2864
▁गोली	-10.2867
▁Ne	-10.2869
▁smart	-10.287
▁YOU	-10.2872
wi	-10.2873
▁कलेज	-10.2874
‘	-10.2875
▁रे	-10.2876
▁length	-10.2877
▁आदि	-10.2878
▁मतदाता	-10.2878
▁somewhere	-10.2879
▁सहभागिता	-10.288
▁comfort	-10.2885
▁सञ्चार	-10.2887
ide	-10.2889
▁dance	-10.2892
▁यसका	-10.2894
!”	-10.2896
▁pleasure	-10.2896
▁+	-10.2897
:00	-10.2909
▁Sometimes	-10.2915
▁White	-10.2917
▁obvious	-10.2927
▁राति	-10.2929
▁fellow	-10.2931
▁gold	-10.2931
▁pm	-10.2932
▁failure	-10.2933
▁arrived	-10.2935
can	-10.2935
▁challenges	-10.2936
ेल	-10.2939
▁familiar	-10.2941
क्	-10.2949
▁विकेट	-10.2952
▁खा	-10.2958
▁fans	-10.2961
▁सरकारलाई	-10.2963
▁separate	-10.2982
▁उनीहरु	-10.2985
▁प्रेस	-10.2985
न्स	-10.299
न्त	-10.299
▁संलग्न	-10.2992
▁standards	-10.2994
।’	-10.2998
▁gonna	-10.2999
▁quiet	-10.3001
13	-10.3001
▁custom	-10.3001
▁परीक्षण	-10.301
▁हेर	-10.3014
▁व्यवसाय	-10.3014
▁pop	-10.3019
uck	-10.3019
▁hell	-10.3022
Z	-10.3023
▁album	-10.3024
▁Service	-10.3027
▁Right	-10.3027
▁Out	-10.3029
▁funds	-10.303
ab	-10.3032
▁Does	-10.3039
tor	-10.304
hu	-10.3043
▁गरेकी	-10.305
▁एउटै	-10.3051
▁liked	-10.3053
▁visiting	-10.3053
▁आन्तरिक	-10.3057
िस	-10.3058
▁Free	-10.3058
▁देउवा	-10.306
▁उद्घाटन	-10.3061
▁पारित	-10.3067
01	-10.3072
▁sexual	-10.3075
एको	-10.3078
▁circumstances	-10.3086
law	-10.309
▁विराटनगर	-10.309
▁estate	-10.3092
▁owners	-10.3092
RE	-10.3095
▁स्	-10.3095
▁क्या	-10.3097
lan	-10.3097
▁सफलता	-10.3097
▁Hu	-10.3098
tain	-10.31
▁Black	-10.3101
▁showed	-10.3101
ving	-10.3112
▁दिनुहोस	-10.3114
▁बो	-10.3117
ff	-10.3121
▁पीडित	-10.3136
▁डाक्टर	-10.3138
▁vision	-10.3142
▁संसदीय	-10.316
▁General	-10.3161
▁region	-10.3162
▁नसकेको	-10.3164
▁सेना	-10.3165
▁suppose	-10.3168
▁visitors	-10.3169
▁broken	-10.3169
▁pan	-10.3175
▁1,	-10.3175
▁episode	-10.3175
सन	-10.3177
▁despite	-10.3183
▁properly	-10.3187
▁shouldn	-10.3189
▁rent	-10.319
▁structure	-10.3192
▁परि	-10.3196
board	-10.3197
▁perspective	-10.3198
▁admit	-10.3198
▁mis	-10.32
▁अनुगमन	-10.3201
▁परीक्षा	-10.3202
नको	-10.3206
house	-10.3212
▁explore	-10.3219
▁फाइदा	-10.3219
▁Hey	-10.3221
▁appeared	-10.3223
▁निम्ति	-10.3225
ीले	-10.3231
▁strange	-10.324
▁videos	-10.3242
चा	-10.3247
▁सिर्जना	-10.3249
ार	-10.3249
Re	-10.3251
▁हुनुपर्ने	-10.3252
▁carried	-10.3252
ान	-10.3254
▁IT	-10.3259
▁exist	-10.3264
हु	-10.3264
▁हा	-10.3266
▁गृह	-10.3266
भर	-10.3268
िन्छ	-10.3271
▁park	-10.3274
▁selling	-10.3276
▁wondering	-10.3277
▁Their	-10.3277
नेपाल	-10.3279
▁edge	-10.3287
▁मगर	-10.3288
▁त्यसलाई	-10.3292
▁Post	-10.3294
▁स्व	-10.3296
▁मो	-10.3299
▁सह	-10.33
▁imp	-10.3302
ze	-10.3303
▁female	-10.3306
▁पुग्ने	-10.3306
▁eventually	-10.3312
▁organizations	-10.3315
ाले	-10.332
▁Board	-10.332
▁अनुमान	-10.3323
▁बन्दै	-10.3323
▁पार	-10.3323
▁bear	-10.3326
nce	-10.3328
▁spread	-10.3328
▁speech	-10.3329
▁fee	-10.3332
▁sick	-10.3353
▁freedom	-10.3354
▁criminal	-10.3366
बे	-10.337
▁teams	-10.3375
▁बढाउन	-10.3376
▁सल्लाह	-10.3384
ology	-10.3388
cent	-10.339
कोट	-10.3399
▁developing	-10.3403
▁”	-10.3404
▁breath	-10.3406
▁Look	-10.3412
tri	-10.3413
ag	-10.3415
▁David	-10.3416
15	-10.3427
▁Church	-10.3431
▁secure	-10.3431
▁becomes	-10.3433
▁शैक्षिक	-10.3433
▁sector	-10.3437
▁tour	-10.3439
▁आए	-10.3443
÷	-10.3446
▁Pa	-10.3448
▁classes	-10.3457
▁vi	-10.346
▁हाम्रा	-10.3466
▁reference	-10.3467
▁दलित	-10.3472
▁rid	-10.3472
▁Other	-10.3473
▁Washington	-10.3476
ger	-10.3477
▁अपराध	-10.3478
gi	-10.3479
▁missed	-10.3487
▁https	-10.3491
▁होस्	-10.3502
▁delivery	-10.3511
▁assistance	-10.3513
ged	-10.3513
▁चल	-10.3514
▁stated	-10.3519
▁बताउँछन्	-10.3521
▁डलर	-10.3524
▁presence	-10.3524
▁हुँ	-10.3528
▁अझ	-10.3529
▁cat	-10.353
▁teachers	-10.3531
ming	-10.3533
▁Hello	-10.3539
cc	-10.3544
▁announced	-10.3546
▁पुल	-10.3546
▁sugar	-10.3553
▁soul	-10.3558
They	-10.3559
▁Bill	-10.3561
ुहोस्	-10.3562
▁highest	-10.3567
▁push	-10.3567
▁entry	-10.3567
▁आँखा	-10.3568
▁department	-10.3569
▁cheap	-10.3571
▁वैदेशिक	-10.3572
एम	-10.3574
My	-10.3574
▁count	-10.3575
▁chapter	-10.3576
▁breakfast	-10.3577
▁पुनः	-10.3584
▁चर्चित	-10.3591
▁v	-10.3597
▁य	-10.36
▁affect	-10.3601
40	-10.3602
▁मधेस	-10.3605
दि	-10.3611
LE	-10.3612
▁देशका	-10.3612
▁forms	-10.3614
▁वरिष्ठ	-10.3615
▁असर	-10.3617
▁document	-10.3618
▁dangerous	-10.3624
▁Red	-10.3626
▁प्रधान	-10.3628
▁केसी	-10.3633
▁Ad	-10.3635
▁Mu	-10.3635
ach	-10.3638
▁County	-10.3638
▁searching	-10.3639
oc	-10.364
▁purposes	-10.3641
▁investigation	-10.3642
▁valuable	-10.3642
▁छनोट	-10.3643
▁promote	-10.3646
▁पत्रिका	-10.3652
▁ललितपुर	-10.3654
▁लाग्यो	-10.3655
▁....	-10.3656
▁sources	-10.3656
▁devices	-10.3657
ng	-10.3663
▁उहाँ	-10.3664
आर	-10.3665
▁हट	-10.3666
▁primary	-10.3669
ST	-10.3672
free	-10.3681
▁विद्युत्	-10.3684
▁जरुरी	-10.3687
▁laugh	-10.3689
▁प्रहार	-10.3689
▁beach	-10.3689
▁leader	-10.3691
▁कृष्ण	-10.3694
▁योगदान	-10.3697
▁काममा	-10.3697
▁clothes	-10.3702
▁worst	-10.3702
▁abuse	-10.3703
▁picked	-10.3703
▁कार्की	-10.3705
▁relationships	-10.3705
▁झ	-10.3707
ep	-10.3707
▁entirely	-10.3716
▁personally	-10.3717
▁मि	-10.372
▁संगीत	-10.3724
▁shape	-10.3725
12	-10.3727
▁scale	-10.3728
▁crime	-10.3731
ाउनु	-10.3732
▁त्यति	-10.3735
▁वाम	-10.3737
▁अव	-10.3739
ामा	-10.374
▁radio	-10.3744
▁ता	-10.3751
▁यादव	-10.3752
▁crowd	-10.3753
▁छोरी	-10.3754
▁विमानस्थल	-10.3755
▁बिरामी	-10.3756
▁अरू	-10.3758
▁प्रहरीको	-10.3763
▁beat	-10.3765
ip	-10.3771
▁roll	-10.3774
▁समितिका	-10.3774
▁dress	-10.3778
▁Street	-10.3779
▁agreed	-10.378
▁British	-10.3783
▁राशिफल	-10.3783
▁Law	-10.3785
br	-10.3789
▁French	-10.3791
▁election	-10.3808
▁नियमित	-10.3813
▁३५	-10.3814
sis	-10.3815
▁mail	-10.3817
हो	-10.3819
▁Office	-10.382
▁item	-10.3823
▁select	-10.3827
▁जहाँ	-10.383
कारी	-10.3831
▁forced	-10.3832
▁climate	-10.3832
▁matters	-10.3832
दी	-10.3838
▁धन	-10.3848
▁अनु	-10.3851
▁files	-10.3854
▁Still	-10.3857
▁mix	-10.3859
▁values	-10.386
▁slightly	-10.3862
▁alternative	-10.3867
▁reply	-10.3868
▁applications	-10.387
▁तालिम	-10.3874
▁East	-10.3875
▁Note	-10.3877
▁Sam	-10.3882
tu	-10.3882
serv	-10.3882
गो	-10.3888
How	-10.389
▁greatest	-10.3896
▁Se	-10.3898
▁remains	-10.3899
▁spirit	-10.3904
▁३२	-10.3905
▁sports	-10.3907
16	-10.3914
डे	-10.3914
▁reasonable	-10.3916
▁okay	-10.392
▁आई	-10.3922
पर	-10.3922
▁श्रम	-10.3924
▁soft	-10.3925
ja	-10.3925
▁(2)	-10.3927
▁29	-10.393
ax	-10.3931
▁श्रेष्ठले	-10.3933
▁limit	-10.3935
▁anymore	-10.3937
▁मिस	-10.3938
▁posting	-10.3939
▁considering	-10.3942
▁communities	-10.3943
▁concern	-10.3944
▁जम्मा	-10.3948
▁बोल	-10.395
▁smaller	-10.3952
▁bo	-10.3953
▁po	-10.3954
▁Perhaps	-10.3954
▁cast	-10.3956
▁हरि	-10.3956
ified	-10.3956
अन्तर्गत	-10.3957
▁२०७२	-10.3958
▁engine	-10.3962
▁Company	-10.3964
▁Social	-10.3971
▁निरन्तर	-10.3972
▁En	-10.3976
▁listed	-10.3977
न्ट	-10.3982
▁शेरबहादुर	-10.3984
▁परियोजना	-10.3985
▁खुसी	-10.3986
▁थिएँ	-10.3987
श्	-10.3988
वी	-10.3988
▁सानो	-10.3989
▁im	-10.3989
▁assume	-10.3996
▁उपाधि	-10.3996
▁lady	-10.3999
▁sh	-10.4
▁flat	-10.4
ीकरण	-10.4002
ther	-10.4004
▁cute	-10.4006
▁till	-10.4008
▁पोखरेल	-10.4009
▁feedback	-10.4011
iv	-10.4012
▁lay	-10.4012
▁presentation	-10.4014
19	-10.4018
▁2008	-10.4019
▁मध्ये	-10.4022
▁2009	-10.4029
▁twice	-10.403
पन	-10.4031
▁Wi	-10.4031
▁प्रदेशको	-10.4033
see	-10.4039
▁agency	-10.4039
▁selection	-10.4043
▁$2	-10.4045
▁documents	-10.4046
▁identify	-10.4048
▁तर्फबाट	-10.4055
▁teach	-10.4061
ङ्	-10.4066
ns	-10.4071
▁विज्ञान	-10.4078
▁प्रकाशन	-10.4081
▁कार्यक्रमको	-10.4081
ki	-10.4082
▁कमजोर	-10.4084
Q	-10.4084
▁Ba	-10.4085
▁वाणिज्य	-10.4085
▁Committee	-10.4094
▁बताउँदै	-10.4096
▁Tuesday	-10.4098
▁;	-10.4099
▁Australia	-10.41
▁पढ	-10.41
▁fuel	-10.4103
यु	-10.4105
▁beauty	-10.4108
▁spoke	-10.4109
▁गरिन्छ	-10.411
▁सञ्चालनमा	-10.4112
▁loan	-10.4112
घ	-10.4116
▁tonight	-10.4124
ाव	-10.4124
▁attend	-10.4125
▁ल्याउने	-10.4125
▁facilities	-10.4125
▁fashion	-10.413
००	-10.4132
▁Thursday	-10.4136
▁विश्वविद्यालय	-10.414
▁largest	-10.4142
▁confidence	-10.4144
▁Ka	-10.4144
▁importance	-10.4147
▁joy	-10.4148
▁साझा	-10.4149
▁India	-10.415
बल	-10.4151
▁Year	-10.4153
▁suddenly	-10.4154
11	-10.4155
▁feed	-10.4155
▁स्थित	-10.4157
िएर	-10.4159
down	-10.4161
▁खुला	-10.4163
▁उठ	-10.4165
av	-10.4172
▁reviews	-10.4172
!”.	-10.4173
▁विज्ञापन	-10.4174
▁यु	-10.4179
▁pleased	-10.418
▁England	-10.4181
▁गएका	-10.4183
▁ग्राहक	-10.4183
▁बढ्दै	-10.4185
▁अभिनय	-10.4187
▁वित्तीय	-10.4187
14	-10.4188
▁सिफारिस	-10.4189
▁shut	-10.4191
▁Big	-10.4197
▁description	-10.4198
▁lie	-10.42
ver	-10.4201
▁कानून	-10.4203
▁male	-10.4205
med	-10.4207
▁object	-10.4208
▁आवाज	-10.4214
▁Come	-10.4216
ाय	-10.4216
▁बुझ	-10.4219
▁काठमाडौ	-10.4219
▁guests	-10.4221
ens	-10.4221
▁Americans	-10.4223
▁2014	-10.4226
▁Sp	-10.4229
▁28	-10.423
▁Twitter	-10.4234
▁package	-10.4237
▁authority	-10.4237
▁sp	-10.424
▁Online	-10.4243
▁सिंह	-10.4244
▁concerns	-10.4247
▁officer	-10.4249
▁Che	-10.425
sp	-10.4251
▁techniques	-10.4251
गु	-10.4254
▁mode	-10.4258
▁comp	-10.4262
▁violence	-10.4264
▁cup	-10.4264
▁manager	-10.4264
▁वार्षिक	-10.4269
▁expert	-10.4271
▁खोज	-10.4276
▁bigger	-10.428
▁Michael	-10.4284
▁independent	-10.4284
▁खाना	-10.4285
▁records	-10.4286
▁आम्दानी	-10.4287
▁adult	-10.4288
ru	-10.4289
ps	-10.429
ix	-10.429
▁bike	-10.4291
▁Whether	-10.4291
▁counter	-10.4293
▁prepare	-10.4293
▁स्थायी	-10.4294
▁em	-10.4294
▁Up	-10.4301
▁connect	-10.4304
▁failed	-10.4304
ायो	-10.4305
▁भा	-10.4307
▁trial	-10.4309
▁हु	-10.431
ect	-10.4314
▁Instead	-10.4317
▁तपाई	-10.4322
▁obviously	-10.4327
▁सत्य	-10.433
▁Mac	-10.4331
▁religious	-10.4332
ator	-10.4337
▁कोही	-10.4342
▁ha	-10.4344
▁गलत	-10.4349
▁starts	-10.4351
▁Z	-10.4351
▁ma	-10.4354
▁अधिकांश	-10.4354
▁closer	-10.4356
▁theme	-10.436
स्क	-10.4362
fa	-10.4363
ाए	-10.4366
bit	-10.4374
▁turning	-10.4376
▁conflict	-10.4378
▁cook	-10.438
▁mark	-10.4385
▁26	-10.4387
▁horse	-10.4387
ins	-10.4389
▁About	-10.4389
▁पार्न	-10.4391
▁लगाउन	-10.4394
▁cent	-10.4397
▁sir	-10.4398
▁शुल्क	-10.44
▁जल	-10.4401
▁नेतृत्वको	-10.4406
▁turns	-10.4409
▁चिकित्सक	-10.4414
▁भर्ना	-10.4416
▁realized	-10.442
▁कडा	-10.4421
dic	-10.4422
▁चिन	-10.4423
▁बहादुर	-10.4428
▁slowly	-10.4431
▁restaurant	-10.4434
▁senior	-10.4434
▁पश्चिम	-10.4436
▁त्यसमा	-10.4436
.....	-10.4441
▁दलका	-10.4442
▁commitment	-10.4442
▁lucky	-10.4448
▁honor	-10.4452
▁राखेको	-10.4454
▁cream	-10.4456
▁रासस	-10.4459
▁intended	-10.4464
site	-10.4466
▁साथी	-10.4466
▁धारणा	-10.4469
▁३३	-10.4471
▁committed	-10.4473
eg	-10.4474
▁nine	-10.4475
▁Su	-10.4475
▁wild	-10.4478
▁परे	-10.4479
▁महानगरपालिका	-10.4479
▁trees	-10.4483
▁दिनु	-10.4483
▁solid	-10.4484
▁rooms	-10.4484
▁director	-10.4486
▁tired	-10.4486
▁format	-10.4486
▁bus	-10.4488
▁साढे	-10.4489
▁Star	-10.4491
▁गर्नुहोस	-10.4498
एन	-10.45
▁farm	-10.4505
qu	-10.4505
▁quarter	-10.4508
▁Services	-10.451
▁वर्ग	-10.4511
▁Mi	-10.4514
ेन्द्र	-10.4514
▁परिणाम	-10.4515
▁दिँदै	-10.4519
▁instance	-10.4523
▁mo	-10.4525
▁centre	-10.4526
▁funding	-10.4526
▁ज्ञान	-10.4527
gen	-10.4527
▁सत्ता	-10.453
▁answers	-10.4536
▁presented	-10.4544
▁facts	-10.4548
▁seconds	-10.4549
▁meal	-10.4551
नमा	-10.4552
नगर	-10.4553
▁महिलाको	-10.4563
▁सबैको	-10.4565
▁सम्पादक	-10.4566
▁सालमा	-10.4567
▁environmental	-10.4568
▁wood	-10.4568
▁खेती	-10.4574
▁debate	-10.4575
▁combination	-10.4578
▁shit	-10.4578
ven	-10.4579
▁profile	-10.458
▁equal	-10.4586
ढ	-10.4592
▁initial	-10.4592
mar	-10.4593
▁Add	-10.4595
22	-10.4596
जस्तो	-10.46
▁नजिक	-10.4601
▁factor	-10.4603
▁राजपा	-10.4604
▁frame	-10.4605
nk	-10.4611
ture	-10.4616
पो	-10.4617
▁river	-10.4618
▁उहाँको	-10.4619
▁दलको	-10.4624
▁Per	-10.4627
▁bi	-10.463
ium	-10.4631
▁afford	-10.4634
▁elements	-10.4638
▁wearing	-10.4643
▁कोइराला	-10.4643
ub	-10.4644
tin	-10.4649
▁stupid	-10.4651
्छु	-10.4651
ble	-10.4653
▁बस्न	-10.4654
▁injury	-10.4656
ाएका	-10.4657
▁Am	-10.4658
▁Congress	-10.4661
▁twenty	-10.4661
▁license	-10.4662
▁Hope	-10.4662
▁writer	-10.4662
शि	-10.4665
▁context	-10.467
▁रेल	-10.468
▁भ्रष्टाचार	-10.468
▁leg	-10.4681
▁फेला	-10.4683
▁चुनावी	-10.4686
▁bunch	-10.4689
▁गृहमन्त्री	-10.4691
▁appearance	-10.4694
▁determined	-10.4696
▁ill	-10.4697
▁बच्चा	-10.4698
▁कारणले	-10.4701
▁काठमाडौंमा	-10.4702
▁dogs	-10.4705
▁कार्यकर्ता	-10.4709
val	-10.4711
▁mu	-10.4712
▁cap	-10.4714
▁जिल्लाका	-10.4715
▁generation	-10.4718
▁90	-10.4719
”,	-10.4721
▁ल्याएको	-10.4722
▁practices	-10.4723
▁perfectly	-10.4724
▁बुटवल	-10.4724
▁symptoms	-10.4725
▁काँग्रेस	-10.4726
▁सी	-10.4726
▁लोकतान्त्रिक	-10.4729
▁कोरिया	-10.4729
▁boat	-10.4732
ीमा	-10.4734
▁लगाउने	-10.4735
▁fixed	-10.4746
लाल	-10.4751
▁focused	-10.4751
ham	-10.4756
▁चरणको	-10.4756
cy	-10.4758
▁शिव	-10.4762
▁fa	-10.4762
▁civil	-10.4767
▁केन्द्रका	-10.4768
▁drugs	-10.477
▁recommended	-10.477
▁village	-10.477
ay	-10.4773
▁Nepali	-10.4775
▁कार्तिक	-10.4776
▁argument	-10.4778
▁removed	-10.4778
▁प्रचार	-10.478
▁testing	-10.4782
▁Mark	-10.4783
▁express	-10.4785
्रा	-10.4786
▁महिनामा	-10.479
▁signed	-10.4791
▁पेश	-10.4794
▁छौँ	-10.4794
▁pulled	-10.4794
भि	-10.4799
▁central	-10.4799
▁नसक्ने	-10.4799
she	-10.4801
▁दिइएको	-10.4812
▁named	-10.4817
▁वर्षा	-10.4818
▁capacity	-10.4821
▁Web	-10.4823
▁Wednesday	-10.4824
▁interests	-10.4825
▁animal	-10.4829
▁2012	-10.4831
ेश	-10.4834
24	-10.4834
▁uses	-10.4835
▁७०	-10.4839
था	-10.4841
▁weren	-10.4841
ick	-10.4848
▁Green	-10.4849
▁jump	-10.485
▁island	-10.485
हर	-10.4853
▁obtain	-10.4856
▁उडान	-10.4858
▁hang	-10.4862
▁hasn	-10.4866
▁कर्णाली	-10.4867
▁harm	-10.4867
▁सन्देश	-10.4871
oo	-10.4873
▁operating	-10.4874
▁administration	-10.4876
छु	-10.4884
21	-10.4884
▁Bar	-10.4888
▁brief	-10.4888
uk	-10.4892
▁निधन	-10.4896
▁राखिएको	-10.4897
▁हेर्ने	-10.4902
▁chair	-10.4906
क्क	-10.4912
▁कार्यालयमा	-10.4912
▁numerous	-10.4915
▁सकारात्मक	-10.4917
▁explained	-10.4918
▁समर्थन	-10.4919
ष्	-10.4928
▁उनीहरुले	-10.4929
भिडियोसहित	-10.4929
▁employee	-10.4937
▁religion	-10.4938
▁websites	-10.4939
▁मिनेट	-10.4944
वर	-10.4946
▁watched	-10.4949
▁Having	-10.4949
▁दुःख	-10.4951
pl	-10.4953
▁connected	-10.4955
▁27	-10.4958
ple	-10.4959
▁internal	-10.4969
▁emergency	-10.4969
▁appeal	-10.4975
▁बम	-10.4979
▁famous	-10.4982
▁planet	-10.4984
▁होटल	-10.4986
▁evil	-10.4987
▁suit	-10.4988
ct	-10.4989
र्न	-10.4991
▁hadn	-10.4993
ठा	-10.4997
▁repair	-10.4998
▁medicine	-10.4998
▁चुनौती	-10.4998
▁बसेर	-10.4998
▁भट्टराई	-10.5
▁थिइन्	-10.5002
▁ca	-10.5003
▁murder	-10.5005
▁Ben	-10.502
ात्मक	-10.5021
▁रि	-10.5022
▁produced	-10.5026
▁fees	-10.5029
▁क्यान्सर	-10.5031
sta	-10.5034
▁south	-10.5035
▁प्रभावकारी	-10.5036
▁Education	-10.504
▁talked	-10.504
▁बलियो	-10.5048
▁increasing	-10.505
▁०	-10.5052
ney	-10.5055
▁operations	-10.5056
▁मान्यता	-10.5057
▁मूल	-10.5057
▁north	-10.506
▁strategies	-10.506
▁metal	-10.5063
art	-10.5063
▁recognize	-10.5063
45	-10.5065
▁RE	-10.5068
▁Earth	-10.5068
▁dealing	-10.5069
▁पाए	-10.5072
▁promise	-10.5074
ko	-10.5076
pping	-10.5081
ments	-10.5084
िल	-10.509
▁रोजगार	-10.5091
▁Fi	-10.5091
▁parent	-10.5098
▁measures	-10.5103
▁experts	-10.5103
▁खाता	-10.5106
▁mass	-10.5107
▁यात्रु	-10.5107
▁पढिएको	-10.5107
▁लामा	-10.5109
▁यू	-10.5109
▁हार	-10.5112
▁Dis	-10.512
▁Peter	-10.5122
▁बनेका	-10.5125
▁fruit	-10.5128
सँगको	-10.5131
▁adults	-10.5131
▁Los	-10.5132
▁Bu	-10.5137
▁unable	-10.5143
▁बालबालिका	-10.5144
▁depending	-10.5145
▁भौतिक	-10.5146
पटक	-10.5147
▁घट	-10.5151
▁सम्भव	-10.5151
▁feelings	-10.5155
▁agent	-10.5157
▁practical	-10.5157
▁homes	-10.516
▁storage	-10.5161
▁k	-10.5168
▁ओलीको	-10.5169
▁अवार्ड	-10.517
▁उनीहरू	-10.517
▁leadership	-10.5171
▁measure	-10.5173
Why	-10.518
▁pet	-10.5181
▁हेर्नुहोस	-10.5182
▁Jack	-10.5184
▁भू	-10.5189
60	-10.5189
▁menu	-10.519
▁मेडिकल	-10.5191
▁operation	-10.5191
▁वर्षीया	-10.5198
कल	-10.5203
▁पुरानो	-10.5204
▁पहल	-10.5206
▁गुनासो	-10.5212
▁चालक	-10.5213
▁आगलागी	-10.5213
▁संचालन	-10.5218
▁map	-10.5223
▁Part	-10.5224
▁apart	-10.5227
▁signs	-10.5228
वे	-10.5228
ight	-10.5231
▁portion	-10.5234
▁Unfortunately	-10.5234
▁मध्य	-10.5234
▁Ri	-10.5236
दर	-10.5239
▁प्रथम	-10.5241
▁सम्पत्ति	-10.5243
▁na	-10.5244
vis	-10.5245
जो	-10.5247
▁tra	-10.525
▁shoot	-10.5251
▁स्वतन्त्र	-10.5252
▁paint	-10.5256
»	-10.526
▁entered	-10.5262
▁theory	-10.5263
▁नौ	-10.5264
▁listening	-10.5265
▁th	-10.5266
▁continues	-10.5271
▁bringing	-10.5271
▁visual	-10.5273
टे	-10.5285
ाल	-10.5286
▁सुचना	-10.5286
▁treated	-10.5288
देश	-10.5289
▁appointment	-10.529
▁आक्रमण	-10.5295
low	-10.5298
▁आशा	-10.5301
▁novel	-10.5303
▁notes	-10.5306
▁Apple	-10.5307
▁Bank	-10.5307
▁वस्तु	-10.5308
▁बढ्न	-10.5308
▁6.	-10.5324
▁पाइन्छ	-10.5328
car	-10.5331
▁उसको	-10.5335
▁लागेका	-10.5336
▁score	-10.5337
िता	-10.5339
▁ऊर्जा	-10.5342
▁[...].	-10.5346
▁उद्धार	-10.5355
▁साधारण	-10.5355
▁residents	-10.536
▁submit	-10.536
▁जेल	-10.5367
pped	-10.5368
▁kinds	-10.5371
▁Th	-10.5372
▁नगद	-10.5373
▁electronic	-10.5373
▁persons	-10.5374
▁volume	-10.5379
▁fairly	-10.538
▁google	-10.5381
▁तत्कालीन	-10.5385
▁quote	-10.5388
▁पुष्पकमल	-10.5389
▁भनी	-10.539
▁faster	-10.539
▁झापा	-10.5392
▁स्थापित	-10.5394
▁academic	-10.5395
▁मिटर	-10.5395
▁football	-10.5398
▁Happy	-10.5399
▁Du	-10.54
tch	-10.5403
▁meat	-10.5403
▁pe	-10.5404
▁justice	-10.5406
▁विकल्प	-10.5409
",	-10.541
▁टोलीले	-10.5411
▁checking	-10.5414
.'.	-10.5421
▁कोष	-10.5421
▁incredible	-10.5432
▁भोट	-10.5435
▁सबैलाई	-10.5437
▁उपभोक्ता	-10.5439
▁Yet	-10.5444
nes	-10.5446
▁स्कुल	-10.5449
▁प्रदेशमा	-10.5454
▁Cha	-10.5456
▁गरिएका	-10.5459
rk	-10.546
▁choices	-10.5461
ties	-10.5463
न्न	-10.5465
▁error	-10.5466
za	-10.5474
tal	-10.548
ाको	-10.5486
▁emotional	-10.5487
field	-10.5488
▁क्रम	-10.5489
▁forever	-10.5489
▁milk	-10.5491
▁fighting	-10.5494
▁भनिन्	-10.5501
▁पाएका	-10.5505
▁accepted	-10.5506
▁officials	-10.5506
▁suggestions	-10.5507
१०	-10.5509
▁खोजी	-10.551
▁applied	-10.5515
▁इन्टरनेट	-10.5515
ery	-10.5515
▁judge	-10.5516
▁George	-10.5516
▁प्रतिस्पर्धा	-10.5521
▁अधिकारीले	-10.5523
▁टा	-10.5524
▁Anyway	-10.5529
▁हि	-10.553
▁leaves	-10.5536
▁बैशाख	-10.5537
▁dad	-10.5537
तो	-10.5537
▁८०	-10.5538
▁massive	-10.5542
▁विकासका	-10.5542
▁श्रीमती	-10.5544
▁Ca	-10.5546
▁नेपालीको	-10.5549
▁दिल्ली	-10.5551
▁Research	-10.5555
▁रा	-10.5557
▁प्रत्यक्ष	-10.556
▁accounts	-10.5562
▁sc	-10.5564
▁Group	-10.5566
▁assessment	-10.5569
ging	-10.5572
▁100%	-10.5577
IC	-10.5579
▁colors	-10.558
▁thousand	-10.558
▁निकाय	-10.558
▁consideration	-10.558
▁Christian	-10.5584
▁मिल	-10.5585
si	-10.5585
▁Pe	-10.5589
▁conduct	-10.559
▁taught	-10.559
▁भक्तपुर	-10.5595
ँदै	-10.5597
▁कार्यालयले	-10.56
▁पुग्न	-10.5601
gg	-10.5602
▁songs	-10.5603
ाँ	-10.5605
ute	-10.5605
▁सक	-10.5608
▁काठमाण्डौ	-10.5611
▁cities	-10.5612
▁follows	-10.5613
▁आयात	-10.5615
▁scientific	-10.5618
▁Back	-10.5618
आई	-10.5619
▁अप	-10.562
▁plants	-10.5621
▁नियन्त्रणमा	-10.5624
▁रेडियो	-10.5625
▁नगर्ने	-10.5628
▁चौधरी	-10.5629
cal	-10.5629
▁fi	-10.5629
▁तय	-10.5633
▁सक्रिय	-10.5633
▁भनिएको	-10.5639
▁delicious	-10.5639
▁भि	-10.5642
▁specifically	-10.5647
▁n	-10.5652
▁decades	-10.5653
▁200	-10.5655
▁publish	-10.5657
▁corporate	-10.5658
▁मार्ग	-10.5662
▁constantly	-10.5663
▁Air	-10.5666
▁बढ्ने	-10.5668
▁Both	-10.5669
▁expression	-10.5671
▁कुमार	-10.5671
▁जनताले	-10.5677
▁OK	-10.5678
्व	-10.5678
▁कम्पनीको	-10.568
▁contains	-10.5681
▁square	-10.5681
▁बागलुङ	-10.5682
▁cake	-10.569
▁Art	-10.5694
bb	-10.5697
▁Gra	-10.5697
▁officers	-10.5698
IT	-10.5702
▁प्रतिष्ठान	-10.5704
▁नेतृत्वमा	-10.5707
▁alive	-10.5709
▁calm	-10.571
▁अनुदान	-10.5713
▁bread	-10.5719
▁danger	-10.572
▁सक्छन्	-10.572
▁लाभ	-10.5723
▁Ja	-10.5724
▁exact	-10.5726
nch	-10.5729
▁professionals	-10.5729
▁Ni	-10.5734
▁घरेलु	-10.5738
▁bedroom	-10.5741
▁चयन	-10.5742
▁परी	-10.5743
▁movies	-10.5744
ञ्ज	-10.5745
▁फि	-10.5749
▁king	-10.5749
▁attitude	-10.575
▁detailed	-10.5751
▁Africa	-10.5752
▁losing	-10.5752
तर	-10.5754
▁Tom	-10.5754
▁hundreds	-10.5757
She	-10.5763
▁solve	-10.5766
कर्ता	-10.5767
▁vacation	-10.5769
▁मनोरञ्जन	-10.5774
▁Bi	-10.5774
त्व	-10.5775
80	-10.5778
▁library	-10.5778
▁examples	-10.5779
▁विरुद्ध	-10.5779
▁ring	-10.5779
▁खनाल	-10.5782
▁गठबन्धन	-10.5783
rate	-10.5783
▁आउँछ	-10.5784
▁loud	-10.5785
▁कांग्रेसका	-10.5791
ory	-10.5792
▁paragraph	-10.5796
bar	-10.5799
▁चिन्ता	-10.5799
▁सम्पादन	-10.5806
▁Play	-10.5808
just	-10.581
▁mess	-10.5813
▁त्यसै	-10.5814
▁शव	-10.5816
▁saved	-10.5818
▁moments	-10.5819
pri	-10.5824
▁भोलि	-10.5824
▁प्रतियोगितामा	-10.5826
ren	-10.5826
ult	-10.583
▁राहत	-10.5832
▁अनुमति	-10.5835
▁कामदार	-10.5836
▁fault	-10.5838
▁©	-10.5838
rn	-10.5841
▁passion	-10.5844
र्थ	-10.5846
fully	-10.585
▁जाँदा	-10.5852
▁James	-10.5852
▁tells	-10.5855
▁पूजा	-10.5856
▁guarantee	-10.5858
▁Remember	-10.586
▁temperature	-10.5862
▁कुरामा	-10.5865
▁चा	-10.5866
ill	-10.5867
▁Science	-10.5867
▁stuck	-10.5868
▁chicken	-10.5869
ient	-10.5874
top	-10.5878
▁pack	-10.588
▁कहिल्यै	-10.5881
ker	-10.5885
▁proposed	-10.5889
▁खानेपानी	-10.589
▁Gu	-10.589
गर	-10.5892
▁त्रिभुवन	-10.5892
▁regard	-10.5896
▁पास	-10.5897
मात्र	-10.5902
▁sum	-10.5903
od	-10.5903
▁80	-10.5907
▁अदालत	-10.5907
▁bathroom	-10.5908
ea	-10.5909
सित	-10.591
▁संसार	-10.591
▁निर्माणको	-10.5913
▁employment	-10.5914
▁core	-10.5918
▁roof	-10.5921
▁regularly	-10.5922
▁रिलिज	-10.5923
str	-10.5924
05	-10.5924
▁fund	-10.5924
des	-10.5925
▁एजेन्सी	-10.5927
▁प्राथमिकता	-10.5928
हाल	-10.5932
▁tight	-10.5933
Don	-10.5933
▁Call	-10.5937
▁causes	-10.5939
▁essay	-10.5942
▁proof	-10.5943
▁aspects	-10.5945
▁arrive	-10.5956
▁हिंसा	-10.596
▁creation	-10.5962
▁Plan	-10.5962
▁भएपनि	-10.5964
ल्ला	-10.5964
▁इन्	-10.5965
▁route	-10.5969
▁मुलुकको	-10.597
▁executive	-10.5972
▁pen	-10.5976
gra	-10.5988
िलो	-10.599
▁magic	-10.5992
▁gotten	-10.5995
ification	-10.5996
▁lock	-10.6
23	-10.6006
▁Should	-10.6006
ition	-10.6006
▁grown	-10.6007
▁crisis	-10.6009
▁दिएर	-10.6009
▁कार	-10.601
▁बाहिरी	-10.601
▁चु	-10.6012
▁सम्	-10.6015
त्य	-10.6016
even	-10.6017
▁weird	-10.6018
▁alcohol	-10.6018
pre	-10.6019
▁Again	-10.6023
▁chat	-10.6024
▁प्रतिबद्धता	-10.6025
▁favor	-10.6025
▁dedicated	-10.6026
▁leads	-10.6026
▁fly	-10.6027
▁approximately	-10.6027
▁scheme	-10.6027
▁हक	-10.6029
RA	-10.603
▁Har	-10.603
▁models	-10.6035
▁खड्का	-10.6035
ign	-10.6038
▁गोविन्द	-10.6038
▁पर्	-10.6038
▁fail	-10.604
▁महत्व	-10.6043
▁previously	-10.6044
▁Public	-10.6044
▁ठ	-10.6044
▁पृष्ठ	-10.605
▁मोटरसाइकल	-10.605
एक	-10.6051
▁youth	-10.6051
▁planned	-10.6051
र्ड	-10.6052
▁guest	-10.6054
▁everybody	-10.6055
▁ought	-10.6058
▁बाढी	-10.6059
दे	-10.6059
▁Could	-10.606
▁नव	-10.6061
▁एमालेका	-10.6061
▁सकेन	-10.6062
SE	-10.6063
▁suffer	-10.6063
▁भारतमा	-10.6064
▁कल	-10.6068
▁PM	-10.6072
OR	-10.6073
▁Human	-10.6074
▁बीच	-10.6075
▁profit	-10.6075
▁register	-10.6075
To	-10.6076
▁careful	-10.6077
▁ति	-10.608
▁seeking	-10.6082
▁suggested	-10.6083
▁pot	-10.6086
▁efficient	-10.6086
▁चेतावनी	-10.6088
▁processes	-10.6089
▁iron	-10.609
▁मन्दिर	-10.6092
ES	-10.6093
ुहुन्छ	-10.6094
▁सही	-10.6096
▁housing	-10.6097
ाइएको	-10.6099
▁जापान	-10.6103
▁बग	-10.6103
▁धार्मिक	-10.6105
▁university	-10.6105
लगायतका	-10.6106
!).	-10.6109
बीचको	-10.6114
▁गरियो	-10.6115
▁cultural	-10.6119
▁participate	-10.612
▁लाग्न	-10.612
▁रो	-10.6123
▁par	-10.6124
्यू	-10.6125
▁प्रचण्डले	-10.6126
▁defined	-10.6129
▁writers	-10.6129
▁मै	-10.6135
▁सक्दैन	-10.6138
बार	-10.614
▁सञ्जाल	-10.6143
टो	-10.6147
▁runs	-10.6148
▁informed	-10.615
lor	-10.6153
ग्	-10.6153
set	-10.6157
▁committee	-10.6157
▁अहिलेको	-10.6158
▁maintenance	-10.6159
▁Chinese	-10.6159
▁younger	-10.616
▁किसान	-10.6161
▁ob	-10.6164
▁हैन	-10.6165
▁ch	-10.6167
▁आवेदन	-10.6168
▁affected	-10.6169
▁गएर	-10.617
▁advertising	-10.6173
▁brings	-10.6176
▁duty	-10.6176
▁apartment	-10.6177
▁अर्का	-10.6178
▁देउवाले	-10.6184
▁Wow	-10.6184
▁topics	-10.6188
▁सामान	-10.6192
▁कुराकानी	-10.6197
म्ब	-10.6197
ुभयो	-10.6197
▁chain	-10.6198
dis	-10.6199
▁shoes	-10.6202
▁st	-10.6207
▁वर्षदेखि	-10.6211
▁foods	-10.6211
▁खारेज	-10.6217
▁smoke	-10.6217
▁updated	-10.6219
row	-10.6224
▁गतेदेखि	-10.6226
▁भनेका	-10.6226
▁कार्यरत	-10.6226
For	-10.6226
▁Section	-10.6233
▁मुख	-10.6233
▁depend	-10.6233
-1	-10.6237
▁फ्रान्स	-10.6242
▁educational	-10.6243
▁household	-10.625
▁नियुक्त	-10.6251
▁रुप	-10.6251
▁Dan	-10.6252
▁पार्ने	-10.6253
ran	-10.6261
▁skill	-10.6261
▁2007	-10.6262
▁yeah	-10.6265
ny	-10.6267
▁citizens	-10.6271
▁sky	-10.6273
▁definition	-10.6273
▁teeth	-10.6273
▁enjoying	-10.6276
▁जनालाई	-10.6277
▁believed	-10.6282
धा	-10.6282
▁AM	-10.6282
▁smell	-10.6287
▁flight	-10.6297
▁occur	-10.63
▁salt	-10.6302
▁चासो	-10.6303
▁बंगलादेश	-10.6303
▁भेला	-10.6304
▁हेर्दा	-10.6308
▁Israel	-10.6312
fin	-10.6314
▁aim	-10.6314
▁Tri	-10.6317
▁routine	-10.6323
▁उनीहरुको	-10.6324
शी	-10.6326
मन	-10.6328
▁गए	-10.6328
▁तरकारी	-10.6329
ass	-10.6331
▁मोरङ	-10.6331
▁motor	-10.6334
▁carefully	-10.6335
▁नागरिकता	-10.6337
▁server	-10.6337
७४	-10.6337
▁basically	-10.6339
▁somewhat	-10.6344
▁IS	-10.6346
▁facility	-10.6347
▁सुन्दर	-10.6348
▁mistake	-10.6348
with	-10.6348
ade	-10.6351
▁Was	-10.6353
▁खाने	-10.6355
▁स्वीकार	-10.636
▁आव	-10.6364
▁maximum	-10.637
▁बढाउने	-10.6371
▁अभ्यास	-10.6373
स्ता	-10.6375
▁markets	-10.6375
mit	-10.6376
▁shift	-10.6378
▁पहिरो	-10.6378
▁सामुदायिक	-10.6382
▁विगत	-10.6383
▁suspect	-10.6384
▁Second	-10.6388
▁आयोजनामा	-10.6389
▁दुख	-10.6389
▁fl	-10.639
▁burn	-10.6392
▁blame	-10.6392
▁sa	-10.6393
▁dropped	-10.6395
▁खुशी	-10.6395
▁Comments	-10.6397
▁flu	-10.6398
▁31	-10.64
▁हालसम्म	-10.64
▁खु	-10.6401
ताको	-10.6402
box	-10.6404
▁नभए	-10.6405
▁मलेसिया	-10.6407
▁transport	-10.6409
▁drawing	-10.6409
▁Information	-10.6414
▁Fa	-10.6416
▁गणतन्त्र	-10.6419
ox	-10.6422
▁बिहे	-10.6423
▁अनुरोध	-10.6429
▁पौडेलले	-10.6432
फा	-10.6436
▁France	-10.6436
▁Jo	-10.6436
▁describe	-10.6436
▁suffering	-10.6438
▁bottle	-10.6438
▁stream	-10.644
▁reflect	-10.6443
pi	-10.6444
▁शुभ	-10.6444
▁passing	-10.6446
▁broad	-10.6446
धन	-10.6448
ack	-10.6449
▁हे	-10.6456
▁Mary	-10.6457
त्ति	-10.6461
▁पढ्न	-10.6462
▁instructions	-10.6463
▁लोकतन्त्र	-10.6463
▁allowing	-10.6463
▁उद्देश्य	-10.6463
▁डट	-10.6465
▁विद्युत	-10.6467
▁apparently	-10.6467
वान	-10.6471
▁वर्तमान	-10.6472
▁हासिल	-10.6473
▁सजाय	-10.6474
▁launch	-10.6475
):	-10.6476
▁Sorry	-10.6479
ेट	-10.6483
▁बीबीसी	-10.6483
▁grab	-10.6483
▁CO	-10.6483
▁गति	-10.6486
▁curious	-10.6489
▁Find	-10.6493
▁मधेश	-10.6493
ung	-10.6493
▁false	-10.6493
▁defense	-10.6496
▁College	-10.65
▁पारेको	-10.6502
िर	-10.6502
▁Everyone	-10.6503
सार	-10.6505
▁collect	-10.6507
▁grew	-10.6508
▁storm	-10.651
▁rental	-10.6515
▁approved	-10.6516
पति	-10.6523
▁ऐतिहासिक	-10.6524
▁situations	-10.6526
▁grateful	-10.6528
uring	-10.653
▁parking	-10.6533
▁rare	-10.6535
स्थल	-10.6536
▁Indian	-10.6538
17	-10.6541
3.	-10.6543
▁crack	-10.6547
▁अन्तर	-10.6548
what	-10.6548
ाउँदा	-10.6549
how	-10.655
▁Director	-10.6555
ons	-10.6555
▁70	-10.6557
▁explanation	-10.6558
▁earn	-10.6566
ral	-10.6566
त्त	-10.6567
▁Being	-10.657
▁protected	-10.6572
▁गाविस	-10.6574
▁Off	-10.6575
्ला	-10.6577
ration	-10.6578
▁browser	-10.6582
▁Open	-10.6584
more	-10.6585
▁SO	-10.6587
▁chosen	-10.6588
ेश्वर	-10.6588
▁४५	-10.6593
▁बु	-10.6593
▁अति	-10.6594
▁somebody	-10.6597
▁एसिया	-10.6599
▁मेला	-10.66
ीका	-10.6603
▁Super	-10.6604
▁surgery	-10.6606
▁advanced	-10.6606
EN	-10.6609
▁Finally	-10.6612
▁sides	-10.6615
▁सशस्त्र	-10.6616
▁गर्छु	-10.6616
play	-10.6617
▁artist	-10.6621
▁Looking	-10.6622
▁35	-10.663
▁नेपाललाई	-10.6632
▁selected	-10.6634
▁pattern	-10.6635
▁empty	-10.6637
▁prison	-10.6641
▁charges	-10.6641
▁टि	-10.6643
ya	-10.6644
▁किलो	-10.6644
▁आरोपमा	-10.6649
▁cheese	-10.6653
▁reader	-10.6653
▁Book	-10.6656
▁गतिविधि	-10.6657
▁फर्क	-10.6657
ans	-10.6657
▁निर्वाचनको	-10.6659
▁बुद्ध	-10.6662
▁moral	-10.6665
99	-10.6666
▁..	-10.6666
▁FOR	-10.6669
▁उपाय	-10.6674
▁भारतले	-10.6675
▁लिएका	-10.6678
बर	-10.6682
▁pleasant	-10.6683
▁cycle	-10.6683
▁अपेक्षा	-10.6683
▁गर्नका	-10.6684
▁पत्ता	-10.6685
▁अघिल्लो	-10.6689
▁permission	-10.6689
▁Commission	-10.6694
AN	-10.6702
रमा	-10.6702
▁धन्यवाद	-10.6705
▁aside	-10.6706
▁Report	-10.6709
▁possibility	-10.6711
▁forces	-10.6712
▁डर	-10.6712
AR	-10.6712
▁cleaning	-10.6713
▁भो	-10.6718
▁कम्युनिस्ट	-10.6719
▁operate	-10.672
▁neck	-10.6721
▁विस्तृत	-10.6722
▁contain	-10.6722
▁favourite	-10.6723
दार	-10.6724
▁टु	-10.6724
▁agencies	-10.6734
▁गौतम	-10.6735
▁kick	-10.675
18	-10.6765
▁संसद	-10.6767
don	-10.6768
bs	-10.6769
▁messages	-10.6774
han	-10.6774
बाहेक	-10.6775
▁सबैले	-10.678
ants	-10.6781
▁Though	-10.6783
some	-10.6784
q	-10.6784
वल	-10.6784
▁सञ्चालक	-10.6785
▁व्यक्तिगत	-10.6786
▁resolution	-10.6787
▁bu	-10.6788
▁regulations	-10.6789
▁देव	-10.6792
get	-10.6795
▁taxes	-10.6798
▁permit	-10.6801
नले	-10.6803
▁अर्थात्	-10.6806
▁निर्धारण	-10.6807
▁कमल	-10.6818
▁थालेका	-10.6818
▁निर्माणका	-10.6818
प्त	-10.6819
▁winning	-10.6821
▁डिभिजन	-10.6822
cur	-10.6822
▁बीमा	-10.6822
▁trail	-10.6822
▁पर्व	-10.6826
▁extent	-10.6826
▁gr	-10.6832
▁Mrs	-10.6834
▁valid	-10.6836
▁ordered	-10.6842
▁install	-10.685
▁procedures	-10.685
ew	-10.6853
▁मधेसी	-10.6855
▁अगाडी	-10.6857
▁Under	-10.6857
▁गर्नेछ	-10.6858
▁issued	-10.6859
ुल	-10.6859
▁Real	-10.6862
▁recall	-10.6864
▁Amazon	-10.6865
▁हर	-10.6867
▁plastic	-10.6872
▁blogs	-10.6874
▁पोस्ट	-10.6876
▁एस	-10.6876
▁९०	-10.6876
▁हप्ता	-10.6879
▁45	-10.688
▁सहकार्य	-10.6881
▁spiritual	-10.6882
▁मौसम	-10.6885
▁सम्मेलनमा	-10.6889
▁inspired	-10.689
▁chief	-10.689
▁wake	-10.689
▁म्युजिक	-10.6894
chi	-10.6894
▁wise	-10.6894
▁excuse	-10.6895
▁तिमी	-10.6895
▁यता	-10.6895
▁साना	-10.6898
▁confident	-10.6899
▁effectively	-10.6906
▁इमेल	-10.6908
▁Party	-10.6908
▁hat	-10.6911
▁terrible	-10.692
▁जनकपुर	-10.692
ong	-10.6921
▁चुनावमा	-10.6921
35	-10.6922
ily	-10.6924
▁Previous	-10.6925
जस्ता	-10.6925
▁चीनको	-10.6927
▁दश	-10.6929
▁broke	-10.693
▁(19	-10.6931
▁अदालतले	-10.6933
अघि	-10.6933
बु	-10.6934
▁vehicles	-10.6936
▁कांग्रेसले	-10.6939
▁somehow	-10.6941
्नुपर्ने	-10.6948
▁medium	-10.6949
▁विजय	-10.695
भे	-10.6958
▁typically	-10.6965
load	-10.6968
▁German	-10.697
▁flash	-10.6972
▁Lu	-10.6972
ana	-10.6974
▁frequently	-10.6974
▁monitor	-10.6975
▁rose	-10.6976
▁ingredients	-10.6981
▁पे	-10.6984
▁Such	-10.6985
▁illegal	-10.6996
Be	-10.6996
▁drinking	-10.7
▁मुलुकमा	-10.7
▁Miss	-10.7001
▁monthly	-10.7002
▁भनाई	-10.7004
AM	-10.7005
▁impressed	-10.7007
हे	-10.7007
▁सजिलो	-10.7008
▁delivered	-10.701
▁border	-10.7012
▁thick	-10.7013
04	-10.7016
▁रहन	-10.7019
▁sin	-10.7024
▁desk	-10.7029
▁प्रधानमन्त्रीको	-10.7031
▁sending	-10.7031
ane	-10.7044
02	-10.7046
▁तराई	-10.7049
▁विश्लेषण	-10.7051
▁millions	-10.7052
▁bodies	-10.7052
▁tiny	-10.7053
▁neither	-10.7055
!)	-10.7057
▁species	-10.7061
माओवादी	-10.7065
ising	-10.7066
▁noise	-10.7068
related	-10.7069
▁understood	-10.707
▁$3	-10.7075
▁foundation	-10.7086
▁capable	-10.7086
▁poll	-10.7092
▁al	-10.7094
70	-10.7095
▁बिना	-10.7096
ेन्ट	-10.7098
न्छ	-10.7102
▁बिदा	-10.7103
▁मोर्चा	-10.7103
▁refer	-10.7106
▁du	-10.711
▁relatively	-10.711
▁राजदूत	-10.7113
sive	-10.7118
▁पाकिस्तान	-10.7119
▁Women	-10.7121
▁Union	-10.7124
▁सडकमा	-10.7124
▁बालिका	-10.713
75	-10.7132
िम	-10.7134
▁दिउँसो	-10.7134
▁opposite	-10.7136
istic	-10.7136
form	-10.714
▁discussed	-10.7142
▁Times	-10.7145
▁blind	-10.7146
▁हस्ताक्षर	-10.7146
ened	-10.7147
▁updates	-10.7147
्रो	-10.7148
▁forth	-10.7152
▁नोट	-10.7152
▁Power	-10.7152
▁consumers	-10.7157
▁महासचिव	-10.7159
▁orders	-10.716
▁झण्डै	-10.7161
▁pray	-10.7166
▁va	-10.717
▁boost	-10.7171
▁हिजो	-10.7173
▁धान	-10.7178
▁Management	-10.718
खु	-10.718
▁समृद्धि	-10.7183
▁grade	-10.7188
▁बाध्य	-10.7189
▁chocolate	-10.719
▁कम्तीमा	-10.7193
▁procedure	-10.7194
▁(3)	-10.7196
▁शीर्ष	-10.7198
▁निर्	-10.7204
▁बहस	-10.7205
▁Children	-10.7209
▁EU	-10.721
▁जी	-10.7212
▁ब्या	-10.7212
ray	-10.7212
▁पर्यटकीय	-10.7215
03	-10.7215
▁craft	-10.7217
▁weak	-10.7219
▁संघको	-10.7222
▁competitive	-10.7223
▁shooting	-10.7224
▁switch	-10.7224
▁communicate	-10.7227
▁worried	-10.7228
▁introduced	-10.723
press	-10.7231
▁replace	-10.7233
▁partners	-10.7233
▁coach	-10.7235
▁केन्द्रित	-10.724
When	-10.7247
▁फिचर	-10.7247
▁vital	-10.7254
ses	-10.7254
जर	-10.7255
▁supporting	-10.7256
▁sand	-10.7258
▁Ko	-10.7262
▁serving	-10.7263
▁कमिटी	-10.7263
▁letters	-10.7271
▁जहाज	-10.7272
▁resource	-10.7273
▁500	-10.7274
▁stores	-10.7274
▁motion	-10.7275
▁Security	-10.7275
▁historical	-10.7276
▁suck	-10.7276
▁घिमिरे	-10.7282
aw	-10.7286
▁blow	-10.7286
▁फा	-10.7289
ue	-10.7292
यस	-10.7293
▁UN	-10.7295
▁accordance	-10.7296
▁उपस्थित	-10.7307
.1	-10.7309
▁load	-10.731
▁पार्टीले	-10.7311
▁औपचारिक	-10.7312
▁charged	-10.7316
▁आएर	-10.7317
▁consumer	-10.7318
▁अमेरिकामा	-10.7319
▁शहर	-10.7321
▁colour	-10.7321
▁memories	-10.7326
▁Association	-10.7326
▁Men	-10.7327
▁ST	-10.7331
▁क्षेत्रीय	-10.7331
ld	-10.7332
▁sharp	-10.7333
▁neighborhood	-10.734
ky	-10.734
▁struggle	-10.734
▁यादवले	-10.7341
▁laid	-10.7342
▁receiving	-10.7346
▁bloggers	-10.7347
▁vast	-10.7348
▁सेक्स	-10.7349
▁assets	-10.735
▁politics	-10.7357
▁भु	-10.7358
▁बराबरको	-10.736
▁labor	-10.7364
▁classic	-10.7364
ari	-10.7365
▁pointed	-10.7366
▁दशमलव	-10.7367
▁cooking	-10.737
▁फूल	-10.7373
▁row	-10.7375
▁धनगढी	-10.7375
▁Texas	-10.7376
▁literally	-10.7378
▁institutions	-10.7382
▁accurate	-10.7382
▁reaction	-10.7382
▁सरकारमा	-10.7382
▁decent	-10.7384
▁engage	-10.7385
▁हालै	-10.7385
▁loving	-10.7389
▁buildings	-10.739
▁plain	-10.739
▁भावना	-10.7392
▁हङकङ	-10.7393
▁properties	-10.7394
▁सरकारका	-10.7394
list	-10.7398
ुस्	-10.74
▁authorities	-10.7403
▁grand	-10.7403
28	-10.7406
▁discount	-10.7407
▁satisfied	-10.741
00	-10.741
▁तथ्य	-10.7415
▁threat	-10.7415
As	-10.7415
▁7.	-10.7417
▁y	-10.7422
hy	-10.7423
▁everywhere	-10.7427
▁Joe	-10.7427
▁Design	-10.7428
▁Da	-10.7428
5,000	-10.743
▁तलब	-10.7431
▁deposit	-10.7432
▁surrounding	-10.7432
▁stone	-10.7433
▁हस्तान्तरण	-10.7435
▁Si	-10.7436
▁legs	-10.7438
▁depends	-10.7439
▁Japan	-10.744
▁Long	-10.7443
▁warning	-10.7443
▁सक्नुहुन्छ	-10.7446
▁त्यसो	-10.7447
▁log	-10.7447
▁sha	-10.7453
06	-10.7458
▁expenses	-10.7459
ris	-10.7461
▁inspiration	-10.7461
▁प्रगति	-10.7463
भारत	-10.7464
▁shower	-10.7467
▁औँ	-10.7468
▁पाइने	-10.7469
▁Ju	-10.747
▁सदरमुकाम	-10.7474
▁नगरपालिकाको	-10.7475
▁tests	-10.7475
▁registration	-10.7475
▁heaven	-10.7477
▁Old	-10.7479
▁joined	-10.7483
▁फल	-10.7486
▁गैर	-10.7487
▁revenue	-10.7487
▁contribute	-10.749
▁लेखक	-10.749
▁wanting	-10.7491
▁सभामुख	-10.7493
▁tall	-10.7494
▁doors	-10.7494
▁necessarily	-10.7495
▁television	-10.7509
▁extend	-10.7511
▁remaining	-10.7511
▁incident	-10.7512
▁छिमेकी	-10.7516
▁damn	-10.7518
▁कतै	-10.752
▁expectations	-10.7523
चित	-10.7524
▁सम्झ	-10.7527
▁relief	-10.7529
▁Pat	-10.7535
▁Try	-10.7536
ose	-10.754
▁दर्जन	-10.7542
▁दिनको	-10.7546
▁performed	-10.7549
घाट	-10.755
जना	-10.7554
▁district	-10.7555
▁कारवाही	-10.7555
▁concerning	-10.7556
▁nobody	-10.7559
vin	-10.7561
हार	-10.7562
▁विद्यालयमा	-10.7563
▁keeps	-10.7568
चि	-10.757
▁reform	-10.7571
▁reduced	-10.7572
▁celebrate	-10.7572
▁sentence	-10.7573
▁मेयर	-10.7573
▁उम्मेदवारी	-10.7574
▁आयोजक	-10.7577
▁recovery	-10.7578
su	-10.7578
▁recommendations	-10.758
▁नहुँदा	-10.7581
▁plane	-10.7583
▁उड	-10.7585
आइ	-10.7585
▁Island	-10.7586
▁Give	-10.7587
▁escape	-10.7589
▁pitch	-10.759
▁लगाएको	-10.7594
▁height	-10.7594
▁पहुँच	-10.7599
▁आर	-10.7606
▁bomb	-10.7608
▁देख	-10.7609
▁२०१७	-10.7609
रुपमा	-10.7616
ास	-10.7616
▁गर्यो	-10.7616
▁सचिवालय	-10.7617
▁BE	-10.7623
ाउँछ	-10.7624
▁truck	-10.7624
भी	-10.7624
ville	-10.7626
nic	-10.7628
▁brown	-10.7628
▁बाबुराम	-10.7629
gmail	-10.7629
▁units	-10.763
▁lights	-10.7632
life	-10.7632
▁गयो	-10.7636
▁bowl	-10.7637
90	-10.7638
▁नदी	-10.764
▁enemy	-10.7641
▁Master	-10.7642
▁तिर	-10.7647
▁referred	-10.7647
▁Food	-10.7649
▁कालो	-10.7651
▁एकजना	-10.7651
▁Nothing	-10.7652
▁privacy	-10.766
▁साउदी	-10.7663
▁Club	-10.7663
ino	-10.7666
▁dating	-10.7666
▁carrying	-10.7667
wn	-10.7667
समा	-10.7668
▁domestic	-10.7672
▁hide	-10.7674
्वा	-10.7678
▁hire	-10.768
▁therapy	-10.7684
.00	-10.7685
▁draft	-10.7687
▁त्यसका	-10.7688
ेक	-10.7689
▁Market	-10.7696
▁dreams	-10.7697
▁heads	-10.7698
▁बाहेक	-10.7701
▁चौथो	-10.7702
▁उपयुक्त	-10.7702
▁harder	-10.7704
▁जोखिम	-10.7704
▁surely	-10.7705
▁Cor	-10.7705
har	-10.7707
▁destination	-10.7707
▁हुँदैछ	-10.7708
ai	-10.7709
▁सिट	-10.7712
29	-10.7715
▁अा	-10.7716
१९	-10.7716
ware	-10.7717
▁केसीले	-10.7717
▁bookmarked	-10.7718
र्त	-10.7719
▁forest	-10.7723
▁Florida	-10.7727
wood	-10.7727
▁provider	-10.7734
▁port	-10.7735
▁pa	-10.7737
▁पाठक	-10.7738
▁lifestyle	-10.7739
▁crew	-10.774
▁टेलिभिजन	-10.774
▁ऊ	-10.7741
▁Development	-10.7742
air	-10.7743
▁मन्त्रालयका	-10.7743
▁incredibly	-10.7745
▁गराएको	-10.7754
▁हुन्थ्यो	-10.7757
place	-10.7758
▁hardly	-10.7758
▁identity	-10.7759
र्ट	-10.7761
▁Ti	-10.7761
▁गर्नुहोला	-10.7762
▁न्युज	-10.7763
▁breast	-10.7768
▁letting	-10.7768
्क	-10.7768
yl	-10.7771
▁shoulder	-10.7779
▁स्थिति	-10.7779
▁windows	-10.7781
▁courses	-10.7784
▁अनिवार्य	-10.7785
ob	-10.7788
▁Program	-10.7789
▁Never	-10.7789
▁एकीकृत	-10.7792
▁यसो	-10.7794
▁टिकट	-10.7796
▁Rock	-10.7797
▁संघर्ष	-10.7797
▁Plus	-10.7798
▁गरिनेछ	-10.7799
▁नारायण	-10.7799
▁guidance	-10.7804
▁निःशुल्क	-10.7804
▁Show	-10.7805
▁drivers	-10.7811
▁payments	-10.7813
ify	-10.7814
▁शरीर	-10.7815
▁tip	-10.7818
फ्	-10.782
▁बस्ती	-10.7829
▁Care	-10.783
▁meetings	-10.783
▁युवती	-10.7831
▁decade	-10.7833
▁greatly	-10.7836
▁वर्षपछि	-10.7837
▁bridge	-10.7838
धी	-10.7843
▁lessons	-10.7843
▁hall	-10.7845
▁महोत्सव	-10.7845
▁मापदण्ड	-10.7845
▁भन्नु	-10.7847
▁कानुनी	-10.785
▁risks	-10.7851
▁participants	-10.7851
▁Learn	-10.7851
▁everyday	-10.7852
▁अस	-10.7852
▁anybody	-10.7852
▁सेवन	-10.7855
▁whenever	-10.7858
▁उपचारका	-10.7859
▁ends	-10.7861
▁कर्जा	-10.7862
26	-10.7862
▁le	-10.7864
▁inform	-10.7865
▁आफै	-10.7868
▁improvement	-10.787
▁expertise	-10.787
वन	-10.7871
▁improved	-10.7872
▁odd	-10.7873
▁Je	-10.7879
▁प्रमाणपत्र	-10.7879
▁बस्नेत	-10.7881
▁पर्न	-10.7883
?!	-10.7884
▁minor	-10.7886
▁random	-10.7886
▁मिलेर	-10.7886
▁पदार्थ	-10.7889
ks	-10.7891
hood	-10.7894
▁pace	-10.7901
▁pounds	-10.7905
▁nu	-10.7905
gs	-10.7905
▁DO	-10.7909
▁ages	-10.7913
▁enable	-10.7913
▁delay	-10.7915
▁शाह	-10.7917
▁मेगावाट	-10.7922
St	-10.7925
▁contest	-10.7925
▁पुग्यो	-10.7925
▁शासन	-10.7928
▁council	-10.7934
▁automatically	-10.7936
▁थाल	-10.7943
िट	-10.7947
▁ticket	-10.795
▁Things	-10.7953
▁प्रदेशका	-10.7954
run	-10.7957
path	-10.7959
▁fuck	-10.7959
▁database	-10.796
▁पदमा	-10.7961
▁सूर्य	-10.7969
▁ट्राफिक	-10.797
▁purchased	-10.7975
▁पदाधिकारी	-10.7975
▁functions	-10.7977
08	-10.7978
▁kit	-10.798
▁fundamental	-10.7981
▁crash	-10.7981
▁flowers	-10.7982
▁पुग	-10.7982
▁अख्तियार	-10.7984
▁principles	-10.7984
▁weapons	-10.7985
▁trick	-10.7992
▁trend	-10.7994
▁Article	-10.7996
▁=	-10.7997
▁registered	-10.7998
▁Everything	-10.7999
07	-10.8
▁para	-10.8002
▁category	-10.8005
▁चाहना	-10.8006
▁severe	-10.8009
ez	-10.801
▁उपस्थिति	-10.8012
▁normally	-10.8013
▁gear	-10.802
é	-10.802
jo	-10.8022
▁थुप्रै	-10.8023
▁2000	-10.8023
▁humans	-10.8025
van	-10.8028
▁Ru	-10.8029
▁निर्माणमा	-10.8029
▁phase	-10.8029
▁चे	-10.8029
▁joint	-10.8032
▁खतरा	-10.8033
▁awareness	-10.8033
▁staying	-10.8038
cer	-10.8043
▁existence	-10.8047
व्य	-10.8051
▁bio	-10.8051
▁sufficient	-10.8051
▁दाङ	-10.8053
▁CA	-10.8055
▁उजुरी	-10.8055
▁comprehensive	-10.8056
▁attacks	-10.8057
▁award	-10.8061
▁अर्थमन्त्री	-10.8063
▁acid	-10.8064
▁प्रमाण	-10.8065
▁भरतपुर	-10.8065
▁Robert	-10.8067
▁Windows	-10.807
▁Jim	-10.8072
▁चौ	-10.8078
▁अमेरिकाको	-10.808
▁label	-10.8082
▁cutting	-10.8086
part	-10.8088
▁समान	-10.8091
▁केन्द्रमा	-10.8092
युक्त	-10.8094
▁Bible	-10.8099
▁ease	-10.8104
▁सर्वसाधारण	-10.8106
▁वे	-10.8108
▁artists	-10.8108
rant	-10.8108
▁Sea	-10.8112
▁pin	-10.8113
▁इच्छा	-10.8113
▁एवम्	-10.8115
दो	-10.8116
▁falling	-10.8121
▁cried	-10.8127
▁राजीनामा	-10.8127
▁Water	-10.8127
ec	-10.8129
▁फे	-10.813
▁ट्र	-10.813
▁खेल्ने	-10.8132
▁facing	-10.8135
▁भ्रमणमा	-10.8147
▁engaged	-10.8148
atory	-10.8149
▁उपयोग	-10.8149
▁Minister	-10.8149
▁बुझ्न	-10.8151
▁thin	-10.8152
▁छिटो	-10.8155
vers	-10.8156
▁Code	-10.8157
27	-10.8158
cus	-10.816
▁बहुमत	-10.8161
▁युनिकोड	-10.8161
ette	-10.8162
▁blogging	-10.8164
▁गजल	-10.8165
cha	-10.8167
▁cloud	-10.8167
▁immediate	-10.8169
▁दबाब	-10.8173
▁airport	-10.8173
▁walls	-10.8181
▁महाधिवेशन	-10.8185
▁समावेश	-10.8185
▁protest	-10.8187
▁Sc	-10.8187
▁tasks	-10.8187
▁suitable	-10.8187
ump	-10.8188
ीत	-10.8191
ball	-10.8195
▁fabric	-10.8199
▁शर्माले	-10.8202
▁Top	-10.8205
▁wave	-10.8208
▁व्यक्तिको	-10.8209
▁retail	-10.8209
ock	-10.8212
▁आयोगको	-10.8212
▁जु	-10.8214
▁ear	-10.8214
▁हल	-10.8214
▁killing	-10.8214
▁mountain	-10.8215
▁कमी	-10.822
sure	-10.8221
▁परिचालन	-10.8222
▁Sun	-10.8223
▁wealth	-10.8223
▁बढि	-10.8224
▁बोर्ड	-10.8224
ेन्स	-10.8225
ेसन	-10.8227
▁समाजमा	-10.8228
war	-10.8229
▁अन	-10.8234
▁युद्ध	-10.8234
▁विदेशमा	-10.8235
▁गतेसम्म	-10.8236
▁मनो	-10.8237
▁Tu	-10.8237
▁शेर्पा	-10.8241
मू	-10.8243
▁compare	-10.8244
▁Comp	-10.8246
▁constant	-10.8247
app	-10.8248
▁रोक्न	-10.8252
▁supported	-10.8253
▁Family	-10.8253
▁त्यसले	-10.8254
सिंह	-10.8257
कर्मी	-10.8259
▁Ser	-10.8264
▁bother	-10.8264
▁सिनेमा	-10.8265
ोर	-10.8267
▁प्राकृतिक	-10.8267
▁सल्लाहकार	-10.8268
▁fields	-10.8271
▁begins	-10.8277
फे	-10.8278
▁नेताहरु	-10.8279
▁नगरी	-10.8285
▁समाजवादी	-10.8289
▁दशक	-10.8291
▁पठाउन	-10.8292
▁किलोमिटर	-10.8293
▁लाइन	-10.8297
▁linked	-10.8298
▁Bush	-10.8298
#	-10.8299
▁बताएको	-10.8303
▁tone	-10.8304
▁min	-10.8305
▁Germany	-10.8306
▁Canadian	-10.8306
▁studio	-10.8309
▁गुम	-10.831
aries	-10.8312
AT	-10.8313
▁affordable	-10.8315
......	-10.8316
▁zone	-10.8317
tation	-10.8319
point	-10.8319
▁आयोजनाको	-10.8319
▁जाँच	-10.8319
▁पहिला	-10.8321
▁थाले	-10.8321
▁Data	-10.8322
▁gap	-10.8327
▁tickets	-10.8329
▁hi	-10.8332
▁सगरमाथा	-10.8334
bu	-10.8336
▁talent	-10.8336
▁Federal	-10.8337
▁चैत्र	-10.8338
▁मेरा	-10.8339
▁aspect	-10.834
fer	-10.8343
▁identified	-10.8344
वार	-10.8345
ound	-10.8346
▁2006	-10.8347
▁निश्चित	-10.8348
▁banks	-10.835
▁(1	-10.8358
▁establish	-10.8358
▁मानिसहरु	-10.8358
▁origin	-10.8359
▁आधिकारिक	-10.8361
▁extensive	-10.8362
▁fingers	-10.8367
▁Think	-10.837
ON	-10.8372
दु	-10.8374
▁infrastructure	-10.8375
औं	-10.8376
▁argue	-10.8377
▁लक्षित	-10.8377
ese	-10.8377
फि	-10.8377
▁लक्ष्मी	-10.8381
▁Therefore	-10.8383
▁पोखरामा	-10.8386
par	-10.8388
▁उदाहरण	-10.8388
▁technologies	-10.8392
▁एमालेले	-10.8394
▁lesson	-10.8395
▁Sal	-10.8396
gram	-10.8396
wa	-10.8397
▁victim	-10.8398
▁lies	-10.8398
▁आधा	-10.8401
gan	-10.8414
fo	-10.8416
▁stars	-10.8417
▁tech	-10.8419
▁पोर्टल	-10.8421
▁Blue	-10.8421
▁experiment	-10.8423
▁nuclear	-10.8426
LY	-10.8427
▁doctors	-10.8433
▁defend	-10.8437
▁installed	-10.8437
ets	-10.8438
▁candidate	-10.8439
हरुका	-10.8439
▁upper	-10.844
▁beer	-10.8443
▁extreme	-10.8448
vert	-10.8452
▁upgrade	-10.8453
▁impression	-10.8454
▁external	-10.8454
▁occurred	-10.8456
िकरण	-10.8457
▁केसीको	-10.8458
▁prize	-10.8459
▁Tell	-10.8461
ल्याण्ड	-10.8465
▁संघका	-10.8466
▁वर्षअघि	-10.8467
▁papers	-10.8467
kin	-10.8467
▁adventure	-10.8471
▁सैनिक	-10.8472
Ma	-10.8476
▁भन	-10.8478
▁chose	-10.848
▁providers	-10.8482
▁approval	-10.8484
▁saving	-10.8484
▁forum	-10.8487
▁झा	-10.8488
▁grant	-10.8493
▁consent	-10.85
▁भण्डारीले	-10.8501
▁merely	-10.8504
▁खट	-10.8507
lay	-10.8509
▁stands	-10.8509
▁गोरखा	-10.8511
▁समग्र	-10.8513
▁औ	-10.8513
▁legislation	-10.8514
▁उचित	-10.8515
pen	-10.8517
lid	-10.8518
▁coast	-10.852
▁brilliant	-10.8523
▁स्वतन्त्रता	-10.8523
▁दाहालले	-10.8524
▁चन्द्र	-10.8526
▁व्यवहार	-10.8527
ताका	-10.8529
▁Mike	-10.853
head	-10.8533
▁visited	-10.8535
▁significantly	-10.8537
▁महिनाको	-10.8538
▁बेलायत	-10.8541
▁एम	-10.8542
▁hole	-10.8544
▁belief	-10.8544
▁tears	-10.8545
▁gender	-10.8545
▁coat	-10.8554
▁consistent	-10.8554
▁मामिला	-10.8557
▁regardless	-10.8557
▁नभई	-10.8559
ब्ल	-10.856
▁कसले	-10.8561
▁जानु	-10.8566
रिया	-10.8567
▁दो	-10.857
▁पाण्डे	-10.8571
▁com	-10.8572
▁तस्करी	-10.8572
▁sets	-10.8572
▁आफन्त	-10.8574
र्ष	-10.8575
gue	-10.8576
सर	-10.8578
▁PC	-10.8579
lit	-10.858
▁ski	-10.858
▁processing	-10.858
ef	-10.8583
▁जनाएका	-10.8583
▁Despite	-10.8584
ेस	-10.8587
लार्इ	-10.859
▁acting	-10.8592
▁रात	-10.8594
▁lu	-10.8597
▁mood	-10.8598
▁panel	-10.8599
▁Dec	-10.8599
▁checked	-10.8601
▁micro	-10.8604
▁Special	-10.8611
▁ALL	-10.8612
▁Cal	-10.8612
▁phrase	-10.8615
▁stayed	-10.8616
▁रोजगारी	-10.8616
IS	-10.8618
-2	-10.8619
▁Without	-10.862
▁consequences	-10.8622
▁लिए	-10.8623
▁मुटु	-10.8624
▁दुबै	-10.8626
▁नाफा	-10.8631
▁union	-10.8631
▁मद्दत	-10.8632
▁da	-10.8632
▁Mom	-10.8634
late	-10.8636
▁लिंक	-10.8637
▁बढ्यो	-10.8638
▁loves	-10.8639
▁व्य	-10.8643
▁आधारित	-10.8645
09	-10.8646
▁जागिर	-10.8646
▁Hall	-10.8647
ल्ड	-10.8648
▁transition	-10.8651
▁फैसला	-10.8652
▁oh	-10.8652
graph	-10.8653
▁Tra	-10.8653
▁complicated	-10.8654
▁streets	-10.8656
▁possess	-10.8657
view	-10.8658
▁commission	-10.8658
▁Ask	-10.8659
▁Cla	-10.8661
▁programme	-10.8661
▁Project	-10.8662
lot	-10.8662
▁generate	-10.8663
▁Really	-10.8664
▁गुणस्तर	-10.8665
▁Need	-10.8668
रहेका	-10.8672
▁attract	-10.8672
▁Okay	-10.8673
▁चलाउन	-10.8675
▁formal	-10.8681
▁Start	-10.8694
▁conclusion	-10.8697
▁पार्क	-10.8697
▁दिनुपर्ने	-10.8698
▁challenging	-10.8699
▁बनाए	-10.87
▁gay	-10.8703
▁van	-10.8705
▁Step	-10.8707
▁angry	-10.8709
▁सांस्कृतिक	-10.871
gar	-10.8713
११	-10.8716
▁filter	-10.8718
▁houses	-10.8719
▁भै	-10.8719
▁गोप्य	-10.8719
▁नायिका	-10.8719
tan	-10.8719
▁विकासको	-10.872
▁माध्यम	-10.872
▁NO	-10.8721
▁महसुस	-10.8727
ken	-10.8734
▁गाउँमा	-10.8735
▁u	-10.8736
▁Father	-10.8739
▁पुनर्निर्माण	-10.8739
▁smooth	-10.8744
▁closely	-10.8744
▁combined	-10.8745
▁विभागले	-10.8746
▁बेपत्ता	-10.8749
५०	-10.8753
▁illness	-10.8753
▁cur	-10.8754
▁म्याग्दी	-10.8757
▁App	-10.8758
▁सञ्चालित	-10.8758
▁गरिसकेको	-10.8759
▁बहु	-10.8759
▁rely	-10.876
▁smiled	-10.8762
▁noted	-10.8768
▁गाई	-10.877
▁त्यसैगरी	-10.8772
▁Russian	-10.8773
Fi	-10.8775
▁plot	-10.8776
ंक	-10.8777
▁chart	-10.8779
▁इलाम	-10.878
SA	-10.8781
ash	-10.8782
▁टिप्पणी	-10.8783
ानी	-10.8783
▁trading	-10.8785
▁candidates	-10.8785
▁innovation	-10.8787
▁लगातार	-10.8789
▁figures	-10.8794
▁Ve	-10.8795
▁guilty	-10.8797
ama	-10.8797
▁degrees	-10.8798
▁anxiety	-10.8798
▁bath	-10.8799
▁revealed	-10.8802
▁mad	-10.8802
nn	-10.8802
▁convenient	-10.8803
▁shirt	-10.8804
▁graduate	-10.8805
▁नारा	-10.8807
▁mini	-10.8811
▁extended	-10.8812
▁sta	-10.8814
▁intelligence	-10.8817
सभा	-10.8817
▁exposure	-10.882
▁Police	-10.882
▁अभिनेत्री	-10.882
▁तर्फ	-10.8823
▁७५	-10.8825
▁Spring	-10.8825
struct	-10.8827
▁भ्या	-10.8829
rry	-10.883
▁उनीहरूले	-10.8831
▁इन	-10.8831
vol	-10.8834
▁silence	-10.8839
▁reporting	-10.8839
▁मञ्च	-10.8841
$	-10.8842
▁सँगै	-10.8844
vent	-10.8846
▁hopefully	-10.8847
ject	-10.8847
गाउँ	-10.8847
▁पर्वत	-10.8848
▁महासंघ	-10.8848
▁atmosphere	-10.8852
▁समुह	-10.8859
▁सुरुवात	-10.886
▁वेबसाइट	-10.886
wing	-10.8862
▁जिम्मा	-10.8864
▁hidden	-10.8865
yn	-10.8867
▁invest	-10.8869
▁cry	-10.8871
bra	-10.8871
▁प्रजातन्त्र	-10.8872
▁sessions	-10.8873
▁default	-10.8877
hand	-10.8877
▁occasion	-10.8878
▁reliable	-10.888
▁उपत्यका	-10.8881
▁shame	-10.8882
hold	-10.8883
▁जनतालाई	-10.8884
▁दशैं	-10.8887
▁electric	-10.8891
2.	-10.8893
▁अवधिमा	-10.8894
▁impressive	-10.8895
▁भत्क	-10.8898
▁मानिसहरू	-10.8898
▁कार्यालयका	-10.8899
▁देशभर	-10.89
▁राजमार्ग	-10.8902
▁flag	-10.8902
▁reputation	-10.8903
▁कांग्रेसको	-10.8904
▁loose	-10.8906
▁कैलाली	-10.8907
▁अदालतमा	-10.8908
▁आह्वान	-10.8908
▁प्रतियोगिताको	-10.8909
▁ending	-10.8909
mor	-10.891
▁Sub	-10.8913
▁Min	-10.8916
lia	-10.8916
ब्	-10.8916
▁जनप्रतिनिधि	-10.8917
31	-10.8919
प्	-10.8921
▁उपकरण	-10.8926
az	-10.8927
▁सहयोगी	-10.8928
▁pocket	-10.893
▁~	-10.8933
▁तिम्रो	-10.8934
▁स्थल	-10.8934
▁victims	-10.8937
▁Has	-10.8937
▁प्रिमियर	-10.8942
▁sample	-10.8944
▁bound	-10.8944
▁अनुहार	-10.8944
du	-10.8945
▁volunteer	-10.8953
▁आय	-10.8956
▁असफल	-10.8957
एका	-10.8957
▁की	-10.896
▁भाषाको	-10.896
▁जान्छ	-10.896
▁savings	-10.8961
▁कञ्चनपुर	-10.8962
▁Inter	-10.8962
▁hero	-10.8964
▁भविष्य	-10.8966
sha	-10.8966
▁battery	-10.8967
▁देख्न	-10.8969
▁percentage	-10.8977
▁root	-10.898
▁प्रसारण	-10.8986
▁तस्बिर	-10.8986
▁script	-10.899
ole	-10.899
▁invited	-10.8991
ैं	-10.8992
▁प्रशिक्षण	-10.8995
▁Central	-10.8996
▁Help	-10.8999
cut	-10.9001
▁guard	-10.9001
▁बनाएका	-10.9002
gging	-10.9002
▁Mon	-10.9004
▁god	-10.9004
ians	-10.9005
▁बर्	-10.9006
▁typical	-10.9008
▁ta	-10.9009
▁agents	-10.9011
सहितको	-10.9013
▁फेरी	-10.902
▁tu	-10.902
▁African	-10.9022
▁चिकित्सा	-10.9023
De	-10.9023
▁कतार	-10.9024
सम्मको	-10.9024
▁sport	-10.9025
long	-10.9027
arm	-10.9028
▁योग	-10.9028
▁आलोचना	-10.9032
▁happiness	-10.9032
▁confirm	-10.9034
▁distribution	-10.9035
▁disaster	-10.9035
▁comparison	-10.9035
▁mortgage	-10.9036
▁River	-10.9042
▁tri	-10.9043
▁संघीयता	-10.9044
▁audio	-10.9045
iness	-10.9046
▁भाइ	-10.9047
nal	-10.9048
▁Russia	-10.9049
▁तथ्यांक	-10.9051
▁ban	-10.9051
▁बमोजिम	-10.9052
▁भएकोले	-10.9053
▁investors	-10.9056
▁restaurants	-10.9058
Con	-10.9059
CH	-10.9061
सकेको	-10.9063
▁सर्व	-10.9063
▁industrial	-10.9063
▁Him	-10.9064
this	-10.9064
▁USA	-10.9066
▁५५	-10.9066
▁लगाएर	-10.907
care	-10.907
ल्स	-10.9073
▁राप्रपा	-10.9073
▁gifts	-10.9075
▁लु	-10.9075
▁8.	-10.9077
▁Paris	-10.9077
▁domain	-10.9078
rt	-10.9079
▁plays	-10.9079
▁विकासमा	-10.9082
▁chest	-10.9085
▁रचना	-10.9087
▁प्रयोगकर्ता	-10.9087
▁element	-10.9087
▁सन्दर्भमा	-10.9087
्ग	-10.909
▁gorgeous	-10.9092
▁सहर	-10.9094
▁cells	-10.9094
▁व्यावसायिक	-10.9098
▁रहे	-10.9101
▁implement	-10.9101
▁represent	-10.9102
▁ब्लग	-10.9102
▁चित्र	-10.9103
▁recording	-10.9107
▁partnership	-10.9108
Not	-10.9108
▁सुर्खेत	-10.9113
भो	-10.9113
▁परिचय	-10.9114
▁:)	-10.9116
▁opinions	-10.9121
▁settings	-10.9123
▁preparation	-10.9125
▁ठुलो	-10.9128
▁लागेर	-10.9129
▁lawyer	-10.9129
▁Ge	-10.913
PA	-10.9131
▁विजेता	-10.9131
rc	-10.9132
िँदै	-10.9132
cri	-10.9132
▁rev	-10.9136
लको	-10.9137
▁Little	-10.9141
्थे	-10.9143
1.	-10.9143
▁tank	-10.9144
ते	-10.9145
▁अस्थायी	-10.9146
▁छानबिन	-10.9147
▁दा	-10.9152
▁हिमाल	-10.9153
lon	-10.9157
▁भएकी	-10.916
▁Watch	-10.9161
▁अवधि	-10.9161
▁informative	-10.9163
▁रनको	-10.9163
ford	-10.9165
▁पुगे	-10.9165
▁narrow	-10.9171
▁गाह्रो	-10.9172
▁statements	-10.9172
▁Know	-10.9173
▁Steve	-10.9175
▁क्याम्पस	-10.9178
▁lying	-10.9179
Ch	-10.9181
▁editor	-10.9184
▁राष्ट्रियसभा	-10.9186
▁मण्डल	-10.9187
▁ok	-10.9189
ok	-10.9189
▁figured	-10.9191
▁ताल	-10.9193
▁Three	-10.9197
55	-10.9199
०७३	-10.9203
▁kiss	-10.9208
निक	-10.9211
▁remind	-10.9212
▁certificate	-10.9214
चु	-10.9214
▁कास्की	-10.9219
▁तपाईंले	-10.9221
ेड	-10.9228
▁Media	-10.9228
फोटो	-10.9229
▁installation	-10.9231
▁विज्ञापनका	-10.9231
▁डेढ	-10.9232
▁nail	-10.9232
▁टाइप	-10.9234
All	-10.9237
्री	-10.9241
▁sw	-10.9242
pan	-10.9245
▁adjust	-10.9246
town	-10.9252
▁Cat	-10.9253
▁wi	-10.9254
▁त्यस्ता	-10.9258
▁32	-10.926
▁spa	-10.9262
▁हुनसक्छ	-10.9264
sy	-10.9264
▁रिपोर्ट	-10.9265
▁password	-10.9267
▁protein	-10.9268
▁Community	-10.9271
▁हित	-10.9273
▁opt	-10.9273
▁लगानीकर्ता	-10.9273
▁सोध	-10.9275
ically	-10.9276
▁2005	-10.9277
▁साप्ताहिक	-10.928
▁bookmarks	-10.928
▁Gar	-10.928
lt	-10.9282
▁समुदायको	-10.9283
pers	-10.9283
▁लुम्बिनी	-10.9284
bel	-10.9284
EC	-10.9284
als	-10.9287
▁अर्थतन्त्र	-10.929
चो	-10.929
▁जीवनमा	-10.9293
▁जाँदै	-10.9295
▁implementation	-10.9296
▁locations	-10.9296
▁column	-10.9301
▁depth	-10.9302
▁ट्रम्प	-10.9303
▁deals	-10.9308
▁सम्बन्धि	-10.931
▁साइट	-10.9311
▁whilst	-10.9311
▁butter	-10.9312
ुर	-10.9313
▁आनन्द	-10.9315
ाङ	-10.9316
▁nervous	-10.9316
▁sauce	-10.9317
▁injuries	-10.9319
▁नप	-10.9321
गे	-10.9322
▁survive	-10.9324
▁सँग	-10.9325
▁चाहिँ	-10.9331
िमा	-10.9333
▁membership	-10.9335
▁संस्थाको	-10.9335
▁choosing	-10.9335
▁li	-10.9337
44	-10.9339
देवी	-10.9339
▁अभि	-10.934
▁recognized	-10.9347
एल	-10.9347
▁universe	-10.9347
▁Team	-10.9349
▁संस्करण	-10.9349
▁प्रवद्र्धन	-10.9351
▁causing	-10.9357
▁0.	-10.9359
ोस्	-10.936
▁बाबु	-10.9364
qua	-10.9364
▁पसल	-10.9366
▁आधुनिक	-10.9366
च्च	-10.9371
थ्यो	-10.9372
▁proven	-10.9373
▁तयारीमा	-10.9374
▁Live	-10.9377
▁रगत	-10.9378
▁meals	-10.9378
▁differences	-10.9381
▁संसदमा	-10.9381
ङ्क	-10.9383
face	-10.9384
▁army	-10.9384
▁Want	-10.9385
ric	-10.9386
डो	-10.9388
▁ट्वीटर	-10.9388
▁संस्थाले	-10.939
▁rec	-10.9392
नाम	-10.9396
▁राख	-10.9396
uc	-10.9398
▁चोरी	-10.9398
▁journal	-10.9398
▁तपाईंलाई	-10.9399
▁जलविद्युत्	-10.9403
▁Word	-10.9403
▁clothing	-10.9404
nny	-10.9407
33	-10.9411
ters	-10.9411
▁Em	-10.9412
▁loans	-10.9413
▁राज्यको	-10.9415
▁recorded	-10.942
जस्तै	-10.942
▁trans	-10.9421
▁ne	-10.9425
oy	-10.9426
▁Queen	-10.9426
▁input	-10.9426
▁राखेका	-10.9431
▁symbol	-10.9432
स्व	-10.9434
mic	-10.9435
▁!!	-10.9441
▁flying	-10.9446
pot	-10.9447
▁entertainment	-10.9448
▁cons	-10.9453
▁apps	-10.9453
▁साह	-10.9457
▁Light	-10.9458
▁संकेत	-10.9459
ough	-10.9461
▁ultimately	-10.9464
▁joke	-10.9465
▁कित्ता	-10.9467
▁encounter	-10.9468
und	-10.9468
water	-10.947
log	-10.947
▁exceed	-10.947
ug	-10.9471
▁plate	-10.9474
▁Students	-10.9475
▁व्या	-10.9479
▁regret	-10.948
ID	-10.948
▁आपूर्ति	-10.9481
▁attorney	-10.9481
▁applicable	-10.9483
▁संविधानसभा	-10.9484
▁Journal	-10.9484
वाट	-10.9485
▁naturally	-10.9486
▁fourth	-10.9487
िंग	-10.9488
▁टेक	-10.9489
▁amounts	-10.949
▁breaking	-10.9494
▁string	-10.9496
▁$5	-10.9499
▁def	-10.9501
▁trained	-10.9502
mate	-10.9506
▁Ed	-10.9507
▁रक्षा	-10.9509
▁सेन्टर	-10.951
▁खुल्ला	-10.951
▁Western	-10.9511
शन	-10.9518
▁boss	-10.9518
▁permanent	-10.9519
▁fe	-10.9519
▁जेष्ठ	-10.952
▁जोडी	-10.952
▁खेल्न	-10.9524
▁positions	-10.9524
▁हवाई	-10.9524
▁रुपन्देही	-10.9528
धार	-10.9529
state	-10.9531
िङ्ग	-10.9533
-3	-10.9534
▁laptop	-10.9538
▁latter	-10.954
▁liquid	-10.9544
fall	-10.9545
▁राजेन्द्र	-10.9545
▁campus	-10.9545
▁ongoing	-10.9546
▁बलिउड	-10.9547
▁किनभने	-10.9547
▁deserve	-10.9547
▁Chris	-10.9549
▁behalf	-10.9549
▁300	-10.955
▁Sch	-10.955
ita	-10.9553
cl	-10.9556
▁OR	-10.9556
▁है	-10.9558
▁relate	-10.9559
▁जग	-10.956
▁improving	-10.956
▁जमिन	-10.9563
▁conducted	-10.9564
▁drawn	-10.9566
▁विधि	-10.9568
▁Too	-10.9569
▁चन्द	-10.9569
▁correctly	-10.9577
non	-10.9581
▁engagement	-10.9582
ony	-10.9583
▁Ch	-10.9583
▁fool	-10.9584
mal	-10.9588
▁define	-10.9588
वास	-10.9589
ators	-10.959
▁import	-10.9591
▁डो	-10.9591
▁आगो	-10.9592
▁wishes	-10.9595
▁नर	-10.9595
▁nose	-10.9598
पे	-10.9599
ँदा	-10.9603
ट्ट	-10.9605
द्	-10.9608
▁मिनेटमा	-10.9608
यता	-10.961
▁Jan	-10.9612
▁समुदाय	-10.9614
MA	-10.9614
▁ya	-10.9615
▁heading	-10.9616
▁मैदानमा	-10.9619
▁guidelines	-10.9619
▁strip	-10.962
▁pure	-10.962
▁Lake	-10.9623
▁रेकर्ड	-10.9625
▁expand	-10.963
▁strike	-10.9631
▁Chi	-10.9631
▁moon	-10.9632
32	-10.9633
▁scar	-10.9633
TA	-10.9634
▁पुगेर	-10.9635
▁relation	-10.9636
▁बसेका	-10.964
▁difficulty	-10.9641
▁सहयोगमा	-10.9642
▁remained	-10.9644
ates	-10.9644
▁lol	-10.9648
▁देखिएका	-10.9649
▁chances	-10.965
CA	-10.9651
▁outstanding	-10.9652
▁shipping	-10.9655
ination	-10.9657
▁absolute	-10.9657
af	-10.9658
▁mistakes	-10.966
▁laughed	-10.9665
▁कन्	-10.9666
▁टे	-10.9667
न्द्र	-10.9673
▁आफैं	-10.9675
▁furniture	-10.9676
▁Grand	-10.9676
▁स्क	-10.9678
▁स्वस्थ	-10.9679
▁पीडा	-10.9688
▁Bay	-10.969
▁ignore	-10.9691
▁Using	-10.9692
▁मोदी	-10.9692
▁भत्ता	-10.9695
▁प्रवाह	-10.9695
▁lo	-10.97
वै	-10.9704
▁sleeping	-10.9704
table	-10.9704
▁colleagues	-10.9706
▁1:	-10.9706
▁hosting	-10.9706
▁Gi	-10.9707
▁भन्सार	-10.9708
▁native	-10.9709
dle	-10.9709
▁(2	-10.971
▁repeat	-10.9711
▁सिक	-10.9717
▁छान	-10.9721
▁enhance	-10.9722
▁limits	-10.9722
▁borrow	-10.9722
▁लुक	-10.9723
▁Change	-10.9724
मार्ग	-10.9726
▁split	-10.9728
▁granted	-10.9728
▁निवेदन	-10.973
▁पेट	-10.9733
US	-10.9736
▁MA	-10.9736
▁मौका	-10.9739
३०	-10.974
▁rep	-10.974
याउने	-10.9741
▁trigger	-10.9741
▁·	-10.9744
▁formula	-10.9745
▁दिवसको	-10.9746
▁bra	-10.9747
▁Ken	-10.9749
▁iPhone	-10.975
▁alarm	-10.975
▁तुलनामा	-10.9751
प्रा	-10.9754
▁Head	-10.9755
▁बोल्दै	-10.976
▁flavor	-10.9762
▁डाउनलोड	-10.9762
▁refuse	-10.9763
ender	-10.9764
▁सुन्न	-10.9764
▁छनौट	-10.9765
▁सके	-10.9767
lea	-10.9768
▁म्याद	-10.9769
▁एप	-10.9772
▁सदस्यीय	-10.9777
▁अलि	-10.9777
▁ti	-10.9777
▁cor	-10.9778
▁upcoming	-10.9778
▁Ab	-10.9783
▁देखा	-10.9784
▁जसमा	-10.9786
▁signal	-10.9788
hor	-10.9789
▁Hotel	-10.9792
▁पर्दछ	-10.9792
▁पर्दैन	-10.9795
▁channel	-10.9795
▁dust	-10.9795
▁तरिका	-10.9797
▁देखिने	-10.9798
▁एयर	-10.9798
उन	-10.98
ji	-10.9801
▁inches	-10.9801
▁yellow	-10.9802
▁depression	-10.9803
▁अर्थात	-10.9803
▁जिम्मेवार	-10.9803
▁scheduled	-10.9803
▁submitted	-10.9804
▁employer	-10.9805
▁ancient	-10.9805
▁Spirit	-10.9805
▁awful	-10.9806
▁fr	-10.9806
▁minister	-10.9809
▁organized	-10.9812
▁proposal	-10.9813
ड्	-10.9813
▁association	-10.9813
▁शो	-10.9815
ार्थ	-10.9816
▁capture	-10.9817
36	-10.9818
▁Review	-10.9821
▁३६	-10.9822
▁प्रसाद	-10.9823
▁attached	-10.9825
▁तनाव	-10.9825
▁मासु	-10.9829
याउन	-10.9829
▁invite	-10.9832
▁succeed	-10.9836
▁सुनसरी	-10.9837
berg	-10.9846
▁stronger	-10.9847
ev	-10.985
▁समृद्धिको	-10.9853
48	-10.9856
▁Doctor	-10.9856
▁बताउनुभएको	-10.9859
▁unusual	-10.9861
▁exp	-10.9862
▁अलग	-10.9865
▁obtained	-10.9866
▁सालको	-10.9867
ियन	-10.9867
▁magazine	-10.9869
▁entitled	-10.9869
▁emails	-10.9869
▁विविध	-10.987
रको	-10.987
▁Mother	-10.9873
hal	-10.9875
▁reduction	-10.9876
▁Japanese	-10.9877
▁Policy	-10.9877
▁अधिवेशन	-10.9877
▁apple	-10.9879
१२	-10.9879
▁अष्ट्रेलिया	-10.9881
▁sake	-10.9881
▁silent	-10.9882
▁league	-10.9886
ense	-10.9887
rain	-10.9887
▁solar	-10.9888
▁तपाईँको	-10.9888
▁proceed	-10.989
▁Enjoy	-10.9893
ches	-10.9894
▁admitted	-10.9897
▁covers	-10.9897
▁भट्टराईले	-10.9898
ature	-10.9898
▁Nor	-10.9899
▁gate	-10.9899
गरी	-10.9901
▁समृद्ध	-10.9902
▁Harry	-10.9903
bble	-10.9905
▁जसको	-10.9909
▁hanging	-10.9914
holder	-10.9914
▁Cas	-10.9915
▁समानुपातिक	-10.9916
▁गण्डकी	-10.9917
▁successfully	-10.9918
▁शक्तिशाली	-10.9923
bal	-10.9924
▁confused	-10.9925
ट्	-10.9926
▁आचार्य	-10.9927
▁finger	-10.993
▁रुचि	-10.9931
til	-10.9934
▁Senate	-10.9935
▁deeply	-10.9935
▁gu	-10.9935
▁धादिङ	-10.9936
▁eligible	-10.9937
▁lips	-10.9938
sur	-10.9938
।”	-10.9939
▁झु	-10.9939
▁mixed	-10.994
▁appreciated	-10.9942
▁नाका	-10.9944
oh	-10.9944
▁मन्त्रालयको	-10.9946
▁Blog	-10.9947
▁सार	-10.9947
▁जनशक्ति	-10.995
▁बस्दै	-10.9953
▁outdoor	-10.9953
▁healthcare	-10.9953
▁आजदेखि	-10.9956
्ती	-10.9957
▁चरण	-10.9958
▁lately	-10.996
▁फु	-10.9962
▁shake	-10.9962
gy	-10.9963
▁स्टार	-10.9964
▁Sir	-10.9965
▁अभिभावक	-10.9966
4.	-10.9966
प्रधानमन्त्री	-10.9968
▁golf	-10.9969
▁outcome	-10.997
▁ocean	-10.9971
▁organisation	-10.9973
▁पाल	-10.9973
शु	-10.9975
▁estimated	-10.9975
▁विज्ञापनको	-10.9977
TER	-10.9978
▁तारिख	-10.998
▁महानगर	-10.998
▁Frank	-10.9981
▁स्वदेश	-10.9985
they	-10.9987
▁Instagram	-10.9987
▁honestly	-10.999
rie	-10.999
करण	-10.9992
▁Chicago	-10.9994
▁lift	-11.0003
▁गणेश	-11.0004
▁researchers	-11.0005
▁authors	-11.0005
एमाले	-11.0006
१५	-11.0009
new	-11.001
▁telephone	-11.0012
▁finance	-11.0013
39	-11.0014
▁जनसंख्या	-11.0014
▁county	-11.0018
▁वर्षसम्म	-11.0018
न्ज	-11.0018
▁technique	-11.0018
▁2018.	-11.0019
▁पत्रकारिता	-11.0021
▁Music	-11.0026
▁zero	-11.0027
▁painting	-11.0027
▁ba	-11.0028
▁engineering	-11.0029
▁Actually	-11.0032
▁headed	-11.0032
▁1)	-11.0032
bed	-11.0034
७५	-11.0036
▁promised	-11.0038
who	-11.004
Now	-11.0041
▁मङ्सिर	-11.0042
▁recipes	-11.0043
ठी	-11.0043
▁Bur	-11.0044
▁priority	-11.005
▁मानसिक	-11.0051
▁प्या	-11.0053
its	-11.0055
▁ठीक	-11.0057
▁judgment	-11.0057
try	-11.0058
▁Question	-11.0058
ik	-11.0059
▁dollar	-11.0062
▁गन्तव्य	-11.0063
योग	-11.0064
▁Institute	-11.0069
night	-11.0072
▁Mal	-11.0074
▁ME	-11.0074
▁dynamic	-11.0076
▁नियुक्ति	-11.0078
▁Insurance	-11.0079
LA	-11.0083
▁कम्प्युटर	-11.0084
▁provisions	-11.0085
▁पुँजी	-11.0089
▁ads	-11.0092
▁पर्याप्त	-11.0092
wel	-11.0093
▁rising	-11.0095
49	-11.0095
▁उपेन्द्र	-11.0096
iff	-11.0098
▁originally	-11.0098
▁acts	-11.0098
▁Global	-11.0102
टमा	-11.0103
▁classroom	-11.0105
▁Adam	-11.0105
▁जम	-11.0106
ाउदै	-11.0106
▁bird	-11.0109
▁दर्शक	-11.011
▁तोकिएको	-11.0112
▁studying	-11.0116
IM	-11.0117
▁holidays	-11.0117
▁2)	-11.0118
▁promotion	-11.0118
take	-11.0119
▁supplies	-11.012
▁ro	-11.012
-5	-11.0121
▁expressed	-11.0122
▁Hill	-11.0124
▁giant	-11.0128
▁नजिकै	-11.0131
▁organic	-11.0132
▁Pu	-11.0133
▁करोडको	-11.0133
▁Mc	-11.0136
▁आएपछि	-11.014
▁महिलाले	-11.0141
▁प्रतिशतले	-11.0143
▁तिहार	-11.0143
▁resort	-11.0143
▁mirror	-11.0145
▁व्यवस्थित	-11.0145
▁नुवाकोट	-11.0146
▁Place	-11.0146
▁नाटक	-11.0146
▁exam	-11.015
▁Sure	-11.0151
▁boil	-11.0152
▁बै	-11.0155
▁patterns	-11.0156
▁demonstrate	-11.0157
▁सन्दीप	-11.016
▁fiction	-11.016
▁grace	-11.016
▁संविधानको	-11.0161
▁spin	-11.0162
▁पुराना	-11.0163
▁forgotten	-11.0163
द्र	-11.0167
▁pregnant	-11.0168
class	-11.0169
▁objects	-11.0171
▁increasingly	-11.0174
षा	-11.0179
▁Land	-11.0179
घर	-11.0181
▁wa	-11.0183
▁cookies	-11.0185
▁Page	-11.0187
▁settle	-11.0191
ied	-11.0191
▁strategic	-11.0194
▁परिषद्	-11.0196
▁continuing	-11.0198
▁su	-11.0199
ल्ट	-11.0199
द्धारा	-11.0202
▁राजस्व	-11.0202
गी	-11.0204
सम्पादन	-11.0204
▁owned	-11.0204
▁खर्ब	-11.0205
▁रमेश	-11.0205
▁gym	-11.0206
▁Holy	-11.0208
▁Mexico	-11.0211
▁बीचमा	-11.0212
▁accessible	-11.0213
▁एकीकरण	-11.0213
▁System	-11.0215
▁बने	-11.0217
▁achieved	-11.0218
▁लेख्ने	-11.0219
▁निर्माता	-11.0221
▁silver	-11.0222
ोट	-11.0225
▁LA	-11.0226
▁era	-11.0228
▁केन्द्रको	-11.0228
▁पुस्ता	-11.0229
▁उनीहरूको	-11.023
▁react	-11.0233
▁LOVE	-11.0234
▁launched	-11.0235
▁enterprise	-11.0235
RO	-11.0235
▁जनाले	-11.0236
▁attractive	-11.0236
▁सहायक	-11.0237
▁नक्कली	-11.0241
▁YouTube	-11.0241
▁spell	-11.0244
▁Cons	-11.0245
▁dates	-11.0247
▁मन्त्रिपरिषद्	-11.0248
▁Smith	-11.0249
▁प्रकरण	-11.0252
▁stretch	-11.0253
▁quit	-11.0255
▁खोटाङ	-11.0255
▁मकवानपुर	-11.0256
▁clock	-11.026
cess	-11.0261
▁बदल	-11.0263
▁भनि	-11.0263
tes	-11.0264
▁नया	-11.0264
▁उनीहरुलाई	-11.0265
▁उद्देश्यले	-11.0267
▁provision	-11.027
▁छाप	-11.0271
▁Middle	-11.0273
▁समयदेखि	-11.0274
▁मल	-11.0277
ail	-11.0278
▁juice	-11.0278
▁विष्णु	-11.0278
▁नरेन्द्र	-11.0281
lar	-11.0281
▁प्रधानमन्त्रीले	-11.0283
▁crucial	-11.0285
▁prayer	-11.0285
▁न्यायाधीश	-11.0287
▁सन्तान	-11.0287
▁introduce	-11.0288
▁holds	-11.0289
▁मार	-11.0291
▁enforcement	-11.0291
बारी	-11.0293
▁हिसाबले	-11.0293
▁components	-11.0295
▁तर्क	-11.0297
▁थोरै	-11.0299
▁retirement	-11.0299
▁pursue	-11.0301
▁Always	-11.0302
पर्	-11.0304
▁व्यस्त	-11.0305
▁claimed	-11.0307
▁dining	-11.0308
▁अंग	-11.031
▁संसद्	-11.0311
▁adopt	-11.0313
TH	-11.0313
भित्रै	-11.0314
acy	-11.0318
▁सफा	-11.032
▁mainly	-11.032
▁सरल	-11.0321
▁मानिसको	-11.0326
▁सप्तरी	-11.0326
▁धनी	-11.0326
▁कार्ड	-11.0328
▁जय	-11.0332
बासी	-11.0332
▁पाठ	-11.0337
क्त	-11.0339
▁वर्षका	-11.034
▁सङ्घ	-11.034
matic	-11.0341
▁विधा	-11.0343
▁कदम	-11.0343
च्छ	-11.0345
dent	-11.0346
▁Richard	-11.0347
▁कसैलाई	-11.0349
पाल	-11.0352
east	-11.0352
▁driven	-11.0354
▁brush	-11.0355
▁«	-11.0355
TM	-11.0356
▁न्यूज	-11.0362
▁Brown	-11.0362
▁replaced	-11.0363
▁transportation	-11.0364
NS	-11.0365
▁landscape	-11.0365
isation	-11.0366
▁shadow	-11.0367
▁suggests	-11.0369
▁आउनु	-11.0369
▁दावी	-11.0371
▁शीर्षकहरु	-11.0373
UR	-11.0376
▁Wa	-11.0378
▁relating	-11.038
zz	-11.0382
▁behaviour	-11.0383
▁Fire	-11.0384
▁१००	-11.0385
▁सकिएको	-11.0388
ेली	-11.0388
▁rear	-11.0391
▁sudden	-11.0391
▁राजनीतिमा	-11.0391
▁सुत	-11.0392
▁slip	-11.0393
हामी	-11.0397
▁Va	-11.0398
▁remote	-11.0401
▁दुरुपयोग	-11.0405
▁shots	-11.0405
▁चिया	-11.0408
▁नभएर	-11.0409
ENT	-11.0409
▁स्प	-11.041
▁upload	-11.041
hour	-11.041
▁Wall	-11.0411
▁Posted	-11.0413
ending	-11.0414
▁Ke	-11.0414
▁३८	-11.0416
▁qualified	-11.0416
▁जोशी	-11.0418
▁पाइएको	-11.0419
ET	-11.0419
▁Iraq	-11.042
nor	-11.0422
▁grave	-11.0424
▁पाइ	-11.0427
▁District	-11.0429
▁goods	-11.043
word	-11.0431
test	-11.0432
▁collected	-11.0433
43	-11.0436
▁encouraged	-11.0438
▁कार्यकाल	-11.044
ls	-11.0442
tom	-11.0442
▁दोषी	-11.0443
lly	-11.0443
▁परिषद	-11.0444
▁relax	-11.0444
▁strongly	-11.0444
▁केन्द्रले	-11.0445
▁scientists	-11.0449
▁intend	-11.045
▁winner	-11.045
▁potentially	-11.045
mmer	-11.0451
▁exists	-11.0454
▁confirmed	-11.0455
▁stamp	-11.0456
nel	-11.0457
cul	-11.0461
php	-11.0462
▁objective	-11.0464
▁बिच	-11.0465
▁लामिछाने	-11.0466
न्दा	-11.0467
▁physician	-11.0467
34	-11.0468
ush	-11.0468
▁ठान	-11.0468
▁व्यक्तिले	-11.0469
शील	-11.0469
स्थ	-11.0471
▁युएई	-11.0471
▁suffered	-11.0474
	-11.0474
stone	-11.0475
▁barely	-11.0483
▁traveling	-11.0486
▁destroy	-11.0489
▁edition	-11.049
▁मधेशी	-11.049
▁lake	-11.0495
key	-11.0495
▁concert	-11.0496
▁shares	-11.0497
▁भट्ट	-11.0499
▁intelligent	-11.05
िनी	-11.0501
ening	-11.0502
▁सिद्धान्त	-11.0502
▁carbon	-11.0503
▁personality	-11.0504
▁subjects	-11.0505
ched	-11.0505
▁बी	-11.0507
▁extension	-11.0507
▁तेल	-11.0512
▁Thus	-11.0514
रले	-11.0521
▁specified	-11.0522
▁filed	-11.0522
▁टाढा	-11.0524
▁2,	-11.0524
▁clinical	-11.0525
▁पर्दा	-11.0527
▁भुक्तानी	-11.0531
▁पछाडि	-11.0532
▁yard	-11.0534
वासी	-11.0535
▁द्वन्द्व	-11.0542
▁राखे	-11.0544
▁ठगी	-11.0546
▁2004	-11.0547
▁bags	-11.0547
▁tape	-11.0548
▁नवलपरासी	-11.055
thing	-11.055
▁accomplish	-11.0551
▁गायिका	-11.0551
▁विधान	-11.0553
65	-11.0557
▁End	-11.0558
▁मदन	-11.0558
▁सूची	-11.056
▁ladies	-11.0561
▁shook	-11.0563
▁DE	-11.0563
▁Boy	-11.0564
▁habit	-11.0569
▁sing	-11.0571
▁beneficial	-11.0573
▁exception	-11.0574
▁निर्वाह	-11.0578
▁भेटघाट	-11.0581
▁emotions	-11.0588
▁ढंगले	-11.059
्थ्यो	-11.0594
लले	-11.0594
ov	-11.0595
▁Ste	-11.0595
OL	-11.0596
▁2:	-11.0597
95	-11.0598
▁anger	-11.06
IP	-11.0605
▁Te	-11.0606
भाग	-11.0606
▁भएमा	-11.0607
▁शि	-11.0608
▁criteria	-11.0611
▁pushed	-11.0612
47	-11.0614
pp	-11.0615
▁ग्यास	-11.0616
self	-11.0617
▁struck	-11.0618
▁Road	-11.0621
▁deck	-11.0622
▁वर्षे	-11.0622
▁qua	-11.0623
lk	-11.0627
▁Society	-11.0628
post	-11.0629
▁pride	-11.0632
▁नदिने	-11.0633
▁सर्	-11.0635
▁Customer	-11.0636
▁महिलालाई	-11.0636
▁अल	-11.0636
ular	-11.0638
▁कस	-11.0638
▁Continue	-11.0641
▁Something	-11.0642
▁powers	-11.0642
▁Win	-11.0642
▁pump	-11.0643
▁institution	-11.0643
▁elected	-11.0644
ency	-11.0646
▁Ah	-11.0646
▁Ver	-11.0647
▁Republican	-11.0647
▁ID	-11.0652
कृत	-11.0653
स्था	-11.0654
▁ज्ञानेन्द्र	-11.0655
used	-11.0659
▁कर्मचारीको	-11.066
rin	-11.0663
▁समीक्षा	-11.0663
▁stomach	-11.0664
shi	-11.0664
▁चाह	-11.0664
▁देखाएको	-11.0666
▁instant	-11.0667
▁शिखर	-11.067
रासस	-11.0672
▁बित	-11.0674
▁६५	-11.0676
देव	-11.0679
▁disc	-11.068
▁कामको	-11.0681
▁बढ्दो	-11.0682
▁rarely	-11.0685
▁muscle	-11.0686
▁Alex	-11.0689
▁childhood	-11.069
▁Fe	-11.0693
▁Turn	-11.0693
मेल	-11.0693
▁mg	-11.0694
रत	-11.0696
थी	-11.0697
▁रुस	-11.0698
▁अथवा	-11.0698
▁privilege	-11.0699
▁returns	-11.0706
▁tested	-11.0707
▁Roman	-11.0709
▁Order	-11.071
▁आत्म	-11.0711
▁बचत	-11.0712
lie	-11.0715
▁efficiency	-11.0716
ju	-11.0716
▁calendar	-11.0717
▁लेख्न	-11.0722
▁desired	-11.0722
▁wisdom	-11.0722
रहेको	-11.0724
▁weigh	-11.0725
▁replacement	-11.0726
खे	-11.0731
▁sustainable	-11.0731
▁mile	-11.0732
▁Catholic	-11.0732
▁Martin	-11.0734
▁nearby	-11.0734
्ड	-11.0735
▁ग्रहण	-11.0736
▁evaluation	-11.0737
▁bond	-11.0738
▁courage	-11.0739
37	-11.0743
▁bills	-11.0745
▁clue	-11.0747
▁नगर्न	-11.0747
▁Contact	-11.0748
▁dev	-11.0748
ou	-11.0749
▁View	-11.0751
▁films	-11.0754
▁कुराहरु	-11.0754
TS	-11.0754
▁मानिन्छ	-11.0756
▁faces	-11.0759
▁adapt	-11.076
▁lit	-11.0761
वाह	-11.0762
▁गल्ती	-11.0764
▁west	-11.0764
ुन	-11.0771
▁pepper	-11.0774
▁managing	-11.0774
मूलक	-11.0777
cho	-11.0778
ook	-11.0779
▁नेप्से	-11.0779
▁रंग	-11.078
▁struggling	-11.0783
there	-11.0785
चन	-11.0786
▁cable	-11.0788
▁birds	-11.0789
▁Dar	-11.079
38	-11.0792
▁soldiers	-11.0792
▁मुक्त	-11.0792
▁Jane	-11.0793
▁Buy	-11.0793
▁Bob	-11.0797
▁लागिएको	-11.0797
▁fucking	-11.0798
▁fitness	-11.0801
▁declared	-11.0802
परे	-11.0805
AS	-11.0805
▁स्थगित	-11.0809
body	-11.081
▁जनजाति	-11.0811
▁मजदुर	-11.082
▁Max	-11.082
▁आउँदै	-11.082
▁फिल्ममा	-11.0824
▁भन्यो	-11.0824
▁passage	-11.0825
▁माधव	-11.0826
क्रम	-11.0831
▁ढकाल	-11.0832
including	-11.0833
oon	-11.0833
▁नियमावली	-11.0834
▁:-	-11.0835
made	-11.0837
▁भारतका	-11.0838
dra	-11.0838
▁networks	-11.0845
BS	-11.0845
▁professor	-11.0848
▁कार्यालयको	-11.0849
▁newspaper	-11.0852
▁possession	-11.0854
▁बताउनु	-11.0857
▁बिजुली	-11.0859
nu	-11.0861
Let	-11.0866
level	-11.0867
▁यसैगरी	-11.0868
▁disagree	-11.0869
▁arrival	-11.0869
▁देखियो	-11.0869
▁regional	-11.087
▁ON	-11.0871
▁sensitive	-11.0872
TION	-11.0874
▁closing	-11.0875
illa	-11.0876
▁adopted	-11.0879
▁raising	-11.088
▁healing	-11.0882
where	-11.0883
▁भूमि	-11.0884
▁ju	-11.0886
▁निस्क	-11.0888
▁regime	-11.089
▁wire	-11.089
▁क्र	-11.0891
▁comic	-11.0891
▁wheel	-11.0892
▁महेन्द्र	-11.0893
▁अभियानमा	-11.0895
▁पहाड	-11.0896
▁एल	-11.0898
▁ः	-11.09
41	-11.0902
▁observed	-11.0905
▁अन्तराष्ट्रिय	-11.0906
▁बुँदे	-11.0919
▁गोपाल	-11.092
▁forgot	-11.092
▁अबको	-11.0922
▁absence	-11.0924
VE	-11.0925
▁]	-11.0925
▁Mer	-11.0927
▁grass	-11.0927
▁Put	-11.0927
NG	-11.0928
▁परम्परा	-11.0934
▁discipline	-11.0935
▁innovative	-11.0936
▁lifetime	-11.0936
▁दिन्छ	-11.094
▁increases	-11.0941
CC	-11.0941
▁shock	-11.0941
▁मासिक	-11.0945
▁spare	-11.0948
▁Set	-11.095
▁Trust	-11.0954
▁परिवारको	-11.096
▁Provide	-11.0964
▁Com	-11.0966
▁कमेन्ट	-11.0969
▁पन्त	-11.0972
▁पशु	-11.0973
▁Ten	-11.0975
▁$4	-11.0976
▁समयमै	-11.0979
▁पृथ्वी	-11.098
▁जसरी	-11.0981
▁belong	-11.0981
▁Fund	-11.0984
▁formed	-11.0985
▁अभिव्यक्ति	-11.0985
▁निरन्तरता	-11.0985
ced	-11.0986
▁sheet	-11.0989
▁हान	-11.099
▁लोकप्रिय	-11.099
▁swimming	-11.099
▁सुपर	-11.099
▁जनाइएको	-11.0995
▁Ac	-11.1001
▁brands	-11.1001
दिने	-11.1005
▁खोल	-11.1007
▁explains	-11.1008
▁fabulous	-11.1009
ाका	-11.101
▁५१	-11.1012
▁elsewhere	-11.1012
▁hip	-11.1018
▁ताजा	-11.1018
▁export	-11.1019
▁ते	-11.102
वत	-11.102
ल्य	-11.1021
tric	-11.1022
pass	-11.1023
▁घटनामा	-11.1024
▁भनिन्छ	-11.1024
ara	-11.1026
▁महिलाहरु	-11.103
▁babies	-11.1031
▁CD	-11.1031
भरि	-11.1035
▁relative	-11.1037
▁प्राधिकरण	-11.1038
▁भन्छ	-11.1038
ked	-11.104
▁धारा	-11.104
▁सङ्ख्या	-11.1041
धान	-11.1042
▁परिस्थिति	-11.1043
▁thankful	-11.1048
py	-11.1051
▁पठाउने	-11.1052
▁accommodation	-11.1055
ctor	-11.1056
▁tap	-11.1056
बेला	-11.1056
amp	-11.1059
▁श्रीमान	-11.1059
▁bull	-11.106
▁त्रि	-11.1061
making	-11.1061
▁jail	-11.1063
pir	-11.1065
ेशन	-11.107
ii	-11.1072
▁सदस्यहरु	-11.1074
१६	-11.1076
ATION	-11.1077
▁pilot	-11.1077
▁लागे	-11.1078
▁वैज्ञानिक	-11.108
▁Gen	-11.1081
▁Talk	-11.1082
▁convinced	-11.1083
▁भाद्र	-11.1086
▁jo	-11.1087
▁chemical	-11.1089
▁पोखरेलले	-11.1089
▁steel	-11.109
▁ट्या	-11.109
tle	-11.1096
▁scratch	-11.1097
▁dare	-11.1099
▁Technology	-11.11
▁मर्मत	-11.1101
क्ट	-11.1102
▁दर्शन	-11.1102
▁compensation	-11.1103
▁requirement	-11.1103
▁४४	-11.1103
▁sur	-11.1106
▁examine	-11.1108
▁returning	-11.111
▁regards	-11.111
▁९८	-11.111
▁Chapter	-11.111
away	-11.1113
▁participation	-11.1117
▁witness	-11.1117
▁consultation	-11.1117
▁wash	-11.1117
▁performing	-11.1118
खोला	-11.1118
▁bug	-11.112
▁कार्यक्रमका	-11.1121
els	-11.1125
नका	-11.1126
▁गराएका	-11.1126
▁टुंगो	-11.1128
ञ्च	-11.1129
▁assault	-11.113
▁divorce	-11.1132
▁rough	-11.1133
▁राणा	-11.1133
▁unknown	-11.1133
EL	-11.1133
▁उपलब्धि	-11.1134
▁एकताको	-11.1136
duc	-11.1137
▁venue	-11.114
ered	-11.1141
▁categories	-11.1141
▁violation	-11.1143
▁blend	-11.1143
▁प्रो	-11.1147
SS	-11.1147
चर	-11.1148
▁pal	-11.1148
▁pregnancy	-11.1149
42	-11.115
▁Share	-11.1153
घा	-11.1156
▁खेलको	-11.1158
▁भर्खरै	-11.1158
▁strengthen	-11.116
▁venture	-11.116
▁स्वीकृति	-11.1161
▁प्रतिबन्ध	-11.1161
▁आइपुग	-11.1162
▁ridiculous	-11.1163
▁dying	-11.1166
date	-11.1166
dom	-11.1167
▁उसलाई	-11.117
▁गीतमा	-11.1171
▁कप्तान	-11.1172
win	-11.1173
▁अंश	-11.1175
▁communications	-11.1176
▁विमानस्थलमा	-11.1177
▁weekly	-11.1179
▁Visit	-11.118
▁advise	-11.118
▁Beach	-11.118
▁preparing	-11.1182
▁चिसो	-11.1183
▁Australian	-11.1185
▁Press	-11.1185
▁visible	-11.1185
▁नष्ट	-11.1186
▁मल्ल	-11.1189
▁लिइ	-11.1189
▁हतियार	-11.1192
▁boxes	-11.1194
▁सचेत	-11.1195
▁fishing	-11.1196
▁dish	-11.1196
▁अनेक	-11.1197
▁मतगणना	-11.1198
▁मोहन	-11.1198
▁साम	-11.1199
▁आयोगका	-11.12
▁अभिनेता	-11.1202
▁राउत	-11.1204
▁मृत	-11.1204
▁9.	-11.1205
▁संवैधानिक	-11.1206
▁मोडल	-11.1207
▁निकट	-11.1208
▁स्तर	-11.1208
▁हरु	-11.1209
▁slide	-11.1212
डर	-11.1213
▁attended	-11.1213
▁dose	-11.1214
▁48	-11.1214
▁mon	-11.1215
RI	-11.1217
▁कृषक	-11.122
pon	-11.122
▁relations	-11.1221
▁alert	-11.1221
▁व्यक्तिलाई	-11.1223
▁hopes	-11.1224
▁eager	-11.1224
▁रहेर	-11.1226
▁Angeles	-11.1227
▁precious	-11.1228
▁equivalent	-11.1231
▁riding	-11.1232
▁deeper	-11.1234
▁दियो	-11.1235
ाइन	-11.1237
▁drinks	-11.1238
▁पी	-11.1239
▁museum	-11.124
▁interact	-11.124
▁बनाइ	-11.1242
▁machines	-11.1243
▁परिवारका	-11.1243
page	-11.1246
▁festival	-11.1247
▁Card	-11.1247
▁३७	-11.1248
लग	-11.125
▁Auto	-11.1252
▁रह	-11.1254
▁Night	-11.1257
tive	-11.1257
▁युग	-11.1257
▁knock	-11.1258
▁Trans	-11.126
tru	-11.1264
▁चाहे	-11.1265
▁painful	-11.1266
▁contribution	-11.127
▁picking	-11.1271
▁Pay	-11.1275
tel	-11.1276
▁वर्षभित्र	-11.1276
▁आत्महत्या	-11.1277
▁यहाँको	-11.1278
▁खस	-11.128
▁involves	-11.128
▁देखाउन	-11.1281
▁उता	-11.1282
▁लागु	-11.1282
▁largely	-11.1283
iti	-11.1283
star	-11.1285
74	-11.1289
▁वीर	-11.1289
▁ठहर	-11.129
Pa	-11.129
▁east	-11.1291
▁nations	-11.1293
▁principle	-11.1294
भु	-11.1295
▁requests	-11.1296
▁consult	-11.1298
▁assess	-11.1298
46	-11.1299
▁बनाइएको	-11.1301
▁प्रावधान	-11.1302
▁स्वीकृत	-11.1303
िनु	-11.1303
ching	-11.1305
िको	-11.1305
▁Join	-11.1305
▁minds	-11.1307
▁arts	-11.1307
▁बिभिन्न	-11.1314
▁तहका	-11.1314
▁कार्यपालिकाको	-11.1318
▁तालिका	-11.1319
ivity	-11.132
▁Foundation	-11.1326
▁Dad	-11.1326
▁asks	-11.1327
▁हुनेछन्	-11.133
▁alter	-11.133
▁उमेरमा	-11.1331
▁eggs	-11.1331
▁Feel	-11.1333
▁widely	-11.1334
ाइरहेका	-11.1336
▁Nice	-11.1337
▁cu	-11.1337
▁२०१६	-11.1337
▁liability	-11.1341
uch	-11.1342
▁exposed	-11.1342
▁Week	-11.1346
▁गुरुङले	-11.1349
▁३४	-11.1351
▁managers	-11.1353
▁दमक	-11.1353
▁duties	-11.1355
▁पुर	-11.1355
▁entrance	-11.1356
rated	-11.1356
▁convert	-11.1359
▁Stay	-11.136
56	-11.1362
ups	-11.1364
▁ears	-11.1365
▁हटाउन	-11.1365
▁casual	-11.1367
▁प्रकृति	-11.1371
▁ni	-11.1373
▁खोजेको	-11.1374
ope	-11.1377
लमा	-11.1379
known	-11.1381
title	-11.1382
▁reaching	-11.1383
quality	-11.1386
Pro	-11.1386
▁एण्ड	-11.1389
▁injured	-11.139
▁Asia	-11.1391
▁Comment	-11.1392
▁equally	-11.1394
▁chronic	-11.1394
▁division	-11.1395
▁रेखा	-11.1396
िसकेको	-11.1396
▁प्रधानन्यायाधीश	-11.1397
66	-11.1397
▁राजधानीमा	-11.1401
▁MO	-11.1402
IR	-11.1402
▁४१	-11.1404
▁ट्रक	-11.1406
▁हेरिएको	-11.1407
▁Britain	-11.1408
▁सलमान	-11.1408
▁vary	-11.141
rick	-11.1411
▁upset	-11.1413
▁पारेर	-11.1413
ace	-11.1414
▁ordinary	-11.1415
▁satisfaction	-11.1416
spect	-11.1417
कम	-11.1418
▁केवल	-11.1418
CE	-11.1418
▁Say	-11.1419
▁bonus	-11.1421
▁यसबाट	-11.1421
▁Anyone	-11.1422
▁समायोजन	-11.1422
▁settled	-11.1423
ीलाई	-11.1423
▁passionate	-11.1424
▁Gold	-11.1426
गि	-11.1427
▁प्रारम्भिक	-11.1432
▁compliance	-11.1434
▁४२	-11.1435
▁weapon	-11.1435
▁कट	-11.1436
दैन	-11.1443
उप	-11.1444
▁inner	-11.1446
▁List	-11.1447
▁अर्	-11.1448
▁framework	-11.1448
▁Class	-11.1448
▁principal	-11.1449
gent	-11.1451
▁commit	-11.1452
▁talks	-11.1452
▁फैल	-11.1453
▁diverse	-11.1454
र्प	-11.1454
▁घटनाको	-11.1455
▁Control	-11.1455
▁combat	-11.1458
▁व्यापारी	-11.1458
▁arrested	-11.1458
▁//	-11.146
▁विश्वका	-11.146
▁conservative	-11.1461
▁opposed	-11.1461
▁उपमहानगरपालिका	-11.1461
ulation	-11.1461
सक्ने	-11.1463
▁सर्वाधिक	-11.1463
▁अरब	-11.1464
▁हजुर	-11.1465
▁consumption	-11.1466
▁Spanish	-11.1466
▁खाद्य	-11.1467
rr	-11.1471
▁intense	-11.1471
▁believes	-11.1471
▁संघले	-11.1472
कालीन	-11.1472
▁Support	-11.1473
▁नी	-11.1475
▁unexpected	-11.1476
जन्य	-11.1477
▁shops	-11.148
▁Scott	-11.1481
▁thirty	-11.1489
▁template	-11.149
iz	-11.1491
▁बैङ्क	-11.1495
▁चीनले	-11.1495
▁नागरिकको	-11.1496
▁चौकी	-11.15
▁urban	-11.1501
▁युनियन	-11.1502
▁introduction	-11.1504
▁circle	-11.1506
▁गरिए	-11.1507
▁लाखको	-11.1508
▁कर्म	-11.151
▁trends	-11.1512
▁Full	-11.1515
म्बर	-11.1515
यन	-11.1515
▁thinks	-11.1516
▁काठमाडौंको	-11.1517
del	-11.1519
An	-11.1519
▁खुट्टा	-11.1519
▁layer	-11.152
AD	-11.1521
▁raw	-11.1523
हरूका	-11.1526
▁worldwide	-11.1528
▁vegetables	-11.153
eth	-11.1531
▁insight	-11.1531
▁पुष्टि	-11.1533
▁addressed	-11.1533
▁Secretary	-11.1535
▁pla	-11.1535
▁tutorial	-11.1536
▁बाँध	-11.1536
▁Fair	-11.1536
mission	-11.1538
??	-11.1538
chan	-11.1539
▁2017.	-11.154
▁प्रतिनिधित्व	-11.1543
▁monitoring	-11.1545
any	-11.1545
▁उपरीक्षक	-11.1546
tis	-11.1547
िना	-11.155
▁छुट्टै	-11.1553
mark	-11.1554
▁marked	-11.1556
▁मित्र	-11.1556
ोल	-11.1556
▁Besides	-11.1557
▁photograph	-11.1558
▁नगरेको	-11.1558
▁PS	-11.1558
▁electricity	-11.1559
▁कठिन	-11.1562
▁fallen	-11.1562
coming	-11.1563
▁आकाश	-11.1564
त्मक	-11.1565
ye	-11.1566
टार	-11.1567
▁विभागका	-11.1568
▁छोटो	-11.1568
नेपाली	-11.1569
▁garage	-11.1572
▁अञ्चल	-11.1572
▁op	-11.1576
200	-11.1577
▁refused	-11.1578
lation	-11.1578
ella	-11.1578
▁tab	-11.1582
▁#1	-11.1583
▁stopping	-11.1587
धु	-11.1589
MO	-11.1589
▁manufacturing	-11.159
▁शैली	-11.159
ाउँछन्	-11.159
▁musical	-11.1592
▁workout	-11.1598
▁fo	-11.16
▁SU	-11.1603
▁नामक	-11.1604
▁faced	-11.1609
▁अनशन	-11.1609
▁सुख	-11.1609
▁Lee	-11.161
▁Fall	-11.161
▁मस्यौदा	-11.161
▁disappointed	-11.1615
▁thrown	-11.1615
▁Sta	-11.1617
▁Force	-11.1618
▁द्वारा	-11.1619
▁कार्यान्वयनमा	-11.1619
▁stable	-11.1622
▁खाली	-11.1624
▁Had	-11.1624
▁advocate	-11.1626
▁deadline	-11.1628
▁Bra	-11.163
▁retain	-11.163
▁Wood	-11.1631
ress	-11.1634
pu	-11.1635
▁जडान	-11.1636
बजार	-11.1638
भार	-11.1638
▁prime	-11.1638
टु	-11.1639
▁temporary	-11.164
▁समितिमा	-11.1645
▁Rose	-11.1649
fu	-11.165
▁premium	-11.1651
▁peak	-11.1652
▁wound	-11.1652
▁rescue	-11.1653
ाउँ	-11.1655
▁Through	-11.1658
100	-11.1658
▁गुल्मी	-11.1661
▁दूध	-11.1662
ध्य	-11.1662
ological	-11.1663
ept	-11.1663
▁देखिन	-11.1664
▁दलहरु	-11.1666
▁indicate	-11.1667
▁predict	-11.1669
▁रह्यो	-11.1669
▁सेनाको	-11.167
▁संस्थागत	-11.167
▁33	-11.167
lip	-11.1672
यौं	-11.1677
▁workshop	-11.1678
▁आफैँ	-11.1681
काल	-11.1681
▁diseases	-11.1682
▁comply	-11.1684
▁agenda	-11.1686
सको	-11.1687
▁booking	-11.1688
▁League	-11.1689
▁wh	-11.169
▁remarkable	-11.169
▁requested	-11.1693
▁प्रकारको	-11.1693
▁Col	-11.1695
Me	-11.1698
▁reducing	-11.1698
▁परिवारलाई	-11.1699
ancy	-11.17
▁चलाउने	-11.17
▁listing	-11.1702
▁victory	-11.1705
▁विज्ञ	-11.1705
▁डिजिटल	-11.1705
ale	-11.1706
▁प्रशिक्षक	-11.1706
▁entering	-11.1707
▁Pra	-11.1709
ering	-11.1711
्रे	-11.1712
▁brave	-11.1714
▁हुदै	-11.1715
▁कसैको	-11.1716
▁36	-11.1717
▁intention	-11.1718
school	-11.172
▁सकेका	-11.172
▁hill	-11.172
▁expecting	-11.1721
▁resist	-11.1722
लाग	-11.1724
▁करीब	-11.1725
▁Justice	-11.1727
▁flexible	-11.1728
▁भोग	-11.1731
▁dispute	-11.1731
▁spoken	-11.1733
▁designs	-11.1736
▁laughing	-11.1736
▁Chief	-11.1737
▁बैंकका	-11.1737
▁Town	-11.1737
▁विसं	-11.1738
▁tale	-11.1738
▁ब्र	-11.174
▁smoking	-11.1741
▁मदिरा	-11.1741
are	-11.1742
▁Ki	-11.1744
▁motivation	-11.1746
called	-11.1746
▁झन्	-11.1747
पानी	-11.1749
gger	-11.1749
▁Medical	-11.1749
▁खास	-11.1749
▁बोनस	-11.1752
▁horses	-11.1754
▁बोल्न	-11.1754
▁quotes	-11.1754
ku	-11.1757
▁जाति	-11.1758
▁घरको	-11.176
▁छौ	-11.1761
▁छाड	-11.1765
▁माथिल्लो	-11.1765
▁हकप्रद	-11.1767
चल	-11.1768
▁refund	-11.1773
▁साथमा	-11.1773
▁अनलाईन	-11.1778
र्ज	-11.1779
▁tag	-11.178
▁रमाइलो	-11.178
▁Ya	-11.1781
cker	-11.1781
▁concepts	-11.1784
▁Sign	-11.1787
▁moves	-11.1789
▁guns	-11.179
▁नगरपालिकाका	-11.1792
▁wondered	-11.1793
ura	-11.1796
▁स्वार्थ	-11.1797
59	-11.1797
▁superior	-11.1802
▁दृश्य	-11.1803
▁घन्टा	-11.1804
▁खो	-11.1809
▁deny	-11.1812
bling	-11.1813
▁सुशासन	-11.1813
▁यहि	-11.1813
▁टाउको	-11.1814
▁2003	-11.1815
▁poverty	-11.1816
Ha	-11.1816
स्ट्र	-11.1816
अब	-11.1816
▁शर्त	-11.182
▁dozen	-11.1822
▁rapidly	-11.1823
▁controlled	-11.1823
▁bid	-11.1825
▁massage	-11.1829
▁covering	-11.1829
▁san	-11.1832
▁50%	-11.1834
▁गरौं	-11.1835
▁परराष्ट्र	-11.1835
▁बासिन्दा	-11.1837
▁लिमिटेड	-11.184
une	-11.1842
ल्ल	-11.1842
कस	-11.1843
▁gained	-11.1845
▁horrible	-11.1846
▁authentic	-11.1848
▁दलले	-11.1849
unk	-11.1852
ुहोला	-11.1854
▁Much	-11.1854
▁BBC	-11.1856
▁::	-11.1859
▁sorts	-11.1859
▁Bre	-11.1861
▁कै	-11.1862
▁photography	-11.1863
▁Ly	-11.1865
▁बन्यो	-11.1867
▁विष्ट	-11.1867
51	-11.1868
▁निर्वाचनका	-11.1869
▁destroyed	-11.1869
पू	-11.187
▁represents	-11.1871
▁alien	-11.1871
▁फुट	-11.1871
▁outfit	-11.1873
स्य	-11.1877
dia	-11.1878
▁अन्नपूर्ण	-11.1878
▁एनआरएन	-11.1879
▁assignment	-11.1879
mes	-11.1879
after	-11.1879
▁nights	-11.1879
▁क्रान्ति	-11.188
▁कार्यसमिति	-11.1882
▁स्थानिय	-11.1884
▁earned	-11.1885
▁Video	-11.1885
▁यि	-11.1886
▁Account	-11.1887
▁चल्ने	-11.1887
▁प्राधिकरणले	-11.1888
▁Personal	-11.1889
▁सीमित	-11.1889
▁गीतको	-11.1889
▁drove	-11.1893
▁Mor	-11.1894
style	-11.1895
▁Young	-11.1895
tical	-11.1895
▁applies	-11.1897
▁gather	-11.1897
LO	-11.1899
▁माध्यमबाट	-11.19
▁सत	-11.1902
▁आफु	-11.1902
▁अन्त	-11.1902
▁एमालेको	-11.1903
▁शारीरिक	-11.1904
▁mate	-11.1905
▁स्वर	-11.1906
दान	-11.1908
▁hack	-11.1909
sen	-11.191
▁SA	-11.1911
index	-11.1913
▁habits	-11.1913
NA	-11.1913
▁Tim	-11.1914
▁resume	-11.1914
▁burden	-11.1915
▁primarily	-11.1921
्ट	-11.1922
▁soil	-11.1923
▁नपाउने	-11.1925
▁इटहरी	-11.1928
▁निर्यात	-11.193
mas	-11.193
▁interface	-11.193
Of	-11.1933
▁flood	-11.1934
तः	-11.1939
▁तारा	-11.1941
▁shelter	-11.1941
-10	-11.1943
▁रद्द	-11.1943
▁राशि	-11.1948
▁पूर्वी	-11.1949
▁जुम्ला	-11.195
▁intervention	-11.1952
▁खण्ड	-11.1955
▁cheaper	-11.1955
▁कैद	-11.1956
rist	-11.1956
▁उत्पन्न	-11.1958
▁लिखित	-11.1959
▁sacrifice	-11.1961
▁अवैध	-11.1965
स्टर	-11.1968
▁spark	-11.1969
्दी	-11.1969
▁chi	-11.197
▁मौलिक	-11.197
▁hearts	-11.197
पाटी	-11.1973
▁output	-11.1973
▁बालक	-11.1973
▁proved	-11.1973
die	-11.1974
▁अंग्रेजी	-11.1975
तु	-11.1976
▁roads	-11.1979
ison	-11.1981
▁अवरोध	-11.1982
मेन्ट	-11.1991
Co	-11.1992
▁चाल	-11.1995
▁affiliate	-11.1997
-20	-11.1999
lum	-11.2
▁computers	-11.2003
▁decline	-11.2004
▁swing	-11.2004
ियर	-11.2013
▁कार्यमा	-11.2017
▁contrast	-11.2018
▁Child	-11.2018
HA	-11.2018
ett	-11.2018
▁व्यापक	-11.202
▁राज्यले	-11.2022
▁ठेकेदार	-11.2022
▁Rights	-11.2023
▁toilet	-11.2023
▁liberal	-11.2027
इन	-11.2029
pper	-11.2029
▁copies	-11.2031
▁सिम	-11.2031
▁Network	-11.2032
▁overcome	-11.2033
सन्	-11.2034
▁अदालतको	-11.2037
wo	-11.2037
▁Way	-11.2038
▁embrace	-11.2039
▁Ireland	-11.204
burg	-11.2041
▁silly	-11.2042
▁गरिन्	-11.2042
जनक	-11.2042
▁arrest	-11.2043
▁History	-11.2043
▁sooner	-11.2045
▁voting	-11.2046
▁Search	-11.2051
▁समाजको	-11.2053
▁माछा	-11.2054
▁joining	-11.2054
eri	-11.2055
▁celebration	-11.2055
▁म्या	-11.2056
▁leak	-11.2061
din	-11.2061
▁rating	-11.2062
▁semi	-11.2063
▁भाग्य	-11.2064
▁resulting	-11.2064
तामा	-11.2064
▁expense	-11.2064
!!!!	-11.2065
ib	-11.2065
▁मिश्र	-11.2067
▁oven	-11.2069
▁cheer	-11.2069
▁pur	-11.2069
▁सरुवा	-11.2071
खबर	-11.2072
▁singing	-11.2075
▁scan	-11.2077
▁खुल	-11.2077
▁annoying	-11.2078
▁sweat	-11.2079
▁भाडा	-11.208
▁सधैं	-11.2081
▁publication	-11.2082
▁terrorist	-11.2083
▁violent	-11.2088
▁packed	-11.2089
▁सिटी	-11.2093
▁THAT	-11.2093
▁Manager	-11.2094
▁पहाडी	-11.2094
▁examination	-11.2095
▁shout	-11.2096
cu	-11.2098
▁सेनाले	-11.2099
▁dig	-11.2106
hr	-11.2106
▁proportion	-11.2108
▁compete	-11.2108
ata	-11.2109
▁tweet	-11.2109
▁THIS	-11.2111
▁edit	-11.2112
▁scared	-11.2112
▁Ag	-11.2113
▁नसक्दा	-11.2113
▁चलचित्रमा	-11.2113
मुक्त	-11.2114
▁PR	-11.2115
~	-11.2116
▁drama	-11.2119
▁heal	-11.212
▁अध्यक्षतामा	-11.2123
िएपछि	-11.2128
media	-11.2128
fire	-11.2131
-4	-11.2131
▁mor	-11.2131
मित	-11.2132
▁राख्दै	-11.2133
▁directed	-11.2134
▁बेलामा	-11.2135
वटा	-11.2136
पूर्व	-11.2137
नारायण	-11.2137
▁hug	-11.2138
▁AT	-11.2139
real	-11.214
▁ध्यानाकर्षण	-11.2142
▁तपाईले	-11.2143
▁workplace	-11.2147
PS	-11.2148
्नुपर्छ	-11.215
▁diabetes	-11.215
Yeah	-11.215
▁Room	-11.2151
▁कवि	-11.2151
▁applying	-11.2151
▁__	-11.2152
▁सवै	-11.2154
▁literature	-11.2155
▁कपडा	-11.2155
▁स्मृति	-11.2155
▁subscribe	-11.2155
▁चर्चामा	-11.2156
ाहा	-11.2158
▁२००	-11.2159
▁math	-11.2159
▁अतिरिक्त	-11.2159
html	-11.2162
▁pushing	-11.2163
zi	-11.2164
most	-11.2165
aught	-11.2167
▁nodded	-11.2167
▁बढाएको	-11.2171
▁Android	-11.2174
▁rat	-11.2174
लिङ	-11.2175
ाप	-11.2183
▁versions	-11.2184
▁४८	-11.2186
▁Pass	-11.2187
▁settlement	-11.2189
▁fascinating	-11.219
...".	-11.219
name	-11.2192
▁Conference	-11.2193
▁बेल	-11.2195
्रि	-11.2196
▁2019	-11.2196
▁highlight	-11.2197
▁scope	-11.2201
▁Key	-11.2202
▁WE	-11.2202
▁burning	-11.2203
▁exclusive	-11.2203
▁स्मरण	-11.2204
▁Santa	-11.2204
▁generous	-11.2205
▁मनमा	-11.2205
▁announcement	-11.2206
▁complaint	-11.2207
▁अत्यन्त	-11.2208
▁प्रयोगको	-11.2208
प्रचण्ड	-11.2211
तै	-11.2212
▁cancel	-11.2212
▁involving	-11.2212
▁स्ट	-11.2212
▁transaction	-11.2213
▁मिल्ने	-11.2213
▁गिरी	-11.2213
▁virtual	-11.2213
▁केटी	-11.2215
▁चालु	-11.2219
▁exhibit	-11.222
▁qualify	-11.2221
▁pink	-11.2224
ways	-11.2224
▁suicide	-11.2224
▁poem	-11.2225
▁remembered	-11.2228
Just	-11.223
▁दोश्रो	-11.2231
▁seats	-11.2232
कन	-11.2234
▁Hopefully	-11.2235
▁acknowledge	-11.2235
rge	-11.2235
▁angel	-11.2235
▁cousin	-11.2236
▁stored	-11.2236
▁नेताहरू	-11.2241
▁Louis	-11.2242
rit	-11.2244
64	-11.2246
▁intellectual	-11.2251
▁disappear	-11.2251
▁झन्डै	-11.2255
▁मनाङ	-11.226
▁scenes	-11.2262
▁Financial	-11.2263
▁Italian	-11.2264
▁गुरु	-11.2264
▁Heart	-11.2265
▁सुशील	-11.2266
▁थालेपछि	-11.2266
▁ठेक्का	-11.2267
▁भाउ	-11.2267
dding	-11.2268
EA	-11.2268
▁ग्यालरी	-11.227
▁हार्दिक	-11.2271
▁दृष्टिकोण	-11.2272
▁गर्भ	-11.2273
▁2001	-11.2274
▁dive	-11.228
month	-11.2282
▁humor	-11.2282
▁improvements	-11.2283
▁$10	-11.2285
▁तरिकाले	-11.2286
cast	-11.2287
▁पल	-11.2288
â	-11.2291
▁औद्योगिक	-11.2291
▁सघ	-11.2291
▁anniversary	-11.2292
▁wo	-11.2293
▁पहिलोपटक	-11.2293
▁decor	-11.2294
ore	-11.2294
▁substance	-11.2297
▁beliefs	-11.2297
fl	-11.2299
▁friendship	-11.23
rop	-11.2301
▁falls	-11.2302
▁अध्यक्षमा	-11.2302
▁अपडेट	-11.2303
▁compound	-11.2303
▁resolve	-11.2305
▁tons	-11.2306
▁supplement	-11.2307
▁pose	-11.231
▁आकर्षण	-11.2312
▁सोचे	-11.2314
▁Army	-11.2315
दर्श	-11.2315
▁प्रदीप	-11.2315
▁firms	-11.2317
ेकी	-11.232
▁cha	-11.232
▁Centre	-11.2321
}	-11.2322
°	-11.2324
▁pit	-11.2327
▁hardware	-11.2329
▁tradition	-11.233
▁घुम	-11.2333
▁बरु	-11.2333
▁Cu	-11.2335
▁Game	-11.2336
▁employed	-11.2337
▁developers	-11.2339
▁companion	-11.2341
▁क्षेत्रलाई	-11.2341
▁pile	-11.2342
);	-11.2343
▁Someone	-11.2344
▁contained	-11.2344
▁guitar	-11.2346
▁User	-11.2349
Then	-11.235
▁personnel	-11.2353
tail	-11.2353
▁sizes	-11.2354
tim	-11.2354
▁rice	-11.2354
▁रू	-11.2357
▁thoroughly	-11.2358
put	-11.2359
▁प्रकारका	-11.2361
र्च	-11.2361
▁प्रवृत्ति	-11.2365
▁राईले	-11.2365
▁logo	-11.2365
नेकपा	-11.2365
▁शा	-11.2365
▁employers	-11.2366
mid	-11.2367
▁Ever	-11.2367
▁Economic	-11.2368
▁shade	-11.237
ica	-11.237
itch	-11.2372
माया	-11.2372
▁सहायता	-11.2373
औँ	-11.2376
▁अवलोकन	-11.2376
▁लो	-11.2376
र्ग	-11.2377
▁Got	-11.2378
इन्	-11.2379
षण	-11.2381
lf	-11.2382
▁manual	-11.2383
▁locked	-11.2387
▁representative	-11.2387
▁Constitution	-11.2388
▁काँग्रेसका	-11.2392
▁interior	-11.2392
ैया	-11.2392
▁tear	-11.2394
▁profession	-11.2395
▁लेखा	-11.2397
▁responses	-11.2397
▁Energy	-11.2399
▁volunteers	-11.2401
▁विहान	-11.2401
▁Royal	-11.2404
▁धरान	-11.2407
gh	-11.2407
्मा	-11.2408
vy	-11.2409
▁portfolio	-11.241
▁fake	-11.2411
णी	-11.2412
▁Op	-11.2412
▁पशुपति	-11.2413
tz	-11.2413
▁ultimate	-11.2415
▁melt	-11.2415
▁Matt	-11.2416
▁medication	-11.2416
pic	-11.2416
▁plug	-11.2417
▁Down	-11.2419
▁हातमा	-11.2419
▁experiencing	-11.2419
▁दिनसम्म	-11.2419
crea	-11.242
▁organize	-11.2421
▁yards	-11.2422
owner	-11.2422
▁component	-11.2423
▁demo	-11.2425
turn	-11.2425
फल	-11.2425
▁ga	-11.2426
▁नगरपालिकाले	-11.2426
▁नरहेको	-11.2429
▁scenario	-11.2429
▁wage	-11.2429
िला	-11.243
▁3:	-11.243
▁विस्फोट	-11.2433
▁innocent	-11.2434
▁अर्जुन	-11.2434
▁programming	-11.2435
▁एक्स	-11.2436
▁bullet	-11.2437
▁Nov	-11.2437
▁transform	-11.2438
▁शिक्षण	-11.2438
▁सहितको	-11.2439
wide	-11.2439
▁employ	-11.2441
▁बताइन्	-11.2442
▁जस	-11.2442
ges	-11.2442
र्ने	-11.2442
▁ट्रेलर	-11.2443
▁संग्रह	-11.2444
itive	-11.2444
▁बाध्यता	-11.2444
▁यद्यपि	-11.2444
▁crap	-11.2445
▁जात	-11.2445
▁sword	-11.2447
▁rush	-11.2448
▁maintaining	-11.2449
▁नगरे	-11.2454
द्य	-11.2456
▁लगाए	-11.2456
▁recover	-11.2457
pdf	-11.2457
▁तीव्र	-11.2458
▁vs	-11.2458
▁reveal	-11.2459
,‘	-11.246
57	-11.2462
▁था	-11.2464
चे	-11.2465
ston	-11.2466
▁PA	-11.2466
▁Port	-11.2468
▁bite	-11.2468
▁cuts	-11.2469
ोन	-11.2469
केट	-11.2469
▁खराब	-11.2469
▁घाटा	-11.2471
▁spouse	-11.2471
aving	-11.2471
▁बुबा	-11.2472
▁पढाइ	-11.2472
राष्ट्र	-11.2473
▁आदिवासी	-11.2475
▁importantly	-11.2475
???	-11.2475
▁सब	-11.2476
▁बज	-11.2478
▁Ok	-11.2479
▁bri	-11.2479
२५	-11.2479
▁clinic	-11.2481
▁कर्मचारीलाई	-11.2481
ज्ञा	-11.2481
▁marry	-11.2483
MS	-11.249
▁Agreement	-11.2492
lim	-11.2494
▁बर्षको	-11.2495
▁दीपक	-11.2496
▁10%	-11.2496
▁drain	-11.2498
▁praise	-11.2498
▁तपाइँ	-11.2499
rey	-11.25
▁printed	-11.2501
▁glance	-11.2503
▁arise	-11.2505
▁stepped	-11.2505
▁asleep	-11.2506
▁युरोप	-11.2509
▁(4)	-11.251
▁prop	-11.2513
वाल	-11.2514
▁mal	-11.2514
▁Summer	-11.2515
▁समूहले	-11.2517
Ca	-11.2519
▁अवरुद्ध	-11.2519
▁grasp	-11.252
▁photographer	-11.2521
▁चोट	-11.2521
▁Hard	-11.2524
दन	-11.2526
▁सक्नु	-11.2527
roll	-11.2531
▁adds	-11.2532
ada	-11.2533
▁fraud	-11.2533
▁जितेको	-11.2533
▁श्रावण	-11.2534
▁unto	-11.2534
▁attending	-11.2534
ाइरहेको	-11.2535
▁150	-11.2536
▁purchasing	-11.2537
▁Digital	-11.2539
▁worship	-11.2539
▁sink	-11.2542
▁bow	-11.2542
▁Wo	-11.2543
▁handling	-11.2543
▁विकिपिडिया	-11.2546
▁कार्यविधि	-11.2547
lee	-11.2548
▁empower	-11.2549
▁intent	-11.2551
▁knee	-11.2552
पुरा	-11.2552
▁rural	-11.2553
▁थापाको	-11.2553
▁सूचीमा	-11.2554
▁मात्रामा	-11.2556
▁बोकेर	-11.2557
mat	-11.256
▁टोल	-11.2561
▁industries	-11.2564
▁सभाको	-11.2564
▁occurs	-11.2564
Read	-11.2566
▁2016.	-11.2566
▁threw	-11.2567
▁abilities	-11.2568
▁blessing	-11.257
▁essentially	-11.257
▁mar	-11.2572
▁flip	-11.2574
▁bat	-11.2574
▁छाला	-11.2579
▁unfortunately	-11.258
▁Captain	-11.2582
▁attempts	-11.2583
▁interpret	-11.2587
▁involve	-11.2587
Po	-11.2587
▁drunk	-11.2588
▁genetic	-11.2589
लेख	-11.259
▁preferred	-11.2592
▁engaging	-11.2595
▁arch	-11.2599
▁focusing	-11.2602
▁तु	-11.2603
▁लैजान	-11.2606
▁खोज्ने	-11.2606
las	-11.2607
अप	-11.2607
▁dont	-11.2609
▁एफ	-11.261
▁अतिथि	-11.2611
▁announce	-11.2612
TE	-11.2614
▁phones	-11.2615
▁पठाएको	-11.2615
▁contents	-11.2616
▁tent	-11.2618
▁waited	-11.2618
▁twin	-11.2623
▁सर्वाधिकार	-11.2623
▁Thomas	-11.2623
▁monster	-11.2624
power	-11.2624
ero	-11.2629
▁uniform	-11.2629
थे	-11.2631
▁residence	-11.2636
▁stunning	-11.2637
▁disorder	-11.2637
5.	-11.2638
▁३९	-11.2638
▁रातो	-11.2638
▁यहाँका	-11.2639
tract	-11.2639
मेरो	-11.2639
ics	-11.264
▁sought	-11.264
fil	-11.264
▁लागत	-11.2643
▁Yu	-11.2645
▁index	-11.2645
▁icon	-11.2646
▁recognition	-11.2647
▁भेटवार्ता	-11.2647
▁layout	-11.2647
▁प्रियंका	-11.2648
▁dressed	-11.2649
यू	-11.2651
▁जुट	-11.2653
other	-11.2654
▁reward	-11.2655
▁Pan	-11.2655
▁शाही	-11.2656
▁सकिनेछ	-11.2657
▁fewer	-11.2659
▁Dean	-11.2659
▁3-	-11.2661
▁scrap	-11.2662
पद	-11.2662
▁पढ्नुहोस	-11.2662
▁Gro	-11.2664
ished	-11.2666
▁लाल	-11.2667
▁Tax	-11.2667
▁ye	-11.2667
▁heavily	-11.2669
▁Pen	-11.267
▁बिज्ञापन	-11.2671
▁विषयलाई	-11.2671
▁abroad	-11.2673
▁permitted	-11.2674
▁reminded	-11.2674
▁400	-11.2675
fit	-11.2675
▁बुद्धि	-11.2676
foot	-11.2676
lam	-11.2676
▁bars	-11.2677
▁subsequent	-11.2677
▁Table	-11.2677
▁tremendous	-11.268
▁demands	-11.2681
▁peaceful	-11.2682
[...].	-11.2682
▁chill	-11.2682
▁Francisco	-11.2683
▁डी	-11.2684
▁Select	-11.2684
▁Charles	-11.2685
▁ensuring	-11.2686
▁फिल्मको	-11.2687
▁संस्थापक	-11.2688
▁खतिवडा	-11.2691
▁infection	-11.2692
रिक	-11.2695
▁reminder	-11.2695
▁differently	-11.2696
▁Whatever	-11.2697
ologist	-11.2698
▁exit	-11.2699
Can	-11.2701
52	-11.2702
▁खोला	-11.2703
▁followers	-11.2705
▁बनाउनु	-11.2706
step	-11.2709
▁blessed	-11.2711
▁खासै	-11.2712
▁Four	-11.2715
verse	-11.272
cor	-11.2721
▁powder	-11.2722
▁combine	-11.2726
▁gathering	-11.2726
▁statistics	-11.2728
▁Boston	-11.2729
▁unlikely	-11.273
bound	-11.273
▁नामावली	-11.2731
▁काट	-11.2732
▁Marketing	-11.2732
▁Hy	-11.2732
याली	-11.2732
▁Lady	-11.2737
ाइने	-11.2738
▁गुण	-11.274
Who	-11.2741
cept	-11.2743
cient	-11.2744
▁हेरेर	-11.2744
▁सुनको	-11.2745
▁Clinton	-11.2749
▁Travel	-11.2749
जित	-11.2749
▁Microsoft	-11.2749
▁ट्रम्पले	-11.2749
▁physically	-11.2751
▁फरार	-11.2751
▁enormous	-11.2751
▁विगतमा	-11.2752
▁tongue	-11.2756
▁सामना	-11.2756
friendly	-11.2759
लै	-11.276
▁परामर्श	-11.2765
▁Executive	-11.2766
▁Hand	-11.277
▁brothers	-11.2771
▁पोल	-11.2771
▁अनुसारको	-11.2773
▁tire	-11.2773
▁इलाका	-11.2773
yo	-11.2777
▁नायक	-11.2778
https	-11.2778
▁दे	-11.2778
▁छोड	-11.2779
▁हुनाले	-11.2781
▁आवास	-11.2782
▁प्रकार	-11.2782
gr	-11.2782
▁treasure	-11.2784
▁Meanwhile	-11.2785
▁producing	-11.2789
▁establishment	-11.279
▁आशंका	-11.279
6.	-11.2792
▁सुनाए	-11.2797
La	-11.2797
▁Ob	-11.2799
क्र	-11.2799
▁Valley	-11.2801
ुक	-11.2804
चन्द्र	-11.2804
IVE	-11.2805
आफ्नो	-11.2806
▁नेताहरुले	-11.2806
स्प	-11.2807
▁गित	-11.2809
cro	-11.281
▁segment	-11.2811
▁Cre	-11.2814
▁awake	-11.2816
▁माओवादीले	-11.2816
▁Fla	-11.2817
oma	-11.2818
▁nurse	-11.2819
▁फोहोर	-11.282
▁मुद्दामा	-11.2821
▁रूप	-11.2822
▁अवधारणा	-11.2823
▁लगाएका	-11.2824
हित	-11.2824
▁puts	-11.2824
▁kinda	-11.2827
याे	-11.2828
▁अम	-11.2828
▁complain	-11.2829
▁Money	-11.2829
ime	-11.2832
▁inspire	-11.2833
▁किशोरी	-11.2834
▁accused	-11.2837
▁mountains	-11.2841
MP	-11.2841
▁YOUR	-11.2842
▁treatments	-11.2843
▁corn	-11.285
▁arguments	-11.2851
▁क्रियाकलाप	-11.2852
▁Tro	-11.2854
▁Cur	-11.2856
▁repeated	-11.2858
▁priest	-11.2858
▁HA	-11.2858
▁चलेको	-11.2859
▁न्यून	-11.2861
▁तस्वीर	-11.2861
aging	-11.2863
▁Cook	-11.2863
▁boring	-11.2864
oke	-11.2866
▁approaches	-11.2867
▁horror	-11.2869
▁आउँदा	-11.2871
▁asset	-11.2872
wer	-11.2872
▁रुकुम	-11.2873
▁steam	-11.2874
▁hesitate	-11.2874
char	-11.2874
▁Getting	-11.2874
▁भाषामा	-11.2876
▁convey	-11.2878
भाव	-11.2879
▁Cup	-11.2885
▁tries	-11.2886
१४	-11.2888
bin	-11.2888
▁खिच	-11.2889
▁Test	-11.2889
▁bookmark	-11.2891
ek	-11.2892
▁filling	-11.2893
▁भव्य	-11.2893
cher	-11.2893
मर	-11.2894
▁hoped	-11.2894
▁hunt	-11.2894
▁रिस	-11.2898
▁34	-11.2899
54	-11.2899
▁bone	-11.2903
▁प्रदर्शनी	-11.2903
▁fancy	-11.2904
rid	-11.2904
▁किसिमको	-11.2908
▁AS	-11.2909
▁SEO	-11.2909
▁Italy	-11.2909
▁wrap	-11.291
CO	-11.2911
▁orange	-11.2913
Al	-11.2914
▁Season	-11.2915
▁विनियोजन	-11.2915
rap	-11.2916
Se	-11.2918
▁marks	-11.2921
▁कार्कीले	-11.2923
▁throat	-11.2925
▁excess	-11.2926
▁organ	-11.2926
▁विना	-11.2928
प्प	-11.2928
▁collective	-11.2929
▁residential	-11.293
मात्रै	-11.2934
▁चलन	-11.2935
▁भइरहेका	-11.2935
▁Supreme	-11.2935
▁राजन	-11.2935
▁William	-11.2936
shirt	-11.2936
▁periods	-11.2939
िदै	-11.2939
्जा	-11.294
One	-11.294
▁governments	-11.294
▁हिन्दु	-11.2941
▁Han	-11.2943
▁lab	-11.2943
▁safely	-11.2945
▁featured	-11.2947
▁meaningful	-11.2948
AP	-11.2951
▁$100	-11.2951
ius	-11.2951
▁conversations	-11.2952
ria	-11.2952
▁Price	-11.2953
gate	-11.2953
▁Pla	-11.2954
▁equipped	-11.2954
▁Create	-11.2955
▁exploring	-11.2955
रोध	-11.2955
▁genuine	-11.2956
▁Sh	-11.2957
▁दायित्व	-11.2959
क्षा	-11.296
ography	-11.2966
blo	-11.2968
▁दिइने	-11.2969
▁Daniel	-11.2972
▁den	-11.2973
▁आकर्षित	-11.2974
▁आधारभूत	-11.2974
▁टी	-11.2977
cla	-11.2977
▁४३	-11.2978
▁मनाउने	-11.2979
58	-11.298
▁reception	-11.2982
▁egg	-11.2982
▁Stop	-11.2982
▁अफगानिस्तान	-11.2984
ux	-11.2986
▁चलिरहेको	-11.2988
▁gut	-11.2988
▁appointed	-11.299
▁नेताले	-11.2993
याँ	-11.2993
▁Arch	-11.2993
▁प्राथमिकतामा	-11.2994
▁समाप्त	-11.2994
▁trips	-11.2994
▁tele	-11.2997
▁favour	-11.2998
▁पाल्पा	-11.2999
▁summary	-11.3
▁आन्दोलनमा	-11.3001
▁desert	-11.3002
▁प्रष्ट	-11.3004
▁Site	-11.3004
▁conscious	-11.3007
▁उप्रेती	-11.3008
▁नाकाबन्दी	-11.3008
▁broadcast	-11.3009
▁पुग्छ	-11.301
▁हेटौंडा	-11.301
-8	-11.3011
▁quietly	-11.3011
tur	-11.3012
▁Welcome	-11.3012
▁लेखन	-11.3017
▁दिइ	-11.3017
▁tune	-11.3017
▁कोठा	-11.3018
▁ज्ञवाली	-11.3019
live	-11.3022
▁फ्ल	-11.3022
▁Job	-11.3023
▁luxury	-11.3024
▁4:	-11.3024
mus	-11.3025
▁j	-11.3028
▁surprising	-11.3029
Are	-11.3031
▁सहमत	-11.3034
▁engines	-11.3037
▁crossed	-11.3037
▁steal	-11.304
▁भे	-11.3041
▁नम्बरको	-11.3041
▁owe	-11.3044
good	-11.3045
▁voters	-11.3048
under	-11.3048
७६	-11.3051
▁enjoyable	-11.3054
▁outcomes	-11.3055
हामीले	-11.3056
▁coin	-11.3057
▁तोकेको	-11.3058
eller	-11.3059
▁ओभरमा	-11.3062
सक	-11.3062
▁Ham	-11.3063
▁सञ्जालमा	-11.3063
▁slave	-11.3064
vic	-11.3067
▁नाच	-11.3067
▁बसोबास	-11.3067
▁Civil	-11.3071
▁ruin	-11.3072
▁संक्रमण	-11.3072
▁अधिक	-11.3072
▁inspection	-11.3077
▁captain	-11.3078
▁जीवनको	-11.3079
▁beside	-11.3079
▁रणनीति	-11.308
▁व्यवसायिक	-11.3081
▁buyers	-11.3082
fla	-11.3084
▁10.	-11.3087
active	-11.3087
▁संख्यामा	-11.3088
▁instruction	-11.3089
▁बयान	-11.309
▁किशोर	-11.309
▁pulling	-11.3091
▁enemies	-11.3091
▁फर्किए	-11.3092
▁मुल्य	-11.3092
▁दिनदेखि	-11.3093
love	-11.3093
▁डिसेम्बर	-11.3093
फ्ट	-11.3095
ीक	-11.3095
▁Cross	-11.3095
बो	-11.3095
▁comm	-11.3096
▁roles	-11.31
▁verse	-11.3101
▁मृतक	-11.3101
▁responded	-11.3102
▁discussions	-11.3104
▁touched	-11.3107
teen	-11.3108
▁निकालिएको	-11.3108
▁Type	-11.3109
▁CEO	-11.3109
▁Local	-11.311
▁सम्पदा	-11.3112
▁सक्षम	-11.3112
भक्त	-11.3112
▁काल	-11.3114
▁पेशा	-11.3114
▁hungry	-11.3115
▁Hol	-11.3116
profit	-11.3116
▁ढोका	-11.3117
्याउने	-11.3118
▁robot	-11.3118
▁नभएका	-11.3118
▁आमाको	-11.3119
▁initiative	-11.312
arch	-11.312
▁भागमा	-11.3122
▁collaboration	-11.3123
▁submission	-11.3123
▁४९	-11.3127
▁Ber	-11.3129
▁टीका	-11.3133
▁MS	-11.3133
सके	-11.3134
लर	-11.3134
▁भन्छिन्	-11.3135
▁mystery	-11.3135
▁लड	-11.3135
ची	-11.3136
▁breed	-11.3138
,500	-11.3138
ena	-11.3139
▁indicated	-11.3139
cra	-11.3139
योग्य	-11.314
▁देखे	-11.3141
िच	-11.3142
-6	-11.3142
▁resistance	-11.3143
ola	-11.3145
▁investments	-11.3146
Good	-11.3146
▁पढ्ने	-11.3147
▁पर्सा	-11.3147
▁संस्थाहरु	-11.3148
▁काठ	-11.3149
▁aged	-11.315
▁रोल्पा	-11.315
▁नेपालीले	-11.315
▁opposition	-11.3152
्ति	-11.3154
▁घटेको	-11.3155
▁आर्मी	-11.3155
▁Vo	-11.3155
▁उठाउन	-11.3157
▁pension	-11.3159
▁investing	-11.3159
▁gathered	-11.3162
▁commonly	-11.3164
▁बक्स	-11.3165
निया	-11.3165
▁संकट	-11.3166
▁gentle	-11.3167
िप	-11.3169
उँ	-11.3169
leg	-11.317
▁Republicans	-11.3171
रै	-11.3172
bor	-11.3172
▁मंगलवार	-11.3173
▁तार	-11.3174
▁sections	-11.3177
ष्ठ	-11.3179
▁assigned	-11.3182
from	-11.3182
▁बिग्र	-11.3183
कमा	-11.3183
▁maintained	-11.3183
▁पूँजी	-11.3183
▁महानगरीय	-11.3184
र्ति	-11.3184
▁छिट्टै	-11.3185
▁Sarah	-11.3186
▁हुनुभएको	-11.3186
▁Trade	-11.3186
▁emphasis	-11.3187
▁connections	-11.3188
▁extract	-11.3188
▁errors	-11.3189
▁Jewish	-11.3191
खेल	-11.3191
▁काभ्रे	-11.3191
▁एकल	-11.3193
about	-11.3193
▁प्रतिभा	-11.3194
61	-11.3195
▁productive	-11.3195
▁cats	-11.3201
▁Small	-11.3202
▁lists	-11.3203
▁तान	-11.3205
▁channels	-11.3208
ulate	-11.3208
xi	-11.3208
▁tissue	-11.3211
▁फाइनल	-11.3212
बद्ध	-11.3212
▁substantial	-11.3213
▁दुइ	-11.3215
▁सभामा	-11.3216
Thank	-11.3218
▁tower	-11.3218
▁surrounded	-11.322
ट्र	-11.3222
▁dirty	-11.3224
rus	-11.3226
▁skip	-11.3229
▁लगभग	-11.323
▁bump	-11.3231
▁हुन्न	-11.3233
▁दिनुभएको	-11.3233
▁चाहन्छु	-11.3235
▁65	-11.3235
▁giveaway	-11.3235
Nepal	-11.3237
मय	-11.3237
Mo	-11.3239
▁Guide	-11.324
▁यसपटक	-11.3242
▁plugin	-11.3243
▁mod	-11.3244
▁प्रभु	-11.3244
▁भिसा	-11.3249
▁Until	-11.325
▁vulnerable	-11.325
▁ठाकुर	-11.3252
▁Pri	-11.3253
▁forgive	-11.3254
▁anxious	-11.3254
▁देखिए	-11.3256
▁पत्नी	-11.3257
▁Er	-11.3257
CT	-11.3258
▁shoulders	-11.3259
▁पुष्प	-11.326
▁eliminate	-11.326
▁उहाँलाई	-11.326
▁excitement	-11.3261
▁prescription	-11.3261
डमा	-11.3262
▁जसलाई	-11.3265
lock	-11.3267
▁salad	-11.3269
▁platforms	-11.327
SP	-11.3271
▁Unless	-11.3271
▁currency	-11.3273
▁objectives	-11.3273
*.	-11.3273
▁tied	-11.3274
▁blocks	-11.3277
▁रहनेछ	-11.3279
Go	-11.3282
▁Excellent	-11.3283
IL	-11.3283
lies	-11.3292
▁insist	-11.3292
▁pipe	-11.3293
▁बाटोमा	-11.3293
▁complaints	-11.3294
▁अस्ट्रेलिया	-11.3295
▁breaks	-11.3298
Th	-11.3299
▁Qui	-11.3299
▁voted	-11.3299
ट्टा	-11.3302
▁colon	-11.3304
7.	-11.3305
vid	-11.3306
ृत	-11.3308
▁girlfriend	-11.331
▁Ph	-11.3312
IA	-11.3312
▁yield	-11.3313
▁पुनर्	-11.3314
▁कुवेत	-11.3315
▁Fo	-11.3316
nepal	-11.3317
▁cure	-11.3317
▁सकियो	-11.3319
sie	-11.3319
▁Consider	-11.3321
pr	-11.3326
▁branch	-11.3326
▁Indeed	-11.3327
▁darkness	-11.3327
being	-11.3328
▁उपहार	-11.3329
१८	-11.333
▁बाँके	-11.333
िँदा	-11.3331
cin	-11.3331
rup	-11.3333
▁directions	-11.3334
▁2002	-11.3335
cons	-11.3339
len	-11.3341
▁talented	-11.3341
range	-11.3342
▁विद्यादेवी	-11.3344
▁क्ल	-11.3345
▁gossip	-11.3346
▁न्यूनतम	-11.3346
▁Museum	-11.3347
▁spots	-11.335
...”.	-11.3354
▁Officer	-11.3356
▁offices	-11.3357
▁span	-11.3357
्वे	-11.336
▁ड्र	-11.3362
▁रियल	-11.3363
▁गगन	-11.3363
▁acceptable	-11.3364
िसकेका	-11.3365
▁बजेसम्म	-11.3367
▁begun	-11.3368
▁उर्जा	-11.3369
▁organisations	-11.337
card	-11.3371
▁पू	-11.3372
▁मनोज	-11.3372
▁charity	-11.3372
iest	-11.3372
▁>>	-11.3373
▁lecture	-11.3373
▁Mad	-11.3379
rri	-11.3379
▁lighting	-11.3382
▁पेट्रोलियम	-11.3384
▁Below	-11.3385
53	-11.3385
सकेका	-11.3387
▁mutual	-11.3391
▁grip	-11.3393
यौ	-11.3395
▁reverse	-11.3396
▁usage	-11.3397
▁shortly	-11.3401
gov	-11.3401
▁handy	-11.3402
▁hook	-11.3402
▁troops	-11.3403
▁Inc	-11.3404
cap	-11.3406
▁बुझे	-11.3406
▁grain	-11.3406
▁rank	-11.3409
97	-11.3409
▁सीप	-11.3411
▁creativity	-11.3412
def	-11.342
९८	-11.3423
9.	-11.3423
▁कोरियाली	-11.3425
▁Mag	-11.3427
▁तीज	-11.343
▁1990	-11.343
▁assistant	-11.3433
▁देवी	-11.3434
▁होम	-11.3435
ike	-11.3435
▁spaces	-11.3436
▁खनालले	-11.3436
▁(3	-11.3437
▁किम	-11.3437
udge	-11.3438
▁रहन्छ	-11.344
▁Application	-11.3443
▁बिहिबार	-11.3446
मत	-11.3447
▁crimes	-11.3447
▁ईश्वर	-11.3449
▁losses	-11.3449
aged	-11.345
▁tie	-11.345
▁philosophy	-11.345
▁admission	-11.3451
▁serves	-11.3452
▁Simply	-11.3455
ान्तर	-11.3455
▁implemented	-11.3455
▁hum	-11.3456
▁pun	-11.3457
▁लाइसेन्स	-11.3457
▁Shi	-11.3458
▁trace	-11.3459
▁विद्यार्थीलाई	-11.346
▁Wal	-11.3461
▁रामबहादुर	-11.3461
▁गरिसकेका	-11.3461
▁vice	-11.3462
▁beneath	-11.3463
▁विद्यार्थीको	-11.3465
▁सिंहदरबार	-11.3466
▁समूहको	-11.3466
▁धनुषा	-11.3468
pha	-11.3468
▁WordPress	-11.3469
▁historic	-11.347
▁ग्रामीण	-11.3471
▁dental	-11.3472
▁contributions	-11.3472
▁Name	-11.3472
ंगा	-11.3472
▁थारु	-11.3473
▁निवास	-11.3474
▁गराए	-11.3476
▁सेवामा	-11.3476
▁CON	-11.3476
▁assured	-11.3477
▁documentation	-11.3478
▁फारम	-11.3481
▁काउन्सिल	-11.3483
▁dumpster	-11.3483
▁promoting	-11.3484
▁दौड	-11.3486
▁घुस	-11.3488
▁$6	-11.3488
▁displayed	-11.3489
▁थाल्यो	-11.349
▁प्रारम्भ	-11.349
▁Point	-11.349
Un	-11.3494
zo	-11.3494
कुल	-11.3495
▁podcast	-11.3497
▁vaccine	-11.3497
▁भुटान	-11.3497
▁५२	-11.3499
ential	-11.3499
rum	-11.3501
▁सायद	-11.3502
EE	-11.3503
▁decrease	-11.3503
▁mixture	-11.3505
▁scary	-11.3506
lex	-11.3508
88	-11.3511
▁तिमीलाई	-11.3511
▁considerable	-11.3514
▁handed	-11.3515
▁Gr	-11.3515
▁Self	-11.3516
▁डिजाइन	-11.3517
▁throwing	-11.3519
▁til	-11.352
▁Radio	-11.352
▁tail	-11.3521
onic	-11.3523
अहिले	-11.3525
▁dishes	-11.3526
▁स्मार्टफोन	-11.3526
▁थान	-11.3526
▁Democrats	-11.3527
▁अफिस	-11.3527
▁Republic	-11.3529
▁अचम्म	-11.3529
▁precisely	-11.353
77	-11.353
▁Building	-11.3531
▁संस्थाका	-11.3533
▁जोड्ने	-11.3534
▁stages	-11.3536
▁criticism	-11.3536
▁बानी	-11.3536
▁लोडसेडिङ	-11.3536
▁उत्	-11.3538
▁overwhelming	-11.3539
▁कार्यदल	-11.354
▁publishing	-11.3541
▁75	-11.3543
▁?’	-11.3545
▁$7	-11.3546
▁freak	-11.3546
▁संयोजन	-11.3547
nge	-11.3547
▁दसैं	-11.3551
▁expansion	-11.3554
▁imagination	-11.3554
▁Age	-11.3555
▁Prince	-11.3557
▁adequate	-11.3557
घात	-11.3559
▁🙂	-11.3561
▁धु	-11.3561
▁आश्विन	-11.3561
▁tracks	-11.3562
▁cave	-11.3563
▁रेलमार्ग	-11.3564
logy	-11.3564
▁findings	-11.3564
▁टन	-11.3564
▁hits	-11.3566
▁Given	-11.3566
▁farmers	-11.3568
▁Tour	-11.3568
▁सिन्धुपाल्चोक	-11.3568
▁blogger	-11.3569
igh	-11.3571
▁keen	-11.3575
गढी	-11.3576
▁possibilities	-11.3577
▁अपनाउन	-11.3579
▁collapse	-11.3579
▁(20	-11.358
▁stairs	-11.358
▁श्रमिक	-11.3585
print	-11.3589
▁prompt	-11.359
▁यतिबेला	-11.359
ili	-11.359
ताल	-11.3592
▁honour	-11.3593
▁mask	-11.3597
ttle	-11.36
▁drew	-11.3601
लगत्तै	-11.3601
▁शनिवार	-11.3602
▁पानीको	-11.3602
▁magical	-11.3603
▁suggestion	-11.3603
63	-11.3608
▁सरोकारवाला	-11.3608
▁Val	-11.3608
▁सुरक्षाकर्मी	-11.3609
▁offense	-11.3613
▁भैरहवा	-11.3613
▁climb	-11.3614
▁politicians	-11.3615
▁सामाग्री	-11.3615
▁चाँडै	-11.3617
▁विपक्षी	-11.3617
▁ढल	-11.3618
▁गोर्खा	-11.3618
▁बाम	-11.3619
▁बच	-11.3619
▁contracts	-11.362
▁warrant	-11.362
▁walks	-11.3621
▁पुलिस	-11.3621
▁burst	-11.3623
▁55	-11.3623
▁tender	-11.3625
्याङ	-11.3625
▁encouraging	-11.3625
ages	-11.3627
phone	-11.3627
▁Common	-11.3629
▁देखेर	-11.363
▁dancing	-11.3631
▁grounds	-11.3632
▁genuinely	-11.3632
▁प्रक्रियामा	-11.3633
rest	-11.3634
▁swim	-11.3636
▁containing	-11.3638
▁ल्याएर	-11.3638
▁विशेषज्ञ	-11.3644
▁salary	-11.3647
▁elections	-11.3648
▁देखी	-11.3652
▁जरिवाना	-11.3653
▁बोले	-11.3653
▁सम्मानित	-11.3654
▁Wait	-11.3654
▁insert	-11.3655
हेर	-11.3655
▁आकर्षक	-11.3656
▁fired	-11.3656
cat	-11.3657
▁hiring	-11.3657
▁removal	-11.3658
▁ownership	-11.3659
▁प्रविधिको	-11.3659
ington	-11.366
▁Zealand	-11.3662
▁शिविर	-11.3663
▁badly	-11.3664
▁fortunate	-11.3664
▁Sand	-11.3666
▁belt	-11.3666
▁patience	-11.3668
▁वटै	-11.3668
रू	-11.3668
▁समझदारी	-11.3669
▁अपहरण	-11.367
▁खत्री	-11.3672
टन	-11.3673
▁त्यतिबेला	-11.3675
शे	-11.3675
▁Especially	-11.3675
▁penalty	-11.3676
mble	-11.3678
▁युवक	-11.3678
साथ	-11.3678
वाला	-11.3679
गम	-11.3682
▁concrete	-11.3683
▁sail	-11.3687
▁खालको	-11.3687
▁designer	-11.3687
▁affairs	-11.3688
▁पल्ट	-11.3689
▁घट्यो	-11.3689
▁Dave	-11.3691
▁knife	-11.3695
▁romantic	-11.3695
▁convince	-11.3696
▁बिकास	-11.3696
▁बिमा	-11.3698
▁फो	-11.3699
▁जित्न	-11.37
▁भेटिए	-11.37
▁एक्लै	-11.3704
zing	-11.3704
▁ओलीलाई	-11.3706
▁बनाउँदै	-11.3706
▁detect	-11.3706
Your	-11.3706
▁universal	-11.3707
▁पुर्व	-11.3707
▁सरकारसँग	-11.3708
▁रौतहट	-11.3708
▁रामचन्द्र	-11.371
▁Char	-11.371
▁Kim	-11.371
▁responsibilitie	-11.3711
▁march	-11.3714
▁जोडिएको	-11.3716
▁निकुञ्ज	-11.3717
▁fits	-11.3719
front	-11.3719
▁Carolina	-11.3719
▁hunting	-11.3719
▁bitter	-11.3719
▁असल	-11.372
▁differ	-11.372
▁tackle	-11.3721
कार्य	-11.3721
rim	-11.3724
On	-11.3726
▁II	-11.3726
▁व्यक्तिहरु	-11.3727
minute	-11.3728
berry	-11.3729
▁LOL	-11.3729
▁हस्तक्षेप	-11.3729
▁उत्साह	-11.3732
ाना	-11.3733
▁setup	-11.3734
▁नेटवर्क	-11.3734
▁loads	-11.3734
sign	-11.3735
▁खुलेको	-11.3739
▁Reading	-11.374
Mar	-11.3742
▁amongst	-11.3743
▁छुटाउनु	-11.3744
रह	-11.3745
▁smiling	-11.3745
▁Spain	-11.3745
▁boot	-11.375
cate	-11.375
▁wished	-11.3755
▁Jeff	-11.3756
▁ratio	-11.3757
▁पब्लिकेसन्स	-11.3761
▁37	-11.3761
▁भेट्न	-11.3761
ंस	-11.3761
▁युवराज	-11.3762
▁TH	-11.3763
▁nicely	-11.3763
▁माटो	-11.3764
RS	-11.3764
स्थान	-11.3765
▁याद	-11.3769
▁शाक्य	-11.3771
count	-11.3772
▁Photo	-11.3773
▁breathing	-11.3773
500	-11.3774
west	-11.3774
▁foster	-11.3774
▁भीम	-11.3776
▁Bro	-11.3776
▁AC	-11.3777
▁मुक्ति	-11.3777
▁rational	-11.3778
▁क्षेत्रबाट	-11.3778
र्व	-11.3778
cycle	-11.3779
▁Garden	-11.3779
▁punch	-11.3779
▁शंका	-11.378
▁ईमेल	-11.3781
OS	-11.3783
▁participating	-11.3785
▁electrical	-11.3789
▁तिर्न	-11.379
▁लैजाने	-11.379
▁transactions	-11.3792
▁pretend	-11.3792
▁Several	-11.3793
▁demon	-11.3793
▁lawyers	-11.3794
▁subscription	-11.3796
▁delighted	-11.3797
▁stroke	-11.3798
▁उपराष्ट्रपति	-11.3799
▁राजविराज	-11.3799
▁रिट	-11.3802
▁आकार	-11.3804
▁विक	-11.3805
▁Rob	-11.3806
▁peer	-11.3806
▁revolution	-11.3808
िष्ट	-11.3809
▁Form	-11.3811
टिङ	-11.3811
▁lets	-11.3816
▁idiot	-11.3818
▁lease	-11.3819
▁damaged	-11.382
▁दलहरू	-11.382
▁Far	-11.3821
हल	-11.3822
▁तपाईलाई	-11.3823
▁1980	-11.3823
▁शंकर	-11.3826
via	-11.3828
89	-11.3829
▁shell	-11.3831
▁conversion	-11.3831
▁देशलाई	-11.3832
▁डटकम	-11.3833
▁str	-11.3834
स्तर	-11.3835
▁addresses	-11.3836
▁श्रेष्ठको	-11.3837
▁प्ले	-11.3837
▁०१	-11.384
▁rolling	-11.3842
▁dialogue	-11.3843
ुपरेको	-11.3844
मैले	-11.3847
Ex	-11.3848
▁स्वयं	-11.3849
62	-11.385
▁disability	-11.3851
▁चढ	-11.3851
्ता	-11.3854
▁besides	-11.3855
▁caring	-11.3855
ग्रा	-11.3856
▁pic	-11.3857
ाध	-11.3857
▁मानिसले	-11.3858
▁गरिब	-11.3858
▁नमुना	-11.3858
▁दुर्गा	-11.3859
link	-11.3859
▁3)	-11.386
▁profits	-11.3861
▁humanity	-11.3861
▁तपाइको	-11.3862
▁nerve	-11.3864
yard	-11.3866
▁module	-11.3867
▁यसबारे	-11.387
▁difficulties	-11.387
ith	-11.3872
▁languages	-11.3872
bby	-11.3873
NC	-11.3873
ङ्गा	-11.3874
▁संचार	-11.3874
▁मनोनयन	-11.3874
▁आजै	-11.3875
▁presents	-11.3876
▁flower	-11.3876
▁fence	-11.3876
▁Sen	-11.3877
▁मार्	-11.388
ल्यान्ड	-11.3881
▁cheek	-11.3883
▁प्रदर्शनमा	-11.3885
▁2015.	-11.3885
▁कमजोरी	-11.3886
▁दोहोरो	-11.3886
86	-11.3887
aid	-11.3888
▁कुकुर	-11.3888
▁ठक्करबाट	-11.3889
▁Glad	-11.3892
हान	-11.3893
▁availability	-11.3894
▁Anti	-11.3895
▁IP	-11.3895
▁soup	-11.3899
▁एशिया	-11.39
▁bin	-11.3902
▁आयुक्त	-11.3902
og	-11.3904
ees	-11.3905
▁discussing	-11.3905
अन	-11.3907
▁worthy	-11.3909
▁aircraft	-11.3909
▁initially	-11.391
▁occasionally	-11.3913
▁estimate	-11.3915
▁folder	-11.3922
▁पात्र	-11.3923
ich	-11.3923
▁logic	-11.3923
▁५६	-11.3926
▁Del	-11.3927
▁संस्थान	-11.3927
नर	-11.3927
home	-11.3928
▁Website	-11.3929
महा	-11.3931
▁Korea	-11.3934
imp	-11.3934
▁clever	-11.3934
▁qui	-11.3934
▁बन्छ	-11.3936
▁Van	-11.3936
lessly	-11.394
▁aggressive	-11.3941
▁fur	-11.3942
▁हल्ला	-11.3942
ifying	-11.3942
०६	-11.3944
▁del	-11.3944
▁सुनिश्चित	-11.3947
itis	-11.3947
▁immigration	-11.3947
▁रुपैया	-11.3948
▁mild	-11.3952
▁आन्दोलनको	-11.3953
▁20,	-11.3955
▁बैतडी	-11.3956
▁बुढा	-11.3956
थि	-11.3958
▁साझेदारी	-11.3958
ggle	-11.396
म्भ	-11.3961
▁geo	-11.3963
▁Sho	-11.3963
▁गौरव	-11.3963
ncy	-11.3964
▁Camp	-11.3966
स्ती	-11.3966
▁Standard	-11.3971
▁Fu	-11.3972
सल	-11.3972
san	-11.3974
▁साथीहरु	-11.3975
▁banking	-11.3975
्याएको	-11.3976
क्ता	-11.3976
▁gal	-11.3976
▁सजिलै	-11.3977
yes	-11.3978
▁discovery	-11.3982
▁व्यक्तित्व	-11.3984
▁२०१५	-11.3984
▁toys	-11.3984
▁शपथ	-11.3985
-12	-11.3987
ception	-11.3987
▁Mid	-11.3989
▁अन्तर्वार्ता	-11.399
GE	-11.3991
▁armed	-11.3992
▁bored	-11.3995
▁creates	-11.3997
▁थि	-11.3997
▁Number	-11.3997
▁rail	-11.3999
▁consultant	-11.3999
▁DC	-11.4
▁confusion	-11.4
▁compromise	-11.4
▁समारोह	-11.4001
▁मुल	-11.4002
ल्ली	-11.4003
हन	-11.4003
▁अरुण	-11.4003
▁Ren	-11.4003
Ho	-11.4003
▁et	-11.4004
▁बनाउँछ	-11.4006
▁crying	-11.4008
▁mum	-11.4008
▁carrier	-11.4009
▁realistic	-11.4012
▁legitimate	-11.4012
▁Access	-11.4014
▁graphic	-11.4017
▁हिड	-11.4018
▁चलचित्रको	-11.4018
▁Non	-11.402
▁fortune	-11.4022
▁विश्वको	-11.4023
khabar	-11.4024
▁counsel	-11.4024
स्थापन	-11.4024
▁receipt	-11.4025
▁niche	-11.4026
uni	-11.4027
ami	-11.4028
▁अभियुक्त	-11.4029
▁twist	-11.403
▁puzzle	-11.403
OT	-11.403
▁afterwards	-11.403
मलाई	-11.403
eat	-11.403
▁trusted	-11.4031
▁regulation	-11.4033
▁नागरिकलाई	-11.4033
▁mentor	-11.4034
angle	-11.4034
eng	-11.4037
▁बैंकिङ	-11.4037
▁फाइनलमा	-11.4038
▁audit	-11.404
▁aimed	-11.4041
▁completion	-11.4041
▁Administration	-11.4044
▁tournament	-11.4044
▁सस्तो	-11.4044
▁वास्तविक	-11.4045
▁accounting	-11.4045
▁महाशाखा	-11.4045
▁convenience	-11.4046
rise	-11.4048
▁HE	-11.4048
▁संवाद	-11.405
▁evolution	-11.405
▁दृष्टि	-11.4052
▁dumb	-11.4053
▁ब्यक्ति	-11.4054
▁signing	-11.4055
▁मेसिन	-11.4055
▁copyright	-11.4057
▁सिजन	-11.4058
▁($	-11.4059
▁जिन्दगी	-11.4061
dem	-11.4064
▁distinct	-11.4066
duct	-11.4067
▁coaching	-11.4068
▁divided	-11.4074
MENT	-11.4074
▁यथार्थ	-11.4074
▁rolled	-11.4075
▁कर्मचारीले	-11.4076
ल्लो	-11.4077
▁LO	-11.4078
mun	-11.408
ाधिकार	-11.4081
▁neighbors	-11.4083
itor	-11.4083
▁frequent	-11.4085
▁blast	-11.4086
क्षक	-11.4086
०७४	-11.4088
world	-11.4089
▁interviews	-11.4091
clock	-11.4091
think	-11.4092
-19	-11.4092
▁Boo	-11.4092
▁poison	-11.4094
▁spoil	-11.4095
▁Parliament	-11.4096
..."	-11.4097
▁PO	-11.41
▁thumb	-11.41
▁array	-11.4101
▁प्रमाणित	-11.4103
▁इन्धन	-11.4103
▁contrary	-11.4103
▁secondary	-11.4103
▁जलविद्युत	-11.4103
▁EX	-11.4103
ern	-11.4105
्याउन	-11.4106
inter	-11.4106
cial	-11.4109
▁rapid	-11.411
▁crush	-11.411
द्द	-11.411
▁कुराको	-11.4111
2017	-11.4112
ज्ञ	-11.4114
▁characteristics	-11.4115
▁glasses	-11.4115
▁neighbor	-11.4116
मुखी	-11.4119
Hey	-11.4121
▁cease	-11.4121
भए	-11.4122
found	-11.4122
▁specialist	-11.4124
▁destruction	-11.4125
लन	-11.4127
▁Iran	-11.4127
▁loop	-11.4127
ीर	-11.4129
▁subsection	-11.4129
▁बारा	-11.4129
▁माइ	-11.4131
icle	-11.4131
▁FA	-11.4132
▁ceiling	-11.4132
▁Space	-11.4133
▁Short	-11.4134
▁भ्रम	-11.4136
▁20%	-11.4137
▁newly	-11.4139
▁loaded	-11.4139
▁pie	-11.414
▁संस्कार	-11.414
▁generations	-11.4141
▁Looks	-11.4141
▁निगमले	-11.4141
▁पेट्रोल	-11.4143
▁sensor	-11.4146
96	-11.4147
▁राख्नु	-11.4148
लीको	-11.4148
कला	-11.415
▁pointing	-11.415
ural	-11.4152
▁generated	-11.4152
...”	-11.4153
▁शरीरमा	-11.4157
▁खोल्न	-11.4159
▁Angel	-11.416
▁Working	-11.4161
▁बराबरी	-11.4162
▁clicking	-11.4162
▁breach	-11.4163
▁bold	-11.4163
▁नेपालीमा	-11.4165
▁forecast	-11.4165
▁Virginia	-11.4167
▁shore	-11.4169
▁Follow	-11.4171
क्का	-11.4172
▁गुणस्तरीय	-11.4173
▁secrets	-11.4173
लिया	-11.4174
▁Clean	-11.4175
▁प्रकट	-11.4176
एनए	-11.4177
ala	-11.4178
▁हैसियत	-11.418
कथा	-11.418
▁चाड	-11.4182
▁DVD	-11.4182
▁महोत्तरी	-11.4187
▁Safety	-11.4189
▁psychological	-11.4189
▁नबन	-11.4189
▁नपर्ने	-11.4189
▁uncomfortable	-11.419
२२	-11.4191
▁AD	-11.4192
▁खण्डमा	-11.4193
though	-11.4195
▁Download	-11.4198
87	-11.4199
▁बौद्ध	-11.4199
▁tracking	-11.42
▁interaction	-11.42
▁minimal	-11.4201
▁जंगल	-11.4202
At	-11.4202
▁administrative	-11.4202
▁खै	-11.4204
ink	-11.4207
▁ओम	-11.421
OW	-11.4211
▁Mass	-11.4213
▁interpretation	-11.4213
▁trash	-11.4214
▁faculty	-11.4214
▁निगम	-11.4215
week	-11.4215
▁superb	-11.4215
▁officially	-11.4216
▁लेखेको	-11.422
▁पारे	-11.4221
▁weblog	-11.4221
▁reminds	-11.4221
▁Grant	-11.4222
ुभएका	-11.4226
ESS	-11.4228
▁Coast	-11.423
कको	-11.423
▁slight	-11.4232
▁Son	-11.4232
▁pants	-11.4233
▁speaker	-11.4233
▁सन्तोष	-11.4234
person	-11.4235
▁studied	-11.4236
▁actively	-11.4237
▁सेवाको	-11.4239
▁Probably	-11.424
▁Nick	-11.4243
▁wanna	-11.4245
▁associate	-11.4246
▁कुखुरा	-11.4247
▁reserve	-11.4248
RC	-11.4249
▁PRO	-11.4249
▁invention	-11.425
▁Leave	-11.425
▁outlet	-11.4251
▁समारोहमा	-11.4251
▁notification	-11.4253
▁Prime	-11.4253
UL	-11.4254
news	-11.4254
▁stu	-11.4258
▁ठेगाना	-11.4259
पात	-11.4259
▁प्रहरीलाई	-11.4259
wan	-11.426
▁जर्मनी	-11.426
▁worker	-11.4261
UN	-11.4261
▁मैदान	-11.4263
Our	-11.4263
▁seller	-11.4265
▁tables	-11.4266
▁तपाईँ	-11.4267
▁amendment	-11.4269
▁Guy	-11.4271
▁landing	-11.4271
▁extraordinary	-11.4272
▁मन्त्रालयमा	-11.4273
▁3,	-11.4273
▁Better	-11.4275
79	-11.4276
▁खुलासा	-11.4276
▁आउट	-11.4277
सले	-11.4278
▁विद्यार्थीहरु	-11.4279
▁लाग्दैन	-11.428
▁शुरू	-11.4281
▁spite	-11.4282
▁tan	-11.4282
▁cow	-11.4283
▁फस	-11.4284
म्म	-11.4285
DE	-11.4287
▁£1	-11.4287
http	-11.4287
▁smartphone	-11.4288
२३	-11.4288
▁dependent	-11.4289
▁resident	-11.4289
▁referring	-11.4289
oid	-11.429
▁arrangements	-11.429
DA	-11.4291
▁admire	-11.4292
▁panic	-11.4294
cation	-11.4294
▁अगुवा	-11.4294
▁leap	-11.4294
(1)	-11.4296
▁visits	-11.4297
▁उदयपुर	-11.4298
▁pizza	-11.4301
▁प्राय	-11.4301
्दछ	-11.4305
▁मार्च	-11.4306
dies	-11.4307
ाइज	-11.4307
▁38	-11.4308
▁Must	-11.4308
poli	-11.4309
▁हाँस	-11.4309
▁baking	-11.431
▁attempting	-11.431
▁Academy	-11.4311
ंच	-11.4312
ache	-11.4312
▁क्रि	-11.4314
▁नक्सा	-11.4314
▁stake	-11.4319
▁functional	-11.432
▁Complete	-11.4321
aff	-11.4323
▁mi	-11.4324
▁रहेकाले	-11.4325
▁nutrition	-11.4325
▁diversity	-11.4326
▁lowest	-11.4326
▁Sales	-11.4328
▁consistently	-11.433
▁lip	-11.4331
boy	-11.4331
▁illustrate	-11.4331
▁webpage	-11.4331
▁च्याम्पियनसिप	-11.4332
▁ल्याइ	-11.4333
▁गर्नुहुन्छ	-11.4334
▁architecture	-11.4334
ान्त	-11.4334
▁किताब	-11.4337
▁instantly	-11.4337
▁Vol	-11.4338
▁अत्यधिक	-11.4338
85	-11.4339
▁facilitate	-11.4341
▁downtown	-11.4341
cip	-11.4341
▁चाहिन्छ	-11.4342
▁जनयुद्ध	-11.4342
▁पाउनु	-11.4343
▁सम्झना	-11.4345
▁stolen	-11.4345
game	-11.4345
▁Develop	-11.4345
▁डाटा	-11.4346
चोक	-11.4346
▁cameras	-11.4349
NE	-11.435
▁retired	-11.435
now	-11.4351
▁broker	-11.4355
screen	-11.4356
▁translation	-11.4357
्यौ	-11.4359
प्रकाश	-11.4359
▁Learning	-11.436
▁हावा	-11.436
▁ARE	-11.4361
▁Cost	-11.4362
▁mill	-11.4363
▁Par	-11.4363
▁तब	-11.4364
▁देउ	-11.4367
▁न्यू	-11.4367
▁निम्न	-11.4369
▁poster	-11.4373
grade	-11.4374
▁FREE	-11.4374
वर्ष	-11.4379
्म	-11.4379
▁विज्ञप्ति	-11.4381
▁नपुग	-11.4381
▁immune	-11.4382
looking	-11.4383
▁newsletters	-11.4383
▁गर्नेछन्	-11.4384
▁logical	-11.4385
▁Choose	-11.4387
tant	-11.4387
▁दोलखा	-11.439
▁Count	-11.439
check	-11.439
▁votes	-11.4393
▁endless	-11.4393
▁representation	-11.4396
▁gang	-11.4397
▁integrated	-11.4397
aire	-11.4398
ोक	-11.4398
▁गि	-11.4401
▁एकको	-11.4402
▁सिरहा	-11.4402
***	-11.4403
▁प्रबन्ध	-11.4403
▁मुद्रा	-11.4403
▁विभेद	-11.4403
▁incentive	-11.4404
▁भ्रमणका	-11.4405
UT	-11.4405
▁golden	-11.4405
▁bias	-11.4406
BA	-11.4407
▁dump	-11.4407
▁inspiring	-11.4408
iling	-11.4412
▁Jackson	-11.4413
▁apparent	-11.4416
▁fate	-11.4416
▁भगवान	-11.4416
▁फुल	-11.4416
▁Sounds	-11.4418
▁Donald	-11.4418
▁बढेर	-11.4419
▁समयसम्म	-11.4421
▁Za	-11.4421
▁BO	-11.4424
▁सुवेदी	-11.4425
Le	-11.4425
nnie	-11.4428
▁frustrating	-11.4432
▁गणना	-11.4433
▁pics	-11.4433
izz	-11.4434
▁accomplished	-11.4434
▁strain	-11.4434
▁tin	-11.4436
Ro	-11.4437
▁पराजुली	-11.4438
▁sponsor	-11.4439
▁काँ	-11.4439
▁कोइरालाले	-11.4441
▁केन्द्रिय	-11.4443
▁एकदमै	-11.4444
न्च	-11.4446
▁Bell	-11.4449
▁trap	-11.4449
pack	-11.445
▁लेखिएको	-11.4451
५२	-11.4452
▁अस्पतालको	-11.4453
्दैन	-11.4454
▁muscles	-11.4454
▁Hospital	-11.4454
▁ranking	-11.4456
action	-11.4457
vor	-11.4457
▁analyze	-11.4457
▁Girl	-11.446
▁६३	-11.4461
▁विश्वभर	-11.4461
▁कल्पना	-11.4462
▁कृति	-11.4463
▁honey	-11.4463
▁२०७१	-11.4463
चक	-11.4464
▁pad	-11.4466
▁relaxing	-11.447
▁जोग	-11.4475
▁fed	-11.4478
आमा	-11.4478
▁investigate	-11.448
▁42	-11.4481
ाे	-11.4483
्दो	-11.4483
ati	-11.4483
▁Kingdom	-11.4484
mini	-11.4486
▁हाउस	-11.4487
र्म	-11.4488
▁angle	-11.4489
▁twelve	-11.4491
पोर्ट	-11.4491
▁ceremony	-11.4492
क्ति	-11.4495
▁नारायणगढ	-11.4495
▁sneak	-11.4496
▁bacteria	-11.4498
▁विद्युतीय	-11.4499
▁आत्मा	-11.4503
०००	-11.4503
▁नगरपालिकामा	-11.4504
tell	-11.4504
gle	-11.4505
▁slice	-11.4506
ग्रह	-11.4508
▁unlike	-11.4509
▁comparable	-11.4509
मिन	-11.4512
नयाँ	-11.4512
▁neuro	-11.4515
▁प्रस्तुति	-11.4515
▁hike	-11.4515
each	-11.4518
▁ठिक	-11.4521
▁reflection	-11.4522
▁marijuana	-11.4522
▁Log	-11.4522
flow	-11.4527
▁stack	-11.4529
▁regions	-11.453
▁स्वरुप	-11.4532
▁fu	-11.4532
▁Disney	-11.4532
▁गाउँपालिकाको	-11.4533
▁perception	-11.4533
▁failing	-11.4534
uous	-11.4536
nar	-11.4537
्ले	-11.4538
nie	-11.4538
▁prayers	-11.4538
▁Bas	-11.4539
▁hitting	-11.454
atic	-11.4541
▁विदा	-11.4543
▁राजेश	-11.4544
यक	-11.4544
▁खरेल	-11.4545
▁राना	-11.4545
▁सेप्टेम्बर	-11.4545
१७	-11.4547
▁structures	-11.4547
▁पेस	-11.4547
▁courts	-11.4547
▁publisher	-11.4548
▁सामूहिक	-11.455
▁पक्षले	-11.4551
▁न्यौपाने	-11.4552
▁सिरिया	-11.4552
हीन	-11.4552
▁boyfriend	-11.4553
लोक	-11.4554
७२	-11.4555
▁हिँड	-11.4555
▁calories	-11.4556
▁गर्भवती	-11.4557
▁restrictions	-11.4559
▁पाउ	-11.4561
बस	-11.4563
space	-11.4563
दायी	-11.4564
▁पात्रो	-11.4564
▁Sur	-11.4564
bid	-11.4566
rent	-11.4566
▁adjustment	-11.4566
▁virtually	-11.4566
त्ती	-11.4566
▁nowhere	-11.4569
▁emissions	-11.457
▁दिगो	-11.457
▁बुवा	-11.4572
▁Us	-11.4572
apos	-11.4575
▁spray	-11.4575
98	-11.4578
▁execution	-11.4578
▁adoption	-11.4578
▁quilt	-11.4578
▁fiscal	-11.4579
▁tension	-11.4579
▁viewing	-11.458
▁goodness	-11.458
meter	-11.4581
▁Either	-11.4581
▁नसक	-11.4582
▁notion	-11.4582
▁पछिल्ला	-11.4582
▁advantages	-11.4582
▁Based	-11.4583
▁consists	-11.4585
▁democracy	-11.4585
▁घोषणापत्र	-11.4586
tics	-11.4586
New	-11.4587
▁अफर	-11.4588
AY	-11.4589
▁occupation	-11.4592
▁cock	-11.4593
▁writes	-11.4594
▁चाहने	-11.4599
▁represented	-11.4599
▁obligations	-11.4599
▁पारस	-11.46
तिक	-11.46
▁Dark	-11.4601
▁defeat	-11.4601
▁infant	-11.4601
rac	-11.4602
rating	-11.4603
▁4,	-11.4603
itude	-11.4606
▁resolved	-11.4608
▁Southern	-11.461
▁हाइ	-11.461
▁Save	-11.4611
▁Pol	-11.4615
▁territory	-11.4615
▁amazed	-11.4616
▁दिनभित्र	-11.4617
craft	-11.4617
AA	-11.4617
▁बार	-11.4618
▁signature	-11.462
▁survival	-11.462
▁बढे	-11.4621
ome	-11.4622
▁Eli	-11.4622
rip	-11.4622
ites	-11.4623
▁threats	-11.4624
यी	-11.4625
▁rap	-11.4626
▁Training	-11.4627
ground	-11.4627
ously	-11.463
▁lap	-11.463
ुको	-11.4631
दुई	-11.4637
ali	-11.4637
▁citizen	-11.4637
▁बुझाउन	-11.4638
▁०६	-11.4641
▁नराम्रो	-11.4642
▁Christians	-11.4643
▁लमजुङ	-11.4643
ME	-11.4643
50,000	-11.4645
▁लाभांश	-11.4646
▁roughly	-11.4648
▁Case	-11.4649
टको	-11.465
▁seeds	-11.4651
SO	-11.4651
▁तोड	-11.4652
▁integrity	-11.4653
▁Living	-11.4654
▁Brian	-11.4654
▁stations	-11.4654
91	-11.4654
▁ja	-11.4655
▁Record	-11.466
▁पालना	-11.466
▁Daily	-11.4661
elle	-11.4662
▁बिशेष	-11.4664
सै	-11.4664
छौं	-11.4668
▁Jews	-11.4669
▁steady	-11.4672
▁mat	-11.4673
▁exceptional	-11.4673
▁inch	-11.4674
▁protecting	-11.4675
लिन	-11.4677
▁अग्रता	-11.4677
▁guaranteed	-11.4678
kins	-11.4678
▁निरीक्षक	-11.4679
▁स्रोतले	-11.4681
ski	-11.4683
▁मरे	-11.4683
▁ह्या	-11.4687
▁baseball	-11.4688
cake	-11.4688
▁Hot	-11.4693
▁५८	-11.4694
▁engineer	-11.4698
▁slot	-11.4698
्यौं	-11.47
▁singer	-11.4701
▁yoga	-11.4702
▁Action	-11.4702
▁listened	-11.4706
▁visa	-11.4707
क्षेत्र	-11.4708
▁addiction	-11.4708
▁प्रशस्त	-11.4709
▁keys	-11.4709
cade	-11.4712
▁Greek	-11.4712
▁gross	-11.4712
▁Wild	-11.4713
▁mono	-11.4713
▁Phil	-11.4714
will	-11.4714
▁Ann	-11.4714
▁ज्या	-11.4714
पथ	-11.4715
▁रोज	-11.4715
ora	-11.4716
▁सदस्यको	-11.4717
▁मलेसियामा	-11.4717
▁gentleman	-11.4718
▁पति	-11.4718
hole	-11.472
ँड	-11.472
▁फेसबुकमा	-11.4722
▁31,	-11.4723
▁त्याग	-11.4723
▁दिनुपर्छ	-11.4728
▁handful	-11.4729
कुमारी	-11.4729
tech	-11.4729
ाक	-11.4731
▁पार्टीमा	-11.4731
▁किनकि	-11.4732
▁प्रहरीका	-11.4732
▁petition	-11.4734
72	-11.4735
▁पवित्र	-11.4736
je	-11.4736
▁nuts	-11.4737
▁सोधे	-11.4738
▁cater	-11.4738
▁Jones	-11.4738
▁मुलुकका	-11.4741
▁ब्राजिल	-11.4741
▁punishment	-11.4741
▁क्षेत्री	-11.4741
▁इन्जिनियर	-11.4743
▁patch	-11.4743
▁पारिश्रमिक	-11.4745
श्व	-11.4746
विहीन	-11.4746
▁skilled	-11.4748
▁मिन	-11.475
ण्ट	-11.4755
▁जान्न	-11.4755
▁विद्यालयको	-11.4755
▁निकाल	-11.4756
▁holes	-11.4757
PR	-11.4758
▁उपन्यास	-11.4761
▁labour	-11.4763
▁scream	-11.4764
▁थालिएको	-11.4765
▁नर्स	-11.4767
▁tube	-11.477
▁evaluate	-11.4772
▁targeted	-11.4772
▁जापानमा	-11.4773
▁editing	-11.4774
▁राय	-11.4777
inate	-11.4778
▁भारतबाट	-11.4779
rine	-11.478
▁1/2	-11.478
▁किन्न	-11.4781
▁भाइरल	-11.4783
▁;).	-11.4786
पार	-11.4786
▁लक्षण	-11.4788
▁चेक	-11.479
▁Death	-11.479
▁परिवारले	-11.4792
▁cy	-11.4792
▁instrument	-11.4792
▁Cap	-11.4793
▁Library	-11.4795
▁राजश्व	-11.4795
लय	-11.4796
▁wherever	-11.4799
▁1970	-11.4799
▁दुईवटा	-11.4799
▁reservation	-11.4801
▁कल्याण	-11.4802
▁महान	-11.4802
▁episodes	-11.4803
▁हुनसक्ने	-11.4805
▁exhibition	-11.4805
हिन	-11.4806
▁राती	-11.4806
▁समयको	-11.4808
PM	-11.4809
4)	-11.4811
zy	-11.4812
आज	-11.4814
Is	-11.4814
▁drill	-11.4816
▁पार्दै	-11.4817
▁Latin	-11.4818
bot	-11.4819
▁जुनसुकै	-11.482
▁बर्दिया	-11.482
▁packages	-11.482
▁clip	-11.4821
▁तिन	-11.4822
▁blanket	-11.4823
TO	-11.4823
▁explaining	-11.4825
ंदै	-11.4827
too	-11.4828
▁entertaining	-11.4828
▁सन्धि	-11.4829
हरुसँग	-11.4829
▁यात्रामा	-11.4831
▁productivity	-11.4835
▁Bad	-11.4835
▁संयन्त्र	-11.4836
ायल	-11.4836
▁झडप	-11.4839
▁delight	-11.484
▁भोजपुर	-11.484
▁motivated	-11.4841
▁अंकले	-11.4842
▁desperate	-11.4844
एफ	-11.4844
▁genre	-11.4845
▁curve	-11.4845
▁Mind	-11.4845
▁fifty	-11.4846
सचिव	-11.4847
▁ghost	-11.4847
▁promises	-11.4847
▁पेज	-11.4848
▁COM	-11.4848
म्बा	-11.485
▁साधारणसभा	-11.4851
nate	-11.4851
▁tooth	-11.4852
बापत	-11.4854
नेछ	-11.4854
▁pricing	-11.4855
ुहोस	-11.4857
▁sy	-11.4858
▁jacket	-11.4859
▁exercises	-11.4861
▁तथ्याङ्क	-11.4862
▁Making	-11.4865
▁radical	-11.4866
▁Thanksgiving	-11.4869
▁Area	-11.4869
FF	-11.487
▁worn	-11.4872
▁माध्यमिक	-11.4872
position	-11.4872
▁Due	-11.4873
▁स्मार्ट	-11.4874
फु	-11.4875
▁dec	-11.4878
▁दायर	-11.4878
▁छाडेर	-11.4878
▁concentration	-11.4878
▁royal	-11.488
▁hung	-11.4881
sub	-11.4882
▁withdraw	-11.4882
exp	-11.4885
▁bell	-11.4885
▁Except	-11.4886
logical	-11.4888
erate	-11.4889
▁entity	-11.4889
▁constitute	-11.4891
▁$20	-11.4892
▁Scotland	-11.4894
▁कामना	-11.4894
▁Str	-11.4894
▁indoor	-11.4894
▁विप्लव	-11.4897
▁Bel	-11.4898
▁तनहुँ	-11.4899
▁manufacturer	-11.4899
▁विश्वकै	-11.49
▁स्थानीयवासी	-11.4901
ेले	-11.4902
▁measurement	-11.4902
Man	-11.4903
pet	-11.4907
open	-11.4908
Lo	-11.4909
▁respective	-11.491
▁मोड	-11.491
▁मर	-11.4911
▁भाषण	-11.4911
जल	-11.4912
शिल	-11.4912
lent	-11.4912
▁Taking	-11.4913
परि	-11.4914
बाबु	-11.4915
▁मूल्यमा	-11.4915
ुङ	-11.4916
▁नारी	-11.492
▁quantity	-11.492
▁अन्तरक्रिया	-11.492
92	-11.4921
▁सुरुङ	-11.4921
नल	-11.4922
▁spelling	-11.4922
▁casino	-11.4923
going	-11.4924
र्द	-11.4924
▁Peace	-11.4928
्नुहोस्	-11.4931
ढा	-11.4931
▁describes	-11.4931
▁lung	-11.4932
▁2-	-11.4932
▁Andrew	-11.4933
Bo	-11.4934
▁शान्त	-11.4936
gers	-11.4939
▁strive	-11.4939
▁Ryan	-11.4939
▁Five	-11.494
▁warned	-11.494
▁संसदको	-11.4942
wind	-11.4944
AC	-11.4946
▁preach	-11.4946
▁पुनःनिर्माण	-11.4947
▁सिमेन्ट	-11.4948
▁spec	-11.4948
▁आएकी	-11.4953
▁नल	-11.4954
▁४६	-11.4955
dri	-11.4955
▁७२	-11.4957
Hi	-11.4958
▁Exp	-11.4959
छा	-11.4959
▁उस्तै	-11.4962
mod	-11.4962
LD	-11.4964
▁राम्रा	-11.4965
Some	-11.4965
▁uncle	-11.4966
▁Obviously	-11.4968
▁passes	-11.4972
▁बोलको	-11.4976
▁sal	-11.4976
▁backup	-11.4978
▁SP	-11.4983
▁swear	-11.4984
▁deaths	-11.4984
▁६४	-11.4984
▁अनुभूति	-11.4985
▁बार्सिलोना	-11.4986
▁Michigan	-11.4986
▁equity	-11.4986
▁खोज्न	-11.4986
▁gaming	-11.4987
▁gently	-11.4988
▁Bla	-11.499
▁manifest	-11.4991
▁fought	-11.4992
▁fer	-11.4993
▁Ray	-11.4994
col	-11.4997
▁ships	-11.4998
▁सडकको	-11.5
▁फाल	-11.5
▁aims	-11.5002
▁observe	-11.5004
▁ल्याइएको	-11.5004
▁occasions	-11.5005
▁recruit	-11.5009
▁universities	-11.5009
▁धनकुटा	-11.5015
▁Mountain	-11.5015
▁गरिदिन	-11.5015
ंश	-11.5015
यम	-11.5016
▁controls	-11.5016
▁Beautiful	-11.5018
▁matches	-11.5021
▁offence	-11.5021
▁अनसन	-11.5024
ppy	-11.5025
▁निष्कर्ष	-11.5025
▁trailer	-11.5028
▁सशक्त	-11.5028
when	-11.5029
▁कूल	-11.5029
▁gotta	-11.5032
▁५४	-11.5033
▁syn	-11.5035
▁theater	-11.5035
▁invitation	-11.5036
▁नेकपाको	-11.5036
ND	-11.5037
▁दक्ष	-11.5037
▁Among	-11.5039
▁Cri	-11.5041
▁खड्काले	-11.5043
▁ओभर	-11.5043
▁campaigns	-11.5044
kes	-11.5048
▁फाल्गुन	-11.5049
विद्	-11.5049
▁developer	-11.505
▁अशोक	-11.5051
▁Six	-11.5051
▁गुट	-11.5053
▁Store	-11.5053
▁लगानीमा	-11.5056
▁पर्यो	-11.5059
▁Johnson	-11.5061
▁pound	-11.5063
पान	-11.5063
बास	-11.5064
▁बनाई	-11.5066
▁entries	-11.5069
▁couch	-11.5072
ग्र	-11.5073
▁उहाँहरु	-11.5073
वरण	-11.5074
▁छैन्	-11.5075
8.	-11.5075
▁Tony	-11.5075
five	-11.5078
gro	-11.5079
▁आइरहेको	-11.5079
▁!!!	-11.5081
▁conviction	-11.5081
▁हराएको	-11.5082
▁obligation	-11.5083
▁उपप्रधानमन्त्री	-11.5083
▁खेत	-11.5083
▁myth	-11.5086
साइ	-11.5087
▁photographs	-11.5087
url	-11.5087
▁dentist	-11.5088
▁बेल्जियम	-11.509
▁फर	-11.5092
▁titles	-11.5092
▁welfare	-11.5093
▁acquire	-11.5093
eration	-11.5095
EM	-11.51
▁moderate	-11.5103
सू	-11.5104
▁SE	-11.5105
▁तोक	-11.5107
▁stem	-11.5108
▁नकारात्मक	-11.5108
ँग	-11.5109
▁assumed	-11.5109
▁वडाध्यक्ष	-11.5112
▁diagnosis	-11.5114
▁मेलम्ची	-11.5116
▁Agency	-11.5116
▁अर्याल	-11.5117
▁अभियोगमा	-11.5117
▁४७	-11.5118
मुख	-11.5118
EST	-11.5118
▁ब्याटिङ	-11.5119
▁बराल	-11.512
only	-11.5121
▁carpet	-11.5122
wikipedia	-11.5123
▁jumped	-11.5124
फाइ	-11.5124
▁कुरालाई	-11.5125
▁fruits	-11.5125
४५	-11.5125
▁अङ्क	-11.5126
67	-11.5129
▁poly	-11.5129
▁Pet	-11.5132
eb	-11.5134
▁rape	-11.5134
ATE	-11.5135
▁शिक्षाको	-11.5135
▁मावि	-11.5137
ene	-11.5138
▁printing	-11.5139
▁छलफलमा	-11.514
▁stumbled	-11.5141
such	-11.5141
▁Ministry	-11.5141
▁sequence	-11.5141
ल्या	-11.5142
▁Bal	-11.5142
▁Following	-11.5146
▁hiding	-11.5148
ऊ	-11.5148
▁नोभेम्बर	-11.5148
▁लेखेका	-11.5148
▁Main	-11.5149
▁strict	-11.515
▁travelling	-11.5151
▁Protection	-11.5155
▁व्यवस्थापिका	-11.5155
▁नब	-11.5155
▁सिंहले	-11.5156
▁चित्त	-11.5156
▁lemon	-11.5158
▁बस्नेतले	-11.5158
See	-11.5159
gie	-11.516
▁woke	-11.516
▁publicly	-11.5162
radi	-11.5164
▁True	-11.5164
▁Henry	-11.5166
▁गठबन्धनको	-11.5166
▁साहित्यकार	-11.5167
▁बास	-11.5167
▁सहारा	-11.5167
order	-11.5168
फर	-11.5168
▁Para	-11.5169
round	-11.5171
Come	-11.5171
▁finds	-11.5175
▁filing	-11.5175
▁instructor	-11.5176
ele	-11.5178
खो	-11.518
▁insult	-11.518
Every	-11.5181
▁Jersey	-11.5181
▁western	-11.5182
▁warming	-11.5183
▁processed	-11.5184
▁determination	-11.5184
▁overnight	-11.5185
ique	-11.5185
▁staring	-11.5186
bul	-11.5187
▁हिमाली	-11.5187
▁toxic	-11.5188
^	-11.5189
▁cabin	-11.5191
्टर	-11.5192
▁५३	-11.5193
▁छठ	-11.5193
र्ब	-11.5195
▁Northern	-11.5195
▁चिन्ह	-11.5196
रुप	-11.5197
▁networking	-11.5199
▁knees	-11.52
▁%	-11.5201
▁ver	-11.5201
▁नृत्य	-11.5202
▁२०७०	-11.5202
organ	-11.5204
▁गर्नुस्	-11.5204
ग्राम	-11.5208
▁समाजका	-11.5208
▁दिदी	-11.5208
ाएपछि	-11.5209
▁छाडे	-11.521
▁wet	-11.5211
bert	-11.5211
▁Brand	-11.5211
▁महासंघका	-11.5212
nan	-11.5214
▁reasonably	-11.5215
२९	-11.5216
▁acquired	-11.5217
▁insights	-11.5217
▁01	-11.5218
▁चाहेको	-11.5218
▁hotels	-11.522
▁अधिकारीको	-11.5222
▁बजेदेखि	-11.5223
▁advised	-11.5224
▁दशैँ	-11.5224
▁urge	-11.5225
ज्यू	-11.5227
▁Apparently	-11.5228
४०	-11.5228
▁उनीहरूलाई	-11.5228
▁''	-11.5228
▁shocked	-11.5229
▁Def	-11.523
▁Lots	-11.5231
▁ignored	-11.5231
▁buried	-11.5232
▁province	-11.5235
DS	-11.5235
▁dramatic	-11.5236
▁supports	-11.5238
▁CH	-11.5239
▁कागज	-11.5242
▁heating	-11.5244
your	-11.5245
▁बुधवार	-11.5246
pin	-11.5246
▁timing	-11.5246
▁जोगाउन	-11.5247
▁प्रस्थान	-11.5249
▁denied	-11.5249
▁Arm	-11.525
▁delete	-11.5251
▁एकपटक	-11.5251
सुन	-11.5251
▁lens	-11.5253
▁costume	-11.5253
▁दूतावास	-11.5254
▁Irish	-11.5254
▁nursing	-11.5257
▁Regulation	-11.5257
▁उपत्यकामा	-11.5257
▁Moreover	-11.5259
sized	-11.526
▁fluid	-11.526
▁flexibility	-11.5261
▁wider	-11.5262
▁hey	-11.5263
▁नदिन	-11.5264
▁coal	-11.5264
▁अन्	-11.5264
दल	-11.5265
▁appreciation	-11.5266
than	-11.5267
▁enabled	-11.5267
▁आइडल	-11.5267
bus	-11.5269
note	-11.5269
▁भैरहेको	-11.527
▁Going	-11.5271
▁येशू	-11.5273
▁Baby	-11.5273
▁जनाए	-11.5275
▁बाँड	-11.5278
▁representatives	-11.5279
▁प्रशंसा	-11.528
▁prevention	-11.528
▁substitute	-11.5281
▁सङ्घीय	-11.5281
▁काठमाडाैं	-11.5281
▁11,	-11.5282
lop	-11.5282
▁scholarship	-11.5283
पश्चिम	-11.5287
▁रुपैयाँको	-11.5288
्ना	-11.5289
▁rot	-11.5291
▁clubs	-11.5292
▁clo	-11.5292
▁capabilities	-11.5293
▁seasons	-11.5293
lb	-11.5294
▁Nations	-11.5294
▁चरित्र	-11.5294
▁cruise	-11.5296
▁Copyright	-11.5296
very	-11.5298
nut	-11.5299
राज्य	-11.53
eo	-11.53
ैमा	-11.5302
▁harsh	-11.5303
▁Qua	-11.5303
▁fond	-11.5306
cie	-11.5306
५१	-11.5307
▁prospect	-11.5307
▁grocery	-11.531
▁delivering	-11.5312
▁६१	-11.5316
▁अल्	-11.5317
hol	-11.532
▁targets	-11.5321
▁headline	-11.5321
रीमा	-11.5325
▁पक्का	-11.5326
▁रंगशाला	-11.5326
urs	-11.5327
▁Run	-11.5328
▁केटा	-11.5329
मुग्लिन	-11.533
▁holder	-11.533
▁cart	-11.5331
मैत्री	-11.5331
sec	-11.5331
NO	-11.5333
२१	-11.5333
▁styles	-11.5334
▁अखिल	-11.5335
क्षित	-11.5335
▁नदीमा	-11.5335
watch	-11.5335
HE	-11.5335
▁handled	-11.5336
main	-11.5336
▁jam	-11.5337
▁घो	-11.5339
▁Democratic	-11.534
mile	-11.5341
▁Tre	-11.5344
▁stir	-11.5345
▁छोराछोरी	-11.5347
▁Additionally	-11.5347
Where	-11.5347
▁Study	-11.5349
▁कुट	-11.535
▁actor	-11.535
पर्ने	-11.5351
▁attain	-11.5351
▁killer	-11.5351
▁tricks	-11.5357
▁restore	-11.5357
▁passengers	-11.5357
▁beans	-11.5358
▁प्रतिपक्षी	-11.536
▁hyper	-11.5361
▁glory	-11.5362
▁विश्वमा	-11.5362
▁५७	-11.5364
▁कुटपिट	-11.5366
▁Mel	-11.5366
▁transformation	-11.5368
▁bake	-11.537
▁बेच	-11.5372
▁4-	-11.5373
nova	-11.5373
PER	-11.5376
▁ट्रेड	-11.5376
जय	-11.5378
▁Member	-11.5379
काठमाडौं	-11.538
▁कार्यक्रमलाई	-11.538
68	-11.538
▁टिभी	-11.5381
cia	-11.5382
▁instances	-11.5382
▁खोल्नुहोस्	-11.5383
▁39	-11.5383
nia	-11.5383
लुङ	-11.5383
▁fantasy	-11.5384
▁रुपियाँ	-11.5384
ander	-11.5388
▁सैन्य	-11.539
▁ढकालले	-11.539
▁hired	-11.539
▁container	-11.5392
▁थिएनन्	-11.5393
▁sole	-11.5393
▁polite	-11.5394
प्ल	-11.5394
▁ugly	-11.5395
▁रोगको	-11.5395
▁संस्थामा	-11.5396
▁नसकिने	-11.5396
▁प्रतिवद्धता	-11.5397
▁lawsuit	-11.5399
▁Credit	-11.54
▁flour	-11.5403
▁बरामद	-11.5403
▁पक्कै	-11.5405
ference	-11.5406
ude	-11.5406
▁धेरैले	-11.5406
▁Sco	-11.5407
▁retreat	-11.5407
▁11.	-11.5409
▁Almost	-11.541
▁seed	-11.5412
▁virus	-11.5412
▁cabinet	-11.5413
▁Author	-11.5414
▁बोल्ने	-11.5414
▁बिजनेस	-11.5414
▁Oct	-11.5415
▁(5)	-11.5415
१३	-11.5415
▁dealt	-11.5416
EP	-11.5418
▁lean	-11.5423
▁attempted	-11.5425
▁narrative	-11.5425
▁सिंगापुर	-11.5427
▁दरबार	-11.543
▁thorough	-11.543
▁screw	-11.5432
▁stops	-11.5433
▁संजाल	-11.5435
क्सन	-11.5436
▁देवकोटा	-11.5436
▁2014.	-11.5436
▁विर	-11.5437
▁लेखेर	-11.5438
▁भिडियोमा	-11.5439
▁समेट	-11.5443
SC	-11.5445
▁अस्वीकार	-11.5445
शो	-11.5446
▁stranger	-11.5446
▁gene	-11.5447
▁15,	-11.5449
५८	-11.545
ममा	-11.5451
▁उड्डयन	-11.5451
बाद	-11.5451
▁meantime	-11.5452
shire	-11.5454
०३	-11.5455
▁Dick	-11.5455
94	-11.5456
दुर	-11.5456
▁धम्की	-11.5457
▁लुट	-11.5457
६०	-11.5459
▁बढुवा	-11.546
73	-11.5463
▁अलपत्र	-11.5465
posing	-11.5469
▁regulatory	-11.547
direct	-11.547
▁realise	-11.5471
▁Luc	-11.5472
▁चेतना	-11.5473
▁नेपालबाट	-11.5473
▁सेन्ट्रल	-11.5474
▁रिहा	-11.5475
▁candle	-11.5475
▁तालमेल	-11.5475
ouch	-11.5478
door	-11.548
▁dirt	-11.548
नेट	-11.548
▁गर्छौं	-11.5481
gin	-11.5482
▁chemicals	-11.5482
पक्ष	-11.5485
▁नेपालीलाई	-11.5485
▁dr	-11.5487
▁Charlie	-11.5487
▁अनिल	-11.5488
त्री	-11.5488
▁bankruptcy	-11.5489
▁बचाउन	-11.549
▁कोरियाको	-11.5491
▁speakers	-11.5491
▁newsletter	-11.5491
gun	-11.5497
▁patent	-11.5497
▁समात	-11.5499
▁समुदायका	-11.5502
rian	-11.5502
▁awarded	-11.5505
▁जगत	-11.5505
▁सकिन	-11.5506
▁कृपया	-11.5508
▁सकेनन्	-11.5508
▁स्पेन	-11.5509
▁Otherwise	-11.5509
▁concluded	-11.551
▁quo	-11.551
▁affects	-11.5511
cular	-11.5512
ज्	-11.5513
▁इन्स्योरेन्स	-11.5514
▁deciding	-11.5515
▁drag	-11.5515
▁contemporary	-11.5515
▁चोक	-11.5516
▁olive	-11.5517
▁manufacturers	-11.5519
▁बृद्धि	-11.5522
▁founded	-11.5522
▁बालबालिकाको	-11.5523
▁हेरे	-11.5527
▁snap	-11.553
▁diagnosed	-11.5534
ढी	-11.5534
▁Ana	-11.5535
समक्ष	-11.5536
▁लघुवित्त	-11.5536
र्य	-11.5536
▁समा	-11.5539
LI	-11.5539
▁hint	-11.554
▁Figure	-11.554
dar	-11.5541
▁पन्तको	-11.5541
▁Ku	-11.5541
▁Arts	-11.5543
▁स्वच्छ	-11.5543
▁temperatures	-11.5543
▁Brother	-11.5544
▁́	-11.5545
ifies	-11.5546
▁घर्ती	-11.5546
▁Meeting	-11.5549
▁पाई	-11.5549
▁जिप	-11.5549
▁preserve	-11.555
्छौं	-11.555
▁गरिबी	-11.5551
▁woods	-11.5552
inch	-11.5554
▁नायब	-11.5558
▁Arab	-11.5558
American	-11.556
▁लगत्तै	-11.556
▁Within	-11.5561
▁headache	-11.5561
▁disabled	-11.5561
▁खेल्दै	-11.5562
▁छोडेर	-11.5562
▁Victoria	-11.5564
▁Jason	-11.5566
▁arrangement	-11.5569
▁राष्ट्रियता	-11.5569
▁फाइल	-11.5572
▁ल्या	-11.5574
▁1000	-11.5574
▁दिई	-11.5575
Look	-11.5575
▁चालू	-11.5578
▁mere	-11.5578
▁5-	-11.5579
▁mineral	-11.558
▁magnificent	-11.5584
▁fifth	-11.5585
▁globe	-11.5585
▁awards	-11.5585
▁gratitude	-11.5586
▁apologize	-11.5587
sky	-11.5588
▁पठाइ	-11.5589
▁मनाउन	-11.5589
▁वै	-11.5589
OM	-11.5589
२७	-11.559
93	-11.5591
▁flesh	-11.5594
):.	-11.5594
▁meets	-11.5595
▁स्वा	-11.5595
▁ph	-11.5596
▁लगाइएको	-11.5599
▁नो	-11.5601
bli	-11.5602
▁संविधानले	-11.5605
▁Line	-11.5607
▁kindness	-11.5609
२०७५	-11.5609
▁initiatives	-11.5611
▁resulted	-11.5611
▁ठग	-11.5613
▁आफूहरु	-11.5617
SH	-11.5618
solve	-11.562
टिभ	-11.5621
▁cooperation	-11.5621
	-11.5622
▁रोजगारीका	-11.5623
▁विशिष्ट	-11.5625
have	-11.5625
▁Ali	-11.5625
▁disabilities	-11.5625
ाऊ	-11.5626
सम्	-11.5631
▁torture	-11.5634
ggie	-11.5635
▁Made	-11.5635
▁sisters	-11.5636
▁condo	-11.5638
स्त्र	-11.5638
▁Rather	-11.5639
▁Annual	-11.5639
▁gaze	-11.5641
▁desktop	-11.5642
▁विशाल	-11.5644
▁abortion	-11.5644
▁fails	-11.5645
▁महत्त्वपूर्ण	-11.5645
▁फिट	-11.5646
▁pest	-11.5648
hill	-11.5653
▁accompanied	-11.5654
▁बलमा	-11.5656
▁वान	-11.5656
▁bubble	-11.5656
▁गोरे	-11.5656
claim	-11.5657
▁Olympic	-11.5658
▁WITH	-11.5659
▁pig	-11.5661
▁coupon	-11.5664
▁cruel	-11.5666
▁Brad	-11.5666
िस्ट	-11.5666
▁सङ्	-11.5667
▁लेखनाथ	-11.5667
▁supporters	-11.5668
▁ब्याज	-11.5668
▁finishing	-11.5668
▁उत्तिकै	-11.567
▁relaxed	-11.567
▁दाइ	-11.5677
शास्त्र	-11.5678
कृ	-11.568
▁boots	-11.568
stitution	-11.5681
▁Asian	-11.5681
ह्र	-11.5684
▁automatic	-11.5685
▁यसकारण	-11.5685
▁Fox	-11.5685
▁दफा	-11.5686
▁leather	-11.5686
०७५	-11.569
▁भेटिएको	-11.569
▁गर्दछन्	-11.569
ध्या	-11.569
▁आश	-11.5691
bla	-11.5691
fect	-11.5693
▁exc	-11.5694
▁सेट	-11.5694
▁चिनी	-11.5695
OO	-11.5698
▁continuous	-11.5699
▁suggesting	-11.57
▁reviewed	-11.5701
▁wrapped	-11.5701
▁await	-11.5703
▁Dog	-11.5705
▁सहसचिव	-11.5706
▁viewed	-11.5706
त्या	-11.5706
lig	-11.5707
▁बराबर	-11.5708
▁औषधी	-11.5708
▁junk	-11.5708
▁छुट्ट	-11.5709
▁मन्त्रिपरिषद	-11.5709
▁jar	-11.5709
high	-11.571
▁Ci	-11.5711
▁घुम्न	-11.5713
▁voices	-11.5714
▁शुक्रवार	-11.5715
3%	-11.5716
rich	-11.5719
▁स्या	-11.5719
▁Eric	-11.572
▁संवाददाता	-11.5721
▁चितवनको	-11.5721
▁z	-11.5721
--"	-11.5722
▁देउवाको	-11.5722
FA	-11.5723
▁राष्ट्रसंघ	-11.5724
▁movements	-11.5725
▁alongside	-11.5726
ographic	-11.5726
▁shine	-11.5726
▁sentiment	-11.5726
▁७८	-11.5728
▁McC	-11.5729
▁अधिकारको	-11.573
▁scam	-11.573
▁विश्वकर्मा	-11.5731
▁cooked	-11.5731
▁रसुवा	-11.5733
▁राष्ट्रपतिको	-11.5733
▁17,	-11.5733
▁चरम	-11.5735
▁जनवरी	-11.5735
▁ढ	-11.5736
")	-11.5736
ोस	-11.5737
een	-11.5738
bbing	-11.5738
▁मोदीको	-11.5739
▁दी	-11.5739
▁blank	-11.5739
▁Major	-11.574
▁Dam	-11.5741
▁accommodate	-11.5741
▁Kevin	-11.5741
▁Years	-11.5741
▁exhaust	-11.5743
▁Eve	-11.5743
श्री	-11.5745
▁dealer	-11.5745
▁पदार्थको	-11.5747
▁OS	-11.5748
▁नभ	-11.5748
▁Story	-11.5749
mph	-11.5749
▁spectacular	-11.5749
▁arrange	-11.575
▁indication	-11.5751
vel	-11.5752
▁Ms	-11.5752
▁समस्याको	-11.5752
▁मात्रा	-11.5752
िदिए	-11.5753
२६	-11.5755
▁brew	-11.5755
▁Pacific	-11.5756
▁excessive	-11.5756
▁राजु	-11.5758
▁मालिक	-11.5758
eries	-11.5758
▁disappeared	-11.5759
cid	-11.5759
▁km	-11.5759
outs	-11.5761
▁Isn	-11.5762
▁एन्ड्रोइड	-11.5762
▁बानेश्वर	-11.5763
▁placing	-11.5764
▁बिल	-11.5765
▁Image	-11.5767
▁कम्तिमा	-11.5767
र्जन	-11.5769
▁Bring	-11.577
▁Clark	-11.5772
कले	-11.5772
▁tick	-11.5772
▁थापाथली	-11.5781
▁सम्वन्ध	-11.5782
▁मोदीले	-11.5782
▁enforce	-11.5784
▁odds	-11.5785
biotic	-11.5787
▁offensive	-11.5788
▁Cancel	-11.5788
ano	-11.5789
▁devil	-11.579
ula	-11.579
चित्र	-11.5791
▁उत्तम	-11.5791
▁licensed	-11.5793
▁घाईते	-11.5793
▁नेकपाका	-11.5794
▁भएकै	-11.5794
OK	-11.5795
▁1999	-11.5795
▁achievement	-11.5796
▁बोकेको	-11.5797
▁आयल	-11.5799
Ba	-11.58
BC	-11.5803
▁किरण	-11.5805
▁देखाउने	-11.5805
▁सेवाग्राही	-11.5806
▁आतंक	-11.5807
▁certified	-11.5808
▁recommendation	-11.5808
▁Email	-11.5812
▁progressive	-11.5813
ICE	-11.5815
osis	-11.5817
▁governor	-11.5817
cen	-11.5818
▁Congratulations	-11.5818
TC	-11.5819
इट	-11.582
▁भोली	-11.582
▁परिसर	-11.5821
▁composition	-11.5821
▁ख्रीष्ट	-11.5822
pho	-11.5823
▁सन	-11.5823
▁captured	-11.5826
▁एसियाली	-11.5826
▁आत्मनिर्भर	-11.5826
▁ताप्लेजुङ	-11.5826
▁दिनेश	-11.5826
▁temple	-11.5828
IE	-11.5828
▁awkward	-11.5831
▁30,	-11.5832
शक्ति	-11.5833
▁दुबई	-11.5833
▁जनमत	-11.5835
▁speaks	-11.5835
▁बाँच्न	-11.5835
quest	-11.5835
हरुबाट	-11.5839
ility	-11.5839
aka	-11.5839
▁बढिरहेको	-11.584
▁पावर	-11.5842
▁texture	-11.5844
▁ढि	-11.5846
▁references	-11.5847
▁निक्षेप	-11.5848
▁भइसकेका	-11.5848
scale	-11.5851
▁Halloween	-11.5851
▁कस्ता	-11.5852
▁चाहन्छ	-11.5853
▁Dun	-11.5853
▁रोकिएको	-11.5854
▁boards	-11.5854
▁औसत	-11.5854
▁actors	-11.5854
encies	-11.5855
तन्त्र	-11.5855
▁भविष्यमा	-11.5857
▁pets	-11.5857
▁→	-11.5859
▁खोज्दै	-11.5859
▁निर	-11.586
▁Dead	-11.5864
▁वायु	-11.5865
कहाँ	-11.5866
▁बार्षिक	-11.5867
sey	-11.5867
सीसी	-11.5869
▁जसका	-11.5869
पूर्वक	-11.587
▁Furthermore	-11.587
▁कार्यक्रमहरु	-11.5871
▁शिशु	-11.5871
▁कम्पनीका	-11.5872
▁wireless	-11.5874
▁anytime	-11.5874
ibility	-11.5875
▁therapist	-11.5877
▁आवद्ध	-11.5879
▁Usually	-11.5881
dam	-11.5881
०१	-11.5882
Mi	-11.5883
▁None	-11.5883
elect	-11.5883
▁हात्ती	-11.5884
\\	-11.5885
▁बनायो	-11.5886
▁Ye	-11.5888
▁बनेर	-11.5889
78	-11.5889
▁रेग्मी	-11.5889
▁GO	-11.5889
्टि	-11.589
▁Festival	-11.5891
▁जित्ने	-11.5891
▁जीप	-11.5891
aver	-11.5891
▁2015,	-11.5893
▁साहित्यिक	-11.5894
▁बेनी	-11.5897
▁factory	-11.5898
▁स्वास्थ्यमा	-11.5898
DI	-11.59
▁ham	-11.59
bri	-11.5901
▁bare	-11.5902
▁प्रोत्साहन	-11.5902
▁MP	-11.5904
▁श्रीलंका	-11.5904
▁effectiveness	-11.5905
▁क्षतिपूर्ति	-11.5906
▁drives	-11.5908
TV	-11.5909
▁16,	-11.5909
▁44	-11.5909
▁drum	-11.5911
▁Governor	-11.5911
▁Listen	-11.5911
▁oldest	-11.5911
▁कान	-11.5911
▁उपाध्याय	-11.5912
::	-11.5913
Qu	-11.5914
▁artificial	-11.5914
▁भारी	-11.5915
▁विनोद	-11.5915
met	-11.5915
▁Hiya	-11.5916
▁waves	-11.5918
▁assure	-11.5919
▁सापकोटा	-11.5919
▁HO	-11.5922
▁cyber	-11.5923
phy	-11.5924
▁महानिरीक्षक	-11.5925
िन्छन्	-11.5925
▁medications	-11.5926
▁रुख	-11.5926
qual	-11.5927
▁ख्याल	-11.5927
तम	-11.5927
▁keyboard	-11.5928
▁instruments	-11.5928
▁बह	-11.5929
▁अमेरिकाले	-11.593
▁ruling	-11.5931
▁टिका	-11.5933
▁बिचार	-11.5934
ँच	-11.5935
कता	-11.5935
▁Student	-11.5939
76	-11.5939
mir	-11.594
▁Es	-11.594
▁योग्यता	-11.5941
▁useless	-11.5941
▁तस्विर	-11.5943
▁भय	-11.5944
▁तल्लो	-11.5945
▁विकसित	-11.5946
▁interactive	-11.5946
▁10-	-11.5946
▁रोचक	-11.5947
▁Ze	-11.5947
service	-11.5949
▁treating	-11.5949
हिल	-11.595
▁सञ्चारमाध्यम	-11.595
▁wings	-11.5951
▁रोपनी	-11.5951
▁जोडिन	-11.5952
▁indicates	-11.5954
▁Write	-11.5954
▁गौतमले	-11.5955
▁डुब	-11.5955
▁अनुवाद	-11.5956
-7	-11.5958
न्थ	-11.5959
▁bench	-11.5959
पूर	-11.596
▁cigarette	-11.596
▁civilian	-11.596
▁सार्बजनिक	-11.5961
ड्क	-11.5962
▁फुटबलको	-11.5963
▁candy	-11.5964
ddy	-11.5968
bury	-11.5968
▁अस्पतालका	-11.5969
Ah	-11.5969
▁Dream	-11.5972
▁Often	-11.5972
▁उहाँका	-11.5973
▁राज्यमन्त्री	-11.5974
▁2016,	-11.5974
▁accidents	-11.5976
▁loading	-11.5977
▁emerging	-11.5977
▁Hor	-11.5981
cle	-11.5984
▁bones	-11.5986
▁alleged	-11.5987
▁अप्रिल	-11.5987
▁चाप	-11.5988
जान	-11.5988
empt	-11.5988
द्व	-11.5992
▁सुदूरपश्चिम	-11.5993
▁प्रतिस्पर्धी	-11.5994
▁placement	-11.5996
▁Ohio	-11.5997
▁thrilled	-11.5998
2)	-11.5998
▁गर्थे	-11.5998
▁recipient	-11.5999
▁मन्त्रिपरिषद्को	-11.6
▁ate	-11.6001
▁AN	-11.6002
▁कपिलवस्तु	-11.6004
▁रहस्य	-11.6004
▁duration	-11.6009
▁प्रचण्डको	-11.6009
▁Interesting	-11.601
▁खन	-11.601
▁HIV	-11.6012
▁pause	-11.6014
▁Kids	-11.6014
▁FI	-11.6014
▁नेपालगन्ज	-11.6016
▁नत्र	-11.6016
▁फाइनान्स	-11.6017
▁wooden	-11.6022
▁हत्यारा	-11.6026
▁रहनु	-11.6026
▁Hollywood	-11.6028
▁नवराज	-11.6029
▁nap	-11.6029
amine	-11.6031
▁ग्लोबल	-11.6031
▁Nature	-11.6032
▁Professor	-11.6034
तन	-11.6034
▁basketball	-11.6036
web	-11.6037
▁आउँदो	-11.6037
▁चर्को	-11.6038
▁ग्या	-11.6038
oli	-11.6039
▁indicator	-11.6039
▁knowledgeable	-11.604
▁Link	-11.6043
▁faithful	-11.6044
▁सधै	-11.6044
▁competitors	-11.6045
▁fri	-11.6048
▁दिदै	-11.6049
▁ty	-11.6049
▁centuries	-11.6049
▁happier	-11.6051
▁विशेषता	-11.6051
▁त्यसरी	-11.6053
▁सुरुमा	-11.6055
▁कुर	-11.6057
▁bulk	-11.6057
▁dropping	-11.6057
▁भ्रमणको	-11.6057
▁शून्य	-11.6058
▁quest	-11.606
▁convention	-11.606
▁रावल	-11.606
▁assuming	-11.6061
▁Ven	-11.6062
▁flame	-11.6063
▁रहर	-11.6064
▁practitioner	-11.6066
▁अडान	-11.6067
IG	-11.6068
▁अमर	-11.6068
▁MI	-11.6068
▁prescribed	-11.6069
▁भन्नुहुन्छ	-11.6071
ुपर्दछ	-11.6073
▁क्रान्तिकारी	-11.6074
shing	-11.6074
▁नेपालगञ्ज	-11.6074
▁13,	-11.6075
▁southern	-11.6075
▁अत्यन्तै	-11.6077
was	-11.6077
did	-11.6077
▁राम्रै	-11.6078
ae	-11.608
▁».	-11.608
▁वाइ	-11.6082
ital	-11.6084
▁परिचयपत्र	-11.6084
▁cop	-11.6086
▁सुरू	-11.6086
निर्	-11.6087
▁सधैँ	-11.6087
ण्डा	-11.6088
▁६८	-11.6089
▁deemed	-11.6089
▁श्रीमान्	-11.6089
▁चितवनमा	-11.609
▁तौल	-11.609
▁2017,	-11.6091
▁workshops	-11.6092
▁त्रिवि	-11.6094
▁acceptance	-11.6095
▁measured	-11.6095
ख्या	-11.6097
era	-11.6097
▁integration	-11.6097
▁6,	-11.6098
71	-11.6098
▁Nu	-11.6098
▁७७	-11.6099
▁pillow	-11.6099
▁applicant	-11.6099
▁पण्डित	-11.6099
▁योग्य	-11.6101
▁रोनाल्डो	-11.6102
▁मुस्ताङ	-11.6103
▁Overall	-11.6107
▁TR	-11.6107
▁Sy	-11.6108
▁observation	-11.611
▁sometime	-11.611
▁पूरै	-11.611
ँगा	-11.6114
▁hospitals	-11.6115
▁theatre	-11.6116
▁MR	-11.6116
▁चौधरीले	-11.6116
▁MY	-11.6118
▁ministry	-11.6119
using	-11.6121
▁ir	-11.6125
▁मर्	-11.6126
▁vet	-11.6128
▁दिप	-11.6128
▁PDF	-11.6129
▁solely	-11.613
▁खडा	-11.613
▁सामु	-11.613
▁एनसेल	-11.6136
▁educated	-11.6137
▁परा	-11.6138
lap	-11.6139
▁Hell	-11.6141
▁cord	-11.6141
▁Muslim	-11.6142
▁चो	-11.6143
▁म्यान	-11.6143
▁cal	-11.6147
▁पर्नेछ	-11.6148
nc	-11.6149
▁crop	-11.6149
▁प्रालि	-11.615
▁दिल	-11.6154
▁बल्ल	-11.6155
▁jurisdiction	-11.6155
▁HERE	-11.6156
▁margin	-11.6156
▁miracle	-11.6157
▁grey	-11.6159
▁romance	-11.616
gel	-11.6161
▁Seriously	-11.6162
▁Pal	-11.6163
▁परम्परागत	-11.6163
▁affair	-11.6164
▁frustration	-11.6165
▁altogether	-11.6166
▁गतिमा	-11.6167
▁सुरक्षाको	-11.6168
▁buyer	-11.6169
Com	-11.617
▁render	-11.6171
▁Third	-11.6171
▁Cam	-11.6172
▁बोर्डले	-11.6173
▁basket	-11.6175
▁२०१४	-11.6175
quire	-11.6175
▁ठोक	-11.6178
▁पाँचथर	-11.618
public	-11.6182
▁पठाउनु	-11.6183
▁भेग	-11.6183
▁seal	-11.6185
mount	-11.6185
गन	-11.6186
▁Organization	-11.6187
लाइन	-11.6187
ional	-11.6189
▁unnecessary	-11.6189
अध्यक्ष	-11.6189
ाम	-11.619
▁squ	-11.6192
मुनि	-11.6192
▁sketch	-11.6193
ban	-11.6195
▁चाहिने	-11.6196
▁५००	-11.6198
ogen	-11.6198
▁Kind	-11.6198
▁Liz	-11.6199
HO	-11.62
mg	-11.62
▁Professional	-11.6202
▁VI	-11.6202
▁क्यान	-11.6203
wall	-11.6204
▁hormone	-11.6204
▁kingdom	-11.6205
▁ढुक्क	-11.6206
arian	-11.6208
▁निर्णायक	-11.621
83	-11.621
ग्रे	-11.6211
▁तिनीहरू	-11.6213
69	-11.6215
▁rack	-11.6216
▁गर्मी	-11.6217
▁painted	-11.622
बुल	-11.6221
▁विकेटले	-11.6221
▁९५	-11.6222
▁निषेध	-11.6224
▁intimate	-11.6224
▁rocks	-11.6225
▁beef	-11.6226
▁hurry	-11.6226
metric	-11.6228
▁entertain	-11.6229
▁RO	-11.623
▁mouse	-11.6231
▁Tea	-11.6232
▁कसको	-11.6232
▁विश्वकपमा	-11.6232
▁sounded	-11.6233
▁wing	-11.6234
▁Division	-11.6235
▁lazy	-11.6236
▁balanced	-11.6239
▁wore	-11.6239
▁हतार	-11.624
▁authorized	-11.624
▁धा	-11.6241
▁rip	-11.6242
▁removing	-11.6245
▁NA	-11.6245
▁कम्प	-11.6245
▁racing	-11.6248
▁आन्दोलनका	-11.6249
▁Ram	-11.6249
▁भीड	-11.625
▁terror	-11.6251
▁बढ्छ	-11.6251
अर्	-11.6251
▁दरले	-11.6252
With	-11.6252
▁stability	-11.6254
▁अनियमितता	-11.6256
®	-11.6256
▁विनिमय	-11.6256
gor	-11.6257
ured	-11.6257
▁financing	-11.6258
ien	-11.6259
▁Cut	-11.6259
▁corporation	-11.6261
▁breathe	-11.6262
▁$50	-11.6263
▁deserves	-11.6265
▁Rome	-11.6267
ावली	-11.6267
▁confess	-11.6268
▁configuration	-11.627
▁frozen	-11.6271
np	-11.6272
iation	-11.6273
▁दोष	-11.6273
AND	-11.6274
▁washing	-11.6277
▁Hold	-11.6278
▁बजेर	-11.628
?).	-11.6281
▁Pur	-11.6282
५६	-11.6284
▁Imagine	-11.6285
▁र्	-11.6285
२०७४	-11.6286
▁considerably	-11.6288
pra	-11.6288
▁(4	-11.6288
ini	-11.6289
▁कोठामा	-11.6289
▁spam	-11.6289
▁श्याम	-11.6289
▁14,	-11.629
▁arranged	-11.629
▁easiest	-11.6293
▁लालबाबु	-11.6293
▁involvement	-11.6294
▁ethnic	-11.6295
▁इन्द्र	-11.6298
Da	-11.6298
▁opens	-11.6302
mel	-11.6303
▁wages	-11.6303
▁limitations	-11.6303
▁सदन	-11.6304
TR	-11.6304
avi	-11.6304
▁Islam	-11.6309
▁६२	-11.6309
लीमा	-11.6312
gress	-11.6313
▁feeding	-11.6314
▁compliment	-11.6316
▁विक्रम	-11.6317
fund	-11.6318
▁रहेछन्	-11.6318
▁दान	-11.6319
▁सम्मको	-11.6319
▁confirmation	-11.6319
▁tourist	-11.6319
▁reveals	-11.632
▁काङ्ग्रेस	-11.6322
▁abandoned	-11.6323
▁refers	-11.6323
▁adorable	-11.6323
far	-11.6325
▁circuit	-11.6326
▁outline	-11.6326
▁बिषय	-11.6327
▁practically	-11.6328
▁mainstream	-11.6329
oriented	-11.633
▁Update	-11.633
▁sigh	-11.6332
▁उन	-11.6333
▁Fred	-11.6334
/1	-11.6335
▁दिएपछि	-11.6335
▁→.	-11.6336
▁Total	-11.6336
▁purchases	-11.6337
▁Cover	-11.6338
▁elderly	-11.634
▁Heaven	-11.634
etic	-11.6341
▁अपराधी	-11.6342
▁गएपछि	-11.6342
iving	-11.6344
▁temp	-11.6344
▁neutral	-11.6344
▁ल्याए	-11.6346
▁श्रेणी	-11.6348
▁naked	-11.635
रहने	-11.6352
▁Elizabeth	-11.6352
▁आरोहण	-11.6354
▁insane	-11.6354
▁holy	-11.6355
▁डोनाल्ड	-11.6355
▁जीवनका	-11.6358
bon	-11.6359
▁regarded	-11.636
bol	-11.636
▁franchise	-11.636
▁सर्वेक्षण	-11.6362
▁tro	-11.6364
▁lobby	-11.6364
ister	-11.6366
ONE	-11.6367
▁Gene	-11.6368
ask	-11.637
Did	-11.637
[...]
